{
  "version": "1.0",
  "truncation": null,
  "padding": null,
  "added_tokens": [
    {
      "id": 0,
      "content": "<pad>",
      "single_word": false,
      "lstrip": false,
      "rstrip": false,
      "normalized": false,
      "special": true
    },
    {
      "id": 1,
      "content": "<bos>",
      "single_word": false,
      "lstrip": false,
      "rstrip": false,
      "normalized": false,
      "special": true
    },
    {
      "id": 2,
      "content": "<eos>",
      "single_word": false,
      "lstrip": false,
      "rstrip": false,
      "normalized": false,
      "special": true
    },
    {
      "id": 3,
      "content": "<src>",
      "single_word": false,
      "lstrip": false,
      "rstrip": false,
      "normalized": false,
      "special": true
    },
    {
      "id": 4,
      "content": "<tgt>",
      "single_word": false,
      "lstrip": false,
      "rstrip": false,
      "normalized": false,
      "special": true
    }
  ],
  "normalizer": null,
  "pre_tokenizer": {
    "type": "ByteLevel",
    "add_prefix_space": false,
    "trim_offsets": true,
    "use_regex": true
  },
  "post_processor": {
    "type": "ByteLevel",
    "add_prefix_space": true,
    "trim_offsets": true,
    "use_regex": true
  },
  "decoder": {
    "type": "ByteLevel",
    "add_prefix_space": true,
    "trim_offsets": true,
    "use_regex": true
  },
  "model": {
    "type": "BPE",
    "dropout": null,
    "unk_token": "<pad>",
    "continuing_subword_prefix": null,
    "end_of_word_suffix": null,
    "fuse_unk": false,
    "byte_fallback": false,
    "ignore_merges": false,
    "vocab": {
      "<pad>": 0,
      "<bos>": 1,
      "<eos>": 2,
      "<src>": 3,
      "<tgt>": 4,
      "!": 5,
      "\"": 6,
      "#": 7,
      "$": 8,
      "%": 9,
      "&": 10,
      "'": 11,
      "*": 12,
      "+": 13,
      ",": 14,
      "-": 15,
      ".": 16,
      "/": 17,
      "0": 18,
      "1": 19,
      "2": 20,
      "3": 21,
      "4": 22,
      "5": 23,
      "6": 24,
      "7": 25,
      "8": 26,
      "9": 27,
      ":": 28,
      ";": 29,
      "<": 30,
      "=": 31,
      ">": 32,
      "?": 33,
      "@": 34,
      "A": 35,
      "B": 36,
      "C": 37,
      "D": 38,
      "E": 39,
      "F": 40,
      "G": 41,
      "H": 42,
      "I": 43,
      "J": 44,
      "K": 45,
      "L": 46,
      "M": 47,
      "N": 48,
      "O": 49,
      "P": 50,
      "Q": 51,
      "R": 52,
      "S": 53,
      "T": 54,
      "U": 55,
      "V": 56,
      "W": 57,
      "Y": 58,
      "Z": 59,
      "[": 60,
      "\\": 61,
      "]": 62,
      "_": 63,
      "`": 64,
      "a": 65,
      "b": 66,
      "c": 67,
      "d": 68,
      "e": 69,
      "f": 70,
      "g": 71,
      "h": 72,
      "i": 73,
      "j": 74,
      "k": 75,
      "l": 76,
      "m": 77,
      "n": 78,
      "o": 79,
      "p": 80,
      "q": 81,
      "r": 82,
      "s": 83,
      "t": 84,
      "u": 85,
      "v": 86,
      "w": 87,
      "x": 88,
      "y": 89,
      "z": 90,
      "|": 91,
      "~": 92,
      "¡": 93,
      "¢": 94,
      "£": 95,
      "¤": 96,
      "¥": 97,
      "¦": 98,
      "§": 99,
      "¨": 100,
      "©": 101,
      "ª": 102,
      "«": 103,
      "¬": 104,
      "®": 105,
      "¯": 106,
      "°": 107,
      "±": 108,
      "²": 109,
      "³": 110,
      "´": 111,
      "µ": 112,
      "¶": 113,
      "·": 114,
      "¸": 115,
      "¹": 116,
      "º": 117,
      "»": 118,
      "¼": 119,
      "½": 120,
      "¾": 121,
      "¿": 122,
      "Â": 123,
      "Ã": 124,
      "Ä": 125,
      "Å": 126,
      "Æ": 127,
      "Ç": 128,
      "È": 129,
      "É": 130,
      "Ê": 131,
      "Ë": 132,
      "Ì": 133,
      "Î": 134,
      "Ï": 135,
      "Ð": 136,
      "Ñ": 137,
      "Ò": 138,
      "Ô": 139,
      "Õ": 140,
      "Ö": 141,
      "×": 142,
      "Ø": 143,
      "Ù": 144,
      "Ú": 145,
      "Û": 146,
      "Ü": 147,
      "Ý": 148,
      "Þ": 149,
      "à": 150,
      "á": 151,
      "â": 152,
      "ã": 153,
      "ä": 154,
      "å": 155,
      "æ": 156,
      "ç": 157,
      "è": 158,
      "é": 159,
      "ê": 160,
      "ë": 161,
      "ì": 162,
      "í": 163,
      "ï": 164,
      "Ċ": 165,
      "Ġ": 166,
      "Ģ": 167,
      "ģ": 168,
      "Ĥ": 169,
      "ĥ": 170,
      "Ħ": 171,
      "ħ": 172,
      "Ĩ": 173,
      "ĩ": 174,
      "Ī": 175,
      "ī": 176,
      "Ĭ": 177,
      "ĭ": 178,
      "Į": 179,
      "į": 180,
      "İ": 181,
      "ı": 182,
      "Ĳ": 183,
      "ĳ": 184,
      "Ĵ": 185,
      "ĵ": 186,
      "Ķ": 187,
      "ķ": 188,
      "ĸ": 189,
      "Ĺ": 190,
      "ĺ": 191,
      "Ļ": 192,
      "ļ": 193,
      "Ľ": 194,
      "ľ": 195,
      "Ŀ": 196,
      "ŀ": 197,
      "Ł": 198,
      "ł": 199,
      "Ń": 200,
      "Ġ=": 201,
      "Ġa": 202,
      "Ġ;": 203,
      "er": 204,
      "in": 205,
      "th": 206,
      "an": 207,
      "Ġc": 208,
      "on": 209,
      "Ġs": 210,
      "at": 211,
      "Ġf": 212,
      "re": 213,
      "Ġb": 214,
      "ar": 215,
      "Ġ1": 216,
      "le": 217,
      "Ġ,": 218,
      "or": 219,
      "Ġp": 220,
      "Ġth": 221,
      "en": 222,
      "Ġh": 223,
      "is": 224,
      "Ġ-": 225,
      "it": 226,
      "Ġo": 227,
      "Ġw": 228,
      "al": 229,
      "ic": 230,
      "Ġm": 231,
      "Ġthe": 232,
      "am": 233,
      "Ġn": 234,
      "st": 235,
      "ed": 236,
      "rb": 237,
      "Ġin": 238,
      "Ġd": 239,
      "Ġt": 240,
      "Ġ2": 241,
      "Ġ19": 242,
      "Ġ.": 243,
      "Ġan": 244,
      "Ġof": 245,
      "es": 246,
      "ing": 247,
      "Ġr": 248,
      "as": 249,
      "ion": 250,
      "il": 251,
      "la": 252,
      "ce": 253,
      "om": 254,
      "Ġ20": 255,
      "Ġand": 256,
      "ir": 257,
      "ou": 258,
      "Ġg": 259,
      "ge": 260,
      "oo": 261,
      "el": 262,
      "ch": 263,
      "Ġl": 264,
      "Ġj": 265,
      "rrb": 266,
      "lrb": 267,
      "ame": 268,
      "Ġis": 269,
      "ur": 270,
      "ent": 271,
      "iv": 272,
      "Ġre": 273,
      "id": 274,
      "Ġhe": 275,
      "ol": 276,
      "un": 277,
      "ig": 278,
      "itle": 279,
      "ate": 280,
      "Ġe": 281,
      "ly": 282,
      "title": 283,
      "ers": 284,
      "he": 285,
      "Ġpr": 286,
      "Ġ'": 287,
      "ear": 288,
      "Ġbir": 289,
      "Ġbirth": 290,
      "Ġde": 291,
      "ow": 292,
      "Ġ200": 293,
      "Ġst": 294,
      "Ġk": 295,
      "ian": 296,
      "Ġfoo": 297,
      "ber": 298,
      "Ġy": 299,
      "ad": 300,
      "Ġfor": 301,
      "im": 302,
      "Ġar": 303,
      "ation": 304,
      "ct": 305,
      "ut": 306,
      "ust": 307,
      "Ġ|": 308,
      "Ġwas": 309,
      "Ġto": 310,
      "Ġ--": 311,
      "ri": 312,
      "and": 313,
      "pt": 314,
      "end": 315,
      "os": 316,
      "igh": 317,
      "date": 318,
      "Ġ201": 319,
      "ice": 320,
      "et": 321,
      "ity": 322,
      "Ġch": 323,
      "em": 324,
      "Ġ''": 325,
      "ub": 326,
      "Ġfood": 327,
      "name": 328,
      "ov": 329,
      "Ġon": 330,
      "ra": 331,
      "Ġart": 332,
      "lace": 333,
      "The": 334,
      "Ġas": 335,
      "ho": 336,
      "oc": 337,
      "ist": 338,
      "Ġv": 339,
      "us": 340,
      "Ġal": 341,
      "Ġle": 342,
      "um": 343,
      "ia": 344,
      "place": 345,
      "pe": 346,
      "icle": 347,
      "Ġun": 348,
      "Ġarticle": 349,
      "ith": 350,
      "all": 351,
      "Ġ5": 352,
      "Ġat": 353,
      "ap": 354,
      "Ġrat": 355,
      "ul": 356,
      "Ġname": 357,
      "ay": 358,
      "ot": 359,
      "orn": 360,
      "Ġ`": 361,
      "ren": 362,
      "con": 363,
      "Ġ199": 364,
      "ath": 365,
      "ivers": 366,
      "ant": 367,
      "age": 368,
      "ag": 369,
      "art": 370,
      "riend": 371,
      "Ġrating": 372,
      "Ġwith": 373,
      "Ġse": 374,
      "lay": 375,
      "of": 376,
      "Ġ``": 377,
      "riendly": 378,
      "ustom": 379,
      "res": 380,
      "Ġhis": 381,
      "Ġcustom": 382,
      "ight": 383,
      "ational": 384,
      "ary": 385,
      "Ġfr": 386,
      "ard": 387,
      "Ġcustomer": 388,
      "Ġbe": 389,
      "ĠC": 390,
      "ĠThe": 391,
      "Ġ3": 392,
      "oun": 393,
      "Ġ198": 394,
      "mer": 395,
      "Ġ18": 396,
      "ish": 397,
      "Ġplay": 398,
      "ide": 399,
      "ĠI": 400,
      "Ġ0": 401,
      "cept": 402,
      "ily": 403,
      "up": 404,
      "ange": 405,
      "ue": 406,
      "ess": 407,
      "Ġfam": 408,
      "Ġprice": 409,
      "cepts": 410,
      "concepts": 411,
      "Ġnear": 412,
      "Ġare": 413,
      "ter": 414,
      "ee": 415,
      "Ġfamily": 416,
      "Ġborn": 417,
      "Ġnational": 418,
      "ears": 419,
      "ill": 420,
      "ver": 421,
      "Ġbr": 422,
      "Ġmo": 423,
      "ember": 424,
      "ive": 425,
      "der": 426,
      "ac": 427,
      "own": 428,
      "Ġcl": 429,
      "Ġeat": 430,
      "Ġmar": 431,
      "Ġ197": 432,
      "Ġne": 433,
      "ype": 434,
      "ain": 435,
      "Ġser": 436,
      "Ġim": 437,
      "Ġca": 438,
      "Ġdeath": 439,
      "ball": 440,
      "Ġarea": 441,
      "Type": 442,
      "ĠeatType": 443,
      "Ġte": 444,
      "av": 445,
      "man": 446,
      "ated": 447,
      "Ġcity": 448,
      "se": 449,
      "ug": 450,
      "ie": 451,
      "Ġwh": 452,
      "Ġcom": 453,
      "Ġout": 454,
      "ast": 455,
      "ich": 456,
      "iverside": 457,
      "cc": 458,
      "hop": 459,
      "ak": 460,
      "ip": 461,
      "Ġfrom": 462,
      "sta": 463,
      "off": 464,
      "land": 465,
      "Ġcon": 466,
      "Ġriverside": 467,
      "uary": 468,
      "Ġsp": 469,
      "ĠB": 470,
      "br": 471,
      "Ġby": 472,
      "Range": 473,
      "ire": 474,
      "ort": 475,
      "Ġhas": 476,
      "ĠpriceRange": 477,
      "Ġ196": 478,
      "ĠIt": 479,
      "Ġla": 480,
      "Ġcent": 481,
      "ican": 482,
      "Ġcoff": 483,
      "Ġcoffee": 484,
      "Ġshop": 485,
      "op": 486,
      "if": 487,
      "Ġap": 488,
      "Ġimage": 489,
      "ud": 490,
      "iz": 491,
      "20": 492,
      "Ġserv": 493,
      "urant": 494,
      "Ġresta": 495,
      "Ġrestaurant": 496,
      "our": 497,
      "les": 498,
      "Ġhigh": 499,
      "te": 500,
      "ese": 501,
      "Ġwor": 502,
      "ĠF": 503,
      "Ġro": 504,
      "ry": 505,
      "ition": 506,
      "Ġsh": 507,
      "Friendly": 508,
      "Ġcol": 509,
      "ĠfamilyFriendly": 510,
      "tball": 511,
      "als": 512,
      "cl": 513,
      "Ã©": 514,
      "ick": 515,
      "Ġfootball": 516,
      "ach": 517,
      "ord": 518,
      "ell": 519,
      "Ġyears": 520,
      "Ġnew": 521,
      "ne": 522,
      "ies": 523,
      "ab": 524,
      "Ġ195": 525,
      "ater": 526,
      "Ġ4": 527,
      "Ġen": 528,
      "Ġjo": 529,
      "ke": 530,
      "ild": 531,
      "og": 532,
      "Ġamer": 533,
      "Ġwe": 534,
      "ft": 535,
      "Ġcentre": 536,
      "Ġclub": 537,
      "ine": 538,
      "Ġshe": 539,
      "Ġwho": 540,
      "red": 541,
      "Ġor": 542,
      "Â£": 543,
      "ĠR": 544,
      "ere": 545,
      "Ġyes": 546,
      "ĠÂ£": 547,
      "Ġunivers": 548,
      "rent": 549,
      "od": 550,
      "Ġgr": 551,
      "af": 552,
      "iel": 553,
      "outh": 554,
      "osition": 555,
      "Ġ194": 556,
      "ack": 557,
      "Ġamerican": 558,
      "uc": 559,
      "pg": 560,
      "Ġ6": 561,
      "ound": 562,
      "Ġfe": 563,
      "lish": 564,
      "ong": 565,
      "Ġjan": 566,
      "Ġstat": 567,
      "sh": 568,
      "Ġit": 569,
      "alian": 570,
      "Ġuniversity": 571,
      "Ġsc": 572,
      "Ġthat": 573,
      "Ġpub": 574,
      "ĠE": 575,
      "Ġco": 576,
      "ass": 577,
      "ited": 578,
      "Ġman": 579,
      "Ġpart": 580,
      "Ġmay": 581,
      "Ġaf": 582,
      "ward": 583,
      "so": 584,
      "ld": 585,
      "Ġposition": 586,
      "Ġheight": 587,
      "Ġbo": 588,
      "ther": 589,
      "Ġcur": 590,
      "ts": 591,
      "ree": 592,
      "Ġcr": 593,
      "ouse": 594,
      "Ġher": 595,
      "Ġplayed": 596,
      "Ġfriendly": 597,
      "Ġthan": 598,
      "ton": 599,
      "ore": 600,
      "io": 601,
      "Ġjun": 602,
      "old": 603,
      "Ġjanuary": 604,
      "Ġact": 605,
      "resent": 606,
      "Ġeng": 607,
      "ph": 608,
      "dian": 609,
      "Ġoff": 610,
      "Ġalso": 611,
      "ĠP": 612,
      "Ġloc": 613,
      "Ġpol": 614,
      "Ġnov": 615,
      "Ġunited": 616,
      "Ġju": 617,
      "ague": 618,
      "ull": 619,
      "erm": 620,
      "Ġocc": 621,
      "hn": 622,
      "oals": 623,
      "son": 624,
      "Ġ193": 625,
      "Ġcurrent": 626,
      "jpg": 627,
      "Ġu": 628,
      "Ġkn": 629,
      "Ġfir": 630,
      "amp": 631,
      "ount": 632,
      "ĠIn": 633,
      "act": 634,
      "ro": 635,
      "qu": 636,
      "Ġaug": 637,
      "Ġaver": 638,
      "Ġz": 639,
      "Ġoccup": 640,
      "aps": 641,
      "Ġcal": 642,
      "Ġfirst": 643,
      "Ġmarch": 644,
      "Ġaugust": 645,
      "Ġnot": 646,
      "Ġoccupation": 647,
      "Ġ7": 648,
      "Ġrep": 649,
      "team": 650,
      "to": 651,
      "ern": 652,
      "Ġaverage": 653,
      "ial": 654,
      "Ġfin": 655,
      "Ġ10": 656,
      "rench": 657,
      "ment": 658,
      "Ġprof": 659,
      "ress": 660,
      "Ġteam": 661,
      "Ġjune": 662,
      "Ġad": 663,
      "Ġ8": 664,
      "Ġjuly": 665,
      "Ġcapt": 666,
      "Ġed": 667,
      "but": 668,
      "Ġprofess": 669,
      "Ġchild": 670,
      "ril": 671,
      "Ġsept": 672,
      "Ġche": 673,
      "ang": 674,
      "Ġseptember": 675,
      "apan": 676,
      "ood": 677,
      "Ġoct": 678,
      "Ġlocated": 679,
      "ober": 680,
      "years": 681,
      "Ġleague": 682,
      "Ġ2010": 683,
      "Ġno": 684,
      "Ġoctober": 685,
      "Ġ2012": 686,
      "Ġ17": 687,
      "Ġcan": 688,
      "gh": 689,
      "Ġ2011": 690,
      "Ġsu": 691,
      "Ġdece": 692,
      "mber": 693,
      "Ġrec": 694,
      "Ġterm": 695,
      "Ġapril": 696,
      "Ġ9": 697,
      "Ġlow": 698,
      "Ġcomp": 699,
      "led": 700,
      "ik": 701,
      "Ġdecember": 702,
      "Ġex": 703,
      "Ġsch": 704,
      "lect": 705,
      "ank": 706,
      "Ġ2013": 707,
      "ork": 708,
      "Ġjohn": 709,
      "Ġfull": 710,
      "ook": 711,
      "ash": 712,
      "Ġ2014": 713,
      "ĠA": 714,
      "ock": 715,
      "ict": 716,
      "Ġmoder": 717,
      "Ġi": 718,
      "Ġ2008": 719,
      "club": 720,
      "Ġnovember": 721,
      "Ġ2009": 722,
      "Ġag": 723,
      "Ġwork": 724,
      "Ġgen": 725,
      "Ġass": 726,
      "bruary": 727,
      "ng": 728,
      "Ġma": 729,
      "ames": 730,
      "Ġfebruary": 731,
      "Ġaust": 732,
      "apanese": 733,
      "Ġknown": 734,
      "Ġ192": 735,
      "att": 736,
      "ign": 737,
      "ite": 738,
      "Ġ15": 739,
      "iam": 740,
      "ician": 741,
      "Ġcaption": 742,
      "ĠH": 743,
      "ens": 744,
      "ĠW": 745,
      "ure": 746,
      "Ġcar": 747,
      "ional": 748,
      "wo": 749,
      "Ġtra": 750,
      "Ġpar": 751,
      "ence": 752,
      "Ġ191": 753,
      "Ġplayer": 754,
      "raft": 755,
      "Ġ2007": 756,
      "ĠIndian": 757,
      "ec": 758,
      "Ġ11": 759,
      "for": 760,
      "anc": 761,
      "Ġbas": 762,
      "Ġmus": 763,
      "Ġrange": 764,
      "Ġres": 765,
      "ool": 766,
      "ma": 767,
      "Ġ&": 768,
      "Ġfil": 769,
      "Ġcare": 770,
      "rit": 771,
      "Ġworld": 772,
      "Ġparty": 773,
      "ĠItalian": 774,
      "per": 775,
      "ix": 776,
      "Ġmed": 777,
      "ason": 778,
      "Ġformer": 779,
      "Ġcomm": 780,
      "Ġ16": 781,
      "Ġcount": 782,
      "ans": 783,
      "Ġdebut": 784,
      "Ġmin": 785,
      "idge": 786,
      "Japanese": 787,
      "Ġph": 788,
      "Ġafter": 789,
      "Ġstates": 790,
      "essor": 791,
      "Ġcolle": 792,
      "Ġtr": 793,
      "Ġnationality": 794,
      "ĠJapanese": 795,
      "ield": 796,
      "Ġnor": 797,
      "Ġwhich": 798,
      "ics": 799,
      "ley": 800,
      "Ġ12": 801,
      "ome": 802,
      "hin": 803,
      "Ġdur": 804,
      "Ġfullname": 805,
      "Ġcareer": 806,
      "ck": 807,
      "ĠFrench": 808,
      "ous": 809,
      "Ġind": 810,
      "iss": 811,
      "afÃ©": 812,
      "ina": 813,
      "Ġmember": 814,
      "ĠCafÃ©": 815,
      "we": 816,
      "ĠG": 817,
      "Ġone": 818,
      "ical": 819,
      "ough": 820,
      "Ġaward": 821,
      "Ġfl": 822,
      "Ġwin": 823,
      "Ġme": 824,
      "Ġ2006": 825,
      "enn": 826,
      "Ġsing": 827,
      "Ġ14": 828,
      "Ġgu": 829,
      "year": 830,
      "Ġcollege": 831,
      "Ġlo": 832,
      "Ġaustr": 833,
      "ime": 834,
      "mp": 835,
      "Ġ13": 836,
      "Ġpolit": 837,
      "Ġfilm": 838,
      "Ġ190": 839,
      "Ġgoals": 840,
      "ond": 841,
      "Ġmore": 842,
      "ance": 843,
      "oss": 844,
      "Ġpo": 845,
      "Ġstate": 846,
      "Ġcheap": 847,
      "ĠS": 848,
      "ship": 849,
      "Ġclubs": 850,
      "Ġper": 851,
      "oat": 852,
      "ey": 853,
      "ize": 854,
      "ier": 855,
      "Ġwar": 856,
      "Ġles": 857,
      "Ġduring": 858,
      "Ġinter": 859,
      "Ġapp": 860,
      "ade": 861,
      "Ġyork": 862,
      "len": 863,
      "Ġsouth": 864,
      "nglish": 865,
      "tt": 866,
      "Ġ2015": 867,
      "urg": 868,
      "Ġret": 869,
      "Ġprofessional": 870,
      "ĠEnglish": 871,
      "ult": 872,
      "Ġge": 873,
      "Ġ2005": 874,
      "Ġbut": 875,
      "Ġdraft": 876,
      "Ġab": 877,
      "ctor": 878,
      "ah": 879,
      "Ġus": 880,
      "Ġchildren": 881,
      "Ġserves": 882,
      "Ġyouth": 883,
      "Ġgre": 884,
      "Ġmoderate": 885,
      "Ġpa": 886,
      "atch": 887,
      "Ġrecord": 888,
      "Ġ25": 889,
      "ww": 890,
      "Ġmon": 891,
      "ose": 892,
      "Ġ2004": 893,
      "Ġwill": 894,
      "start": 895,
      "Ġback": 896,
      "az": 897,
      "Ġchamp": 898,
      "hinese": 899,
      "Ġdef": 900,
      "Ġengland": 901,
      "bert": 902,
      "ĠT": 903,
      "ĠChinese": 904,
      "Ġfc": 905,
      "ev": 906,
      "Ã¡": 907,
      "bridge": 908,
      "Ġfootballer": 909,
      "itz": 910,
      "ib": 911,
      "Ġcoach": 912,
      "Ġcaps": 913,
      "Ġseason": 914,
      "Ġchampion": 915,
      "Ġbar": 916,
      "ile": 917,
      "ham": 918,
      "Ġless": 919,
      "Ġmid": 920,
      "ied": 921,
      "19": 922,
      "Ġpre": 923,
      "Ġsw": 924,
      "Ġpric": 925,
      "ince": 926,
      "umber": 927,
      "ff": 928,
      "ory": 929,
      "ada": 930,
      "Ġam": 931,
      "str": 932,
      "30": 933,
      "Ġ30": 934,
      "Ġschool": 935,
      "25": 936,
      "Ġger": 937,
      "ambridge": 938,
      "aw": 939,
      "Ġsucc": 940,
      "ave": 941,
      "Ġ2003": 942,
      "Ġsk": 943,
      "ision": 944,
      "Ġright": 945,
      "px": 946,
      "Ġtwo": 947,
      "Ġpresent": 948,
      "Ġall": 949,
      "active": 950,
      "Ġover": 951,
      "sk": 952,
      "Ġfinal": 953,
      "ĠBoat": 954,
      "ĠRice": 955,
      "Ġbec": 956,
      "sb": 957,
      "gr": 958,
      "bel": 959,
      "Ġelect": 960,
      "bs": 961,
      "Ġchar": 962,
      "air": 963,
      "Ġhar": 964,
      "Ġ189": 965,
      "que": 966,
      "icket": 967,
      "Ġev": 968,
      "ative": 969,
      "Ġrun": 970,
      "Ġ24": 971,
      "ĠFast": 972,
      "eral": 973,
      "Ġserved": 974,
      "ident": 975,
      "Ġwon": 976,
      "Ġear": 977,
      "Ġ21": 978,
      "fl": 979,
      "00": 980,
      "est": 981,
      "Ġbrit": 982,
      "Ġpolitician": 983,
      "int": 984,
      "rown": 985,
      "ace": 986,
      "Ġdire": 987,
      "ale": 988,
      "ann": 989,
      "uss": 990,
      "ĠCambridge": 991,
      "Ġ:": 992,
      "Ġyear": 993,
      "by": 994,
      "Ġkid": 995,
      "urn": 996,
      "Ġrepresent": 997,
      "oci": 998,
      "Ġup": 999,
      "ston": 1000,
      "enc": 1001,
      "Ġgeor": 1002,
      "Ġ2002": 1003,
      "Ġ23": 1004,
      "vel": 1005,
      "riter": 1006,
      "za": 1007,
      "Ġspouse": 1008,
      "tr": 1009,
      "ister": 1010,
      "Ġbl": 1011,
      "Ġel": 1012,
      "Ġpres": 1013,
      "Ġdr": 1014,
      "Ġ22": 1015,
      "Ġhad": 1016,
      "ling": 1017,
      "Ġnd": 1018,
      "Ġbatt": 1019,
      "Ġdist": 1020,
      "ford": 1021,
      "Ġ2000": 1022,
      "Ġ2001": 1023,
      "com": 1024,
      "Ġsm": 1025,
      "Ġ28": 1026,
      "ings": 1027,
      "Ġweight": 1028,
      "Ġrel": 1029,
      "ica": 1030,
      "ummer": 1031,
      "Ġwilliam": 1032,
      "olden": 1033,
      "national": 1034,
      "port": 1035,
      "Ġndash": 1036,
      "Ġ26": 1037,
      "ins": 1038,
      "ove": 1039,
      "Ġagain": 1040,
      "Ġwest": 1041,
      "Ġgerman": 1042,
      "Ġ27": 1043,
      "Ġbest": 1044,
      "ai": 1045,
      "aterman": 1046,
      "Ġfield": 1047,
      "Ġdav": 1048,
      "clud": 1049,
      "ĠWaterman": 1050,
      "Ġ188": 1051,
      "alk": 1052,
      "Ġprov": 1053,
      "Ġpl": 1054,
      "Ġru": 1055,
      "olog": 1056,
      "oup": 1057,
      "co": 1058,
      "Ġmich": 1059,
      "Ġatt": 1060,
      "Ġthr": 1061,
      "Ġinclud": 1062,
      "Ġplace": 1063,
      "gan": 1064,
      "oll": 1065,
      "Ġcurrently": 1066,
      "clubs": 1067,
      "Ġchampionship": 1068,
      "able": 1069,
      "friendly": 1070,
      "Ġbu": 1071,
      "iver": 1072,
      "ane": 1073,
      "Ġcalif": 1074,
      "ired": 1075,
      "Ġband": 1076,
      "Ġcaliforn": 1077,
      "Ġplays": 1078,
      "ms": 1079,
      "Ġchr": 1080,
      "Ġcalled": 1081,
      "Ġcalifornia": 1082,
      "ott": 1083,
      "ions": 1084,
      "ator": 1085,
      "Ġsup": 1086,
      "Ġlead": 1087,
      "Ġbritish": 1088,
      "ior": 1089,
      "yn": 1090,
      "Ġstar": 1091,
      "Ġmanag": 1092,
      "ubl": 1093,
      "Ġactor": 1094,
      "Ġdes": 1095,
      "illies": 1096,
      "ery": 1097,
      "itt": 1098,
      "ep": 1099,
      "oman": 1100,
      "Ġ29": 1101,
      "my": 1102,
      "Ġ1999": 1103,
      "Ġpred": 1104,
      "caps": 1105,
      "ner": 1106,
      "ather": 1107,
      "Ġ1990": 1108,
      "anch": 1109,
      "Ġloan": 1110,
      "agle": 1111,
      "Ġprod": 1112,
      "Ġport": 1113,
      "Ġpresident": 1114,
      "goals": 1115,
      "ely": 1116,
      "Ġwhere": 1117,
      "Ġair": 1118,
      "ĠGolden": 1119,
      "update": 1120,
      "rest": 1121,
      "Ġac": 1122,
      "Ġphil": 1123,
      "Ġdirector": 1124,
      "Ġtheir": 1125,
      "Ġrock": 1126,
      "ÃŃ": 1127,
      "Ġsen": 1128,
      "Ġâ": 1129,
      "lev": 1130,
      "Ġoly": 1131,
      "Ġstud": 1132,
      "Ġking": 1133,
      "ielder": 1134,
      "Ġolymp": 1135,
      "tar": 1136,
      "Ġcont": 1137,
      "Ġmade": 1138,
      "Ġalma": 1139,
      "ecessor": 1140,
      "Ġbeen": 1141,
      "Ġpredecessor": 1142,
      "ze": 1143,
      "itzb": 1144,
      "one": 1145,
      "emb": 1146,
      "Ġli": 1147,
      "Ġnorth": 1148,
      "itzbillies": 1149,
      "ĠEagle": 1150,
      "Ġthree": 1151,
      "Ġalb": 1152,
      "Ġqu": 1153,
      "key": 1154,
      "Ġassoci": 1155,
      "Ġmov": 1156,
      "ille": 1157,
      "jor": 1158,
      "fielder": 1159,
      "Ġlater": 1160,
      "au": 1161,
      "Ġcurrentclub": 1162,
      "mater": 1163,
      "Ġhouse": 1164,
      "Ġgo": 1165,
      "bo": 1166,
      "ĠAr": 1167,
      "//": 1168,
      "cond": 1169,
      "Ġplaying": 1170,
      "ttp": 1171,
      "Ġoffice": 1172,
      "Ġsport": 1173,
      "://": 1174,
      "Ġmusic": 1175,
      "Ġ1998": 1176,
      "Ġbro": 1177,
      "Ġleft": 1178,
      "size": 1179,
      "Ġhttp": 1180,
      "lo": 1181,
      "ark": 1182,
      "stit": 1183,
      "Ġir": 1184,
      "fer": 1185,
      "Ġpet": 1186,
      "Ġmatch": 1187,
      "ys": 1188,
      "Ġother": 1189,
      "ĠAl": 1190,
      "de": 1191,
      "Ġtrain": 1192,
      "Ġ1997": 1193,
      "Ġaustralian": 1194,
      "Ġmil": 1195,
      "ower": 1196,
      "Ġmedal": 1197,
      "Ġdem": 1198,
      "Ġ1996": 1199,
      "Ġinternational": 1200,
      "Ġlaw": 1201,
      "Ġsecond": 1202,
      "Ġtour": 1203,
      "Ġreg": 1204,
      "ĠO": 1205,
      "overn": 1206,
      "let": 1207,
      "Ġmost": 1208,
      "Ġunder": 1209,
      "Ġsuccessor": 1210,
      "Ġmanager": 1211,
      "Ġ1993": 1212,
      "Ġlou": 1213,
      "iment": 1214,
      "ĨĴ": 1215,
      "ĠâĨĴ": 1216,
      "Ġ1992": 1217,
      "ats": 1218,
      "Ã³": 1219,
      "Ġagainst": 1220,
      "out": 1221,
      "igin": 1222,
      "Ġspe": 1223,
      "Ġbet": 1224,
      "ington": 1225,
      "pr": 1226,
      "Ġbecame": 1227,
      "Ġhim": 1228,
      "Ġtime": 1229,
      "Ġmajor": 1230,
      "ise": 1231,
      "Ġruss": 1232,
      "Ġdo": 1233,
      "ĠM": 1234,
      "Ġpriced": 1235,
      "Ġ?": 1236,
      "Ġgenre": 1237,
      "Ġgovern": 1238,
      "Ġ1991": 1239,
      "ious": 1240,
      "ĠBar": 1241,
      "Ġcompet": 1242,
      "ground": 1243,
      "Ġpe": 1244,
      "lue": 1245,
      "aj": 1246,
      "rict": 1247,
      "Ġrated": 1248,
      "Ġ1995": 1249,
      "itch": 1250,
      "Ġorigin": 1251,
      "Ġ187": 1252,
      "fore": 1253,
      "Ġii": 1254,
      "ket": 1255,
      "wood": 1256,
      "ument": 1257,
      "Ġgames": 1258,
      "alia": 1259,
      "Ġbel": 1260,
      "Ġtitle": 1261,
      "Ġsinger": 1262,
      "Ġenglish": 1263,
      "Ġcons": 1264,
      "ĠV": 1265,
      "Ġdistrict": 1266,
      "erson": 1267,
      "Ġ1980": 1268,
      "Ġbra": 1269,
      "ations": 1270,
      "are": 1271,
      "val": 1272,
      "ning": 1273,
      "Ġgeneral": 1274,
      "Ġale": 1275,
      "Ġ1989": 1276,
      "Ġfast": 1277,
      "Ġbla": 1278,
      "Ġbefore": 1279,
      "Ġ1994": 1280,
      "Ġgroup": 1281,
      "Ġminister": 1282,
      "ino": 1283,
      "Ġhave": 1284,
      "Ġ1988": 1285,
      "inc": 1286,
      "Ġjames": 1287,
      "ugh": 1288,
      "Ġ1987": 1289,
      "Ġrepubl": 1290,
      "Ġyouthclubs": 1291,
      "Ġbackground": 1292,
      "fe": 1293,
      "Ġretired": 1294,
      "Ġhel": 1295,
      "ster": 1296,
      "Ġsan": 1297,
      "Ġgeorge": 1298,
      "ico": 1299,
      "Ġste": 1300,
      "Ġnationalteam": 1301,
      "Ġ186": 1302,
      "Ġmidfielder": 1303,
      "ung": 1304,
      "Ġ1986": 1305,
      "ael": 1306,
      "Ġcounty": 1307,
      "Ġthis": 1308,
      "Ġmc": 1309,
      "Ġwhen": 1310,
      "uck": 1311,
      "Ġsol": 1312,
      "Ġbase": 1313,
      "und": 1314,
      "uk": 1315,
      "amed": 1316,
      "adian": 1317,
      "Ġmiss": 1318,
      "ana": 1319,
      "Ġday": 1320,
      "Ġmet": 1321,
      "Ġactress": 1322,
      "rat": 1323,
      "ives": 1324,
      "Ġ1984": 1325,
      "Ġtelev": 1326,
      "Ġem": 1327,
      "med": 1328,
      "ald": 1329,
      "Ġcountry": 1330,
      "ony": 1331,
      "Ġsy": 1332,
      "ler": 1333,
      "Ġent": 1334,
      "ced": 1335,
      "Ġindian": 1336,
      "press": 1337,
      "Ġawards": 1338,
      "200": 1339,
      "Ġtown": 1340,
      "Ġend": 1341,
      "Ġchrist": 1342,
      "Ġtelevision": 1343,
      "Ġ31": 1344,
      "Ġcanadian": 1345,
      "urger": 1346,
      "Ġer": 1347,
      "Ġwell": 1348,
      "iday": 1349,
      "ender": 1350,
      "uct": 1351,
      "Ġsign": 1352,
      "ba": 1353,
      "ander": 1354,
      "Ġfour": 1355,
      "til": 1356,
      "way": 1357,
      "ife": 1358,
      "ury": 1359,
      "alist": 1360,
      "Ġgra": 1361,
      "Ġpat": 1362,
      "je": 1363,
      "ensive": 1364,
      "Ġdis": 1365,
      "Ġnationalyears": 1366,
      "ons": 1367,
      "leas": 1368,
      "Ġrece": 1369,
      "Ġproduc": 1370,
      "Ġdied": 1371,
      "idence": 1372,
      "och": 1373,
      "ump": 1374,
      "Ġevent": 1375,
      "Ġdavid": 1376,
      "ker": 1377,
      "Ġwere": 1378,
      "Ġaustralia": 1379,
      "ind": 1380,
      "Ġ1981": 1381,
      "Ġtex": 1382,
      "ived": 1383,
      "aint": 1384,
      "Ġoffic": 1385,
      "ĠK": 1386,
      "rowns": 1387,
      "Ġsa": 1388,
      "Ġath": 1389,
      "Ġuntil": 1390,
      "Ġ1983": 1391,
      "Ġpop": 1392,
      "Ġlouis": 1393,
      "Ġque": 1394,
      "Ġhead": 1395,
      "Ġleg": 1396,
      "Ġ1982": 1397,
      "uth": 1398,
      "oliday": 1399,
      "Ġ/": 1400,
      "www": 1401,
      "ger": 1402,
      "Ġcup": 1403,
      "Ġthom": 1404,
      "Ġsong": 1405,
      "Ġben": 1406,
      "Ġrich": 1407,
      "Ġsince": 1408,
      "Ġ1985": 1409,
      "Ġnationalcaps": 1410,
      "Ġrank": 1411,
      "Ġje": 1412,
      "Ġop": 1413,
      "Ġeduc": 1414,
      "na": 1415,
      "ual": 1416,
      "ĠKing": 1417,
      "Ġnationalgoals": 1418,
      "ĠBurger": 1419,
      "ert": 1420,
      "umb": 1421,
      "ett": 1422,
      "ockey": 1423,
      "Ġda": 1424,
      "Ġfound": 1425,
      "Ġlast": 1426,
      "oph": 1427,
      "strument": 1428,
      "Ġbaseball": 1429,
      "Ġdemoc": 1430,
      "Ġ1979": 1431,
      "urry": 1432,
      "bor": 1433,
      "Ġnumber": 1434,
      "ara": 1435,
      "Ġred": 1436,
      "Ġdep": 1437,
      "Ġmart": 1438,
      "Ġfive": 1439,
      "Ġartist": 1440,
      "Ġappear": 1441,
      "Ġbre": 1442,
      "Ġservice": 1443,
      "Ġbus": 1444,
      "Ġvict": 1445,
      "Ġso": 1446,
      "Ġhome": 1447,
      "inger": 1448,
      "Ġwebs": 1449,
      "owing": 1450,
      "aly": 1451,
      "Ġdan": 1452,
      "ĠCurry": 1453,
      "iet": 1454,
      "Ġinto": 1455,
      "Th": 1456,
      "Ġcor": 1457,
      "Ġreleas": 1458,
      "Ġpaul": 1459,
      "Ġstart": 1460,
      "Ġwebsite": 1461,
      "Ġthey": 1462,
      "Ġeur": 1463,
      "iÄ": 1464,
      "imentum": 1465,
      "jo": 1466,
      "Ġonly": 1467,
      "Ġrelig": 1468,
      "ĠFitzbillies": 1469,
      "Ġhon": 1470,
      "enix": 1471,
      "Ġpc": 1472,
      "omin": 1473,
      "sy": 1474,
      "Ġfrench": 1475,
      "Ġhockey": 1476,
      "Ġdu": 1477,
      "ĠBlue": 1478,
      "Ġserving": 1479,
      "hoenix": 1480,
      "Ġ1970": 1481,
      "Ġperfor": 1482,
      "Ġlond": 1483,
      "Ġthen": 1484,
      "Ġbook": 1485,
      "Ġtop": 1486,
      "Ġnamed": 1487,
      "Ġdiv": 1488,
      "the": 1489,
      "erv": 1490,
      "Ġsummer": 1491,
      "Ġpro": 1492,
      "Ġcricket": 1493,
      "ular": 1494,
      "stitut": 1495,
      "ail": 1496,
      "gin": 1497,
      "ont": 1498,
      "ake": 1499,
      "Ġits": 1500,
      "zil": 1501,
      "ĠÃ": 1502,
      "Ġlabel": 1503,
      "Ġlondon": 1504,
      "Ġincluding": 1505,
      "Ġeast": 1506,
      "be": 1507,
      "number": 1508,
      "gian": 1509,
      "ouge": 1510,
      "Ġresidence": 1511,
      "ortland": 1512,
      "ows": 1513,
      "shire": 1514,
      "Ġalbum": 1515,
      "go": 1516,
      "Ġdel": 1517,
      "lers": 1518,
      "Ġtim": 1519,
      "ĠPortland": 1520,
      "ĠArms": 1521,
      "lin": 1522,
      "Ġpark": 1523,
      "Ġolympics": 1524,
      "Ġtot": 1525,
      "Ġbasket": 1526,
      "itar": 1527,
      "urch": 1528,
      "room": 1529,
      "Ġfrance": 1530,
      "Ġexp": 1531,
      "Ġpcupdate": 1532,
      "Ġkg": 1533,
      "Ġze": 1534,
      "Ġprovid": 1535,
      "Ġtom": 1536,
      "ost": 1537,
      "ĠEx": 1538,
      "ered": 1539,
      "Ġhen": 1540,
      "Ġsl": 1541,
      "ism": 1542,
      "ville": 1543,
      "ĠInn": 1544,
      "ĠHoliday": 1545,
      "ĠExpress": 1546,
      "writer": 1547,
      "Ġdemocrat": 1548,
      "ric": 1549,
      "Ġseries": 1550,
      "yle": 1551,
      "Ġyoun": 1552,
      "Ġange": 1553,
      "Ġfranc": 1554,
      "ried": 1555,
      "Ġ1978": 1556,
      "Ġsun": 1557,
      "Ġ1977": 1558,
      "ania": 1559,
      "yne": 1560,
      "Ã¼": 1561,
      "ween": 1562,
      "trada": 1563,
      "ĠRouge": 1564,
      "otto": 1565,
      "Ġsoc": 1566,
      "Ġwil": 1567,
      "ka": 1568,
      "ief": 1569,
      "ca": 1570,
      "Ġauth": 1571,
      "Ġtor": 1572,
      "Ġsci": 1573,
      "me": 1574,
      "Ġroy": 1575,
      "Ġfoll": 1576,
      "went": 1577,
      "Ġroman": 1578,
      "Ġ1960": 1579,
      "Ġsur": 1580,
      "Ġ1972": 1581,
      "field": 1582,
      "Ġrobert": 1583,
      "restlers": 1584,
      "Ġtotal": 1585,
      "ope": 1586,
      "Ġwriter": 1587,
      "Ġfather": 1588,
      "Ġhist": 1589,
      "Ġbetween": 1590,
      "Ġstr": 1591,
      "There": 1592,
      "Ã¶": 1593,
      "Ġorder": 1594,
      "ney": 1595,
      "ote": 1596,
      "ege": 1597,
      "Ġson": 1598,
      "Ġmor": 1599,
      "ĠWrestlers": 1600,
      "alt": 1601,
      "ama": 1602,
      "Ġ1975": 1603,
      "Ġruns": 1604,
      "Ġcross": 1605,
      "ven": 1606,
      "any": 1607,
      "ĠPhoenix": 1608,
      "Ġgermany": 1609,
      "Ġjpg": 1610,
      "ors": 1611,
      "Ġblack": 1612,
      "Ġmag": 1613,
      "Ġrad": 1614,
      "ology": 1615,
      "Ġcharles": 1616,
      "ida": 1617,
      "Ġclubnumber": 1618,
      "Ġcre": 1619,
      "Ġtexas": 1620,
      "lv": 1621,
      "Ġber": 1622,
      "Ġhow": 1623,
      "Ġ1974": 1624,
      "Ġreligion": 1625,
      "Ġlos": 1626,
      "Ġyouthyears": 1627,
      "ating": 1628,
      "Ġbow": 1629,
      "Ġforward": 1630,
      "lic": 1631,
      "Ġfre": 1632,
      "Ġbur": 1633,
      "adem": 1634,
      "ined": 1635,
      "its": 1636,
      "Ġalex": 1637,
      "uel": 1638,
      "unter": 1639,
      "Ġgrand": 1640,
      "Ġthomas": 1641,
      "ks": 1642,
      "lav": 1643,
      "Ġdefender": 1644,
      "lsb": 1645,
      "Ġwa": 1646,
      "Ġtri": 1647,
      "Ġ1976": 1648,
      "Ġcanada": 1649,
      "Ġgame": 1650,
      "Ġunion": 1651,
      "Ġsub": 1652,
      "ĠHouse": 1653,
      "Ġstri": 1654,
      "Ġ185": 1655,
      "Ġarmy": 1656,
      "ming": 1657,
      "Ġfar": 1658,
      "oud": 1659,
      "iÄĩ": 1660,
      "otel": 1661,
      "Ġthrough": 1662,
      "zi": 1663,
      "Ġguitar": 1664,
      "Ġauthor": 1665,
      "Ġsil": 1666,
      "Ġmex": 1667,
      "Ġ1971": 1668,
      "Ġjose": 1669,
      "Ġmichael": 1670,
      "Ġboth": 1671,
      "Ġrole": 1672,
      "Ġsever": 1673,
      "ould": 1674,
      "wenty": 1675,
      "ages": 1676,
      "reen": 1677,
      "Ġvir": 1678,
      "aul": 1679,
      "Ġwash": 1680,
      "Ġprices": 1681,
      "Loch": 1682,
      "Ġ1973": 1683,
      "ĠFyne": 1684,
      "Ġrussian": 1685,
      "Ġ1968": 1686,
      "ately": 1687,
      "Ġchurch": 1688,
      "Ġbasketball": 1689,
      "ature": 1690,
      "Ġrecords": 1691,
      "Ġsolo": 1692,
      "raph": 1693,
      "Ġ1969": 1694,
      "Ġsky": 1695,
      "ison": 1696,
      "uis": 1697,
      "Ġdou": 1698,
      "Ġassist": 1699,
      "Ġnon": 1700,
      "Ġwhite": 1701,
      "Ġol": 1702,
      "ium": 1703,
      "Ġfore": 1704,
      "Ġtree": 1705,
      "Ġemp": 1706,
      "ron": 1707,
      "ve": 1708,
      "label": 1709,
      "ago": 1710,
      "Ġdec": 1711,
      "Ġvictor": 1712,
      "ared": 1713,
      "bour": 1714,
      "ates": 1715,
      "ourn": 1716,
      "Ġacadem": 1717,
      "ugby": 1718,
      "Ġjust": 1719,
      "Ġmen": 1720,
      "201": 1721,
      "iness": 1722,
      "bow": 1723,
      "ĠN": 1724,
      "nes": 1725,
      "Ġinv": 1726,
      "omen": 1727,
      "anded": 1728,
      "Ġsec": 1729,
      "Ġ1967": 1730,
      "Ġlar": 1731,
      "Ġindia": 1732,
      "Ġreleased": 1733,
      "Ġkh": 1734,
      "Ġjack": 1735,
      "Ġwhile": 1736,
      "Ġmusician": 1737,
      "Ġproducer": 1738,
      "Ġclass": 1739,
      "back": 1740,
      "bur": 1741,
      "Ġcour": 1742,
      "Ġelected": 1743,
      "Ġcoun": 1744,
      "Ġeurope": 1745,
      "Ġwashington": 1746,
      "ten": 1747,
      "Ġbeing": 1748,
      "Ġcenter": 1749,
      "Ġann": 1750,
      "ĠBrowns": 1751,
      "oint": 1752,
      "Ġacc": 1753,
      "Ġseveral": 1754,
      "laza": 1755,
      "ograph": 1756,
      "Ġes": 1757,
      "Ġpenn": 1758,
      "Ġchair": 1759,
      "Ġchampionships": 1760,
      "Ġbusiness": 1761,
      "burg": 1762,
      "Ġpitch": 1763,
      "ished": 1764,
      "ko": 1765,
      "Ġut": 1766,
      "Ġbath": 1767,
      "Ġstand": 1768,
      "ha": 1769,
      "Ġham": 1770,
      "Ġsuccess": 1771,
      "ful": 1772,
      "Ġthere": 1773,
      "Ġow": 1774,
      "ainbow": 1775,
      "ĠPunter": 1776,
      "Ġsam": 1777,
      "ĠPlaza": 1778,
      "ĠHotel": 1779,
      "ped": 1780,
      "Ġx": 1781,
      "Ġdon": 1782,
      "umn": 1783,
      "Ġuk": 1784,
      "Ġden": 1785,
      "ĠCrown": 1786,
      "pice": 1787,
      "ocum": 1788,
      "Ġmany": 1789,
      "Ġoffers": 1790,
      "Ġill": 1791,
      "Ġhol": 1792,
      "Ġarch": 1793,
      "Ġlook": 1794,
      "ids": 1795,
      "Ġscott": 1796,
      "Ġsal": 1797,
      "cer": 1798,
      "Ġmass": 1799,
      "Ġgl": 1800,
      "ĠY": 1801,
      "Ġwall": 1802,
      "Ġafr": 1803,
      "cial": 1804,
      "ishop": 1805,
      "ces": 1806,
      "col": 1807,
      "adu": 1808,
      "ĠSpice": 1809,
      "Ġnick": 1810,
      "Ġnfl": 1811,
      "Ġappe": 1812,
      "Ġcamp": 1813,
      "Ġmary": 1814,
      "Ġnav": 1815,
      "Ġdemocratic": 1816,
      "Ġpublic": 1817,
      "ram": 1818,
      "Ġreceived": 1819,
      "Ġinstrument": 1820,
      "ific": 1821,
      "ga": 1822,
      "Ġbats": 1823,
      "Ġgovernor": 1824,
      "mar": 1825,
      "ippe": 1826,
      "ances": 1827,
      "Ġswed": 1828,
      "Ġage": 1829,
      "tarian": 1830,
      "Ġchic": 1831,
      "Ġbill": 1832,
      "Ġmer": 1833,
      "ius": 1834,
      "Ġsim": 1835,
      "Ġfree": 1836,
      "embers": 1837,
      "rsb": 1838,
      "Ġvoc": 1839,
      "side": 1840,
      "egetarian": 1841,
      "omi": 1842,
      "emp": 1843,
      "Ġcath": 1844,
      "Ġmel": 1845,
      "ĠAlimentum": 1846,
      "Ġgir": 1847,
      "ject": 1848,
      "ues": 1849,
      "Ġrichard": 1850,
      "aking": 1851,
      "rew": 1852,
      "Ġearly": 1853,
      "ĠVegetarian": 1854,
      "Ġhenry": 1855,
      "Ġmount": 1856,
      "Ġta": 1857,
      "Ġshow": 1858,
      "ĠRainbow": 1859,
      "Ġcarol": 1860,
      "Ġbrown": 1861,
      "Ġroom": 1862,
      "lb": 1863,
      "ona": 1864,
      "Ġthir": 1865,
      "Ġtre": 1866,
      "uenc": 1867,
      "Ġrem": 1868,
      "Ġprofessor": 1869,
      "Ġfrank": 1870,
      "Ġeducation": 1871,
      "Ġchief": 1872,
      "Ġworked": 1873,
      "Ġassociated": 1874,
      "Ġ1964": 1875,
      "Ġwomen": 1876,
      "Ġrugby": 1877,
      "ering": 1878,
      "ush": 1879,
      "fr": 1880,
      "lished": 1881,
      "Ġgreen": 1882,
      "Ġsome": 1883,
      "Ġoh": 1884,
      "Ġjon": 1885,
      "Ġ1966": 1886,
      "Ġmont": 1887,
      "Ġjourn": 1888,
      "hot": 1889,
      "Ġappoint": 1890,
      "Ġprog": 1891,
      "ipp": 1892,
      "ij": 1893,
      "Ġchicago": 1894,
      "lad": 1895,
      "Ġbranch": 1896,
      "iy": 1897,
      "Ġmac": 1898,
      "Ġdebutyear": 1899,
      "berg": 1900,
      "Ġvirgin": 1901,
      "live": 1902,
      "Ġparl": 1903,
      "Ġgreat": 1904,
      "Ġ1962": 1905,
      "ĠCrowne": 1906,
      "Ġisland": 1907,
      "aving": 1908,
      "oodle": 1909,
      "Ġsant": 1910,
      "igan": 1911,
      "rove": 1912,
      "iament": 1913,
      "Ġusa": 1914,
      "ints": 1915,
      "Ġlong": 1916,
      "Ġsmith": 1917,
      "aker": 1918,
      "Ġ1965": 1919,
      "Ġ1963": 1920,
      "Ġcla": 1921,
      "Ġtrans": 1922,
      "ĠOlive": 1923,
      "ĠGrove": 1924,
      "Ġten": 1925,
      "Ġadm": 1926,
      "ĠStrada": 1927,
      "Ġrepublican": 1928,
      "Ġparliament": 1929,
      "Ġra": 1930,
      "Ġmal": 1931,
      "ement": 1932,
      "ĠNoodle": 1933,
      "ippee": 1934,
      "tin": 1935,
      "ĠYippee": 1936,
      "Ġce": 1937,
      "Ġfrancis": 1938,
      "Ġ184": 1939,
      "work": 1940,
      "Ġangeles": 1941,
      "ĠTwo": 1942,
      "ĠTwenty": 1943,
      "ret": 1944,
      "Ġkar": 1945,
      "Ġmilit": 1946,
      "atives": 1947,
      "Ġval": 1948,
      "dom": 1949,
      "Ġbuild": 1950,
      "value": 1951,
      "Ġdivision": 1952,
      "acts": 1953,
      "ireland": 1954,
      "Ġpeter": 1955,
      "Ġcompeted": 1956,
      "Ġ1950": 1957,
      "Ġnow": 1958,
      "Ġedward": 1959,
      "aland": 1960,
      "Ġlight": 1961,
      "Ġreturn": 1962,
      "Ġassistant": 1963,
      "Ġwalk": 1964,
      "Ġmod": 1965,
      "Ġmill": 1966,
      "sp": 1967,
      "Ġgold": 1968,
      "imb": 1969,
      "Ġfollowing": 1970,
      "Ġcle": 1971,
      "Ġinstitut": 1972,
      "Ġhal": 1973,
      "elf": 1974,
      "iving": 1975,
      "Ġrev": 1976,
      "Ġround": 1977,
      "Ġalong": 1978,
      "ste": 1979,
      "ĠOne": 1980,
      "Ġitaly": 1981,
      "Ġsuper": 1982,
      "lvania": 1983,
      "Ġmi": 1984,
      "Ġyou": 1985,
      "yer": 1986,
      "amer": 1987,
      "Ġyoung": 1988,
      "Ġbrother": 1989,
      "ĠAll": 1990,
      "Ġrac": 1991,
      "Ġrepresented": 1992,
      "ny": 1993,
      "ilia": 1994,
      "ands": 1995,
      "Ġalle": 1996,
      "Ġathlet": 1997,
      "sylvania": 1998,
      "ned": 1999,
      "Ġstatlabel": 2000,
      "Ġwrit": 2001,
      "ral": 2002,
      "Ġarg": 2003,
      "Ġorgan": 2004,
      "Ġstatvalue": 2005,
      "Ġside": 2006,
      "Ġsix": 2007,
      "ota": 2008,
      "Ġ1946": 2009,
      "Ġflor": 2010,
      "Ġseasons": 2011,
      "ĠCotto": 2012,
      "Ġtech": 2013,
      "Ġcloud": 2014,
      "ained": 2015,
      "Ġ1958": 2016,
      "Ġjr": 2017,
      "Ġjoseph": 2018,
      "olic": 2019,
      "Ġpennsylvania": 2020,
      "Ġjim": 2021,
      "Ġ1956": 2022,
      "Ġbrazil": 2023,
      "win": 2024,
      "izzi": 2025,
      "Ġappeared": 2026,
      "Ġkingdom": 2027,
      "ll": 2028,
      "Ġvan": 2029,
      "bin": 2030,
      "ople": 2031,
      "Ġfilms": 2032,
      "Ġ1952": 2033,
      "ient": 2034,
      "Ġhill": 2035,
      "ildwood": 2036,
      "nam": 2037,
      "Ġice": 2038,
      "Ġprev": 2039,
      "Ġmatches": 2040,
      "Zizzi": 2041,
      "Ġlb": 2042,
      "Ġlu": 2043,
      "Ġven": 2044,
      "Ġdebutteam": 2045,
      "ored": 2046,
      "Ġlist": 2047,
      "Ġzealand": 2048,
      "ani": 2049,
      "Ġmos": 2050,
      "Ġleader": 2051,
      "day": 2052,
      "sch": 2053,
      "Ġvar": 2054,
      "use": 2055,
      "Ġohio": 2056,
      "Ġtrack": 2057,
      "ris": 2058,
      "iew": 2059,
      "den": 2060,
      "gy": 2061,
      "Ġmur": 2062,
      "itor": 2063,
      "Ġtur": 2064,
      "Ġjoined": 2065,
      "affe": 2066,
      "har": 2067,
      "Ġmy": 2068,
      "ards": 2069,
      "Ġmother": 2070,
      "Ġjud": 2071,
      "Ġ1961": 2072,
      "Ã¡n": 2073,
      "Ġroyal": 2074,
      "ble": 2075,
      "Ġmark": 2076,
      "Ġram": 2077,
      "Ġrid": 2078,
      "ines": 2079,
      "Ġcolumn": 2080,
      "Ġ1948": 2081,
      "Ġold": 2082,
      "Ġstev": 2083,
      "Ġappearances": 2084,
      "Ġvirginia": 2085,
      "ok": 2086,
      "Ġimages": 2087,
      "Ġpast": 2088,
      "iana": 2089,
      "Ġgradu": 2090,
      "Å¡": 2091,
      "Ġ1957": 2092,
      "Ġdown": 2093,
      "Ġ1955": 2094,
      "ally": 2095,
      "ski": 2096,
      "isl": 2097,
      "Ġ1959": 2098,
      "ĠLoch": 2099,
      "Ġmilitary": 2100,
      "Ġpan": 2101,
      "aster": 2102,
      "ended": 2103,
      "Ġcourt": 2104,
      "ias": 2105,
      "21": 2106,
      "Ġter": 2107,
      "hl": 2108,
      "earch": 2109,
      "ets": 2110,
      "Ġassociation": 2111,
      "Ġkore": 2112,
      "arch": 2113,
      "alace": 2114,
      "Ġ1954": 2115,
      "Ġcarl": 2116,
      "singer": 2117,
      "Ġshoo": 2118,
      "Ġshort": 2119,
      "Ġappointed": 2120,
      "Ġelection": 2121,
      "Ġhall": 2122,
      "Ġmu": 2123,
      "oul": 2124,
      "Ġroad": 2125,
      "Ġmain": 2126,
      "Ġkids": 2127,
      "Ġbishop": 2128,
      "ano": 2129,
      "Ġscot": 2130,
      "Ġhold": 2131,
      "Ġdevel": 2132,
      "Ġke": 2133,
      "bles": 2134,
      "Ġdevelop": 2135,
      "ado": 2136,
      "Ġ183": 2137,
      "Ġprince": 2138,
      "Ġmarried": 2139,
      "Ġopen": 2140,
      "Ġcatholic": 2141,
      "handed": 2142,
      "Ġimagesize": 2143,
      "Ġadd": 2144,
      "Ġcounc": 2145,
      "idsummer": 2146,
      "sen": 2147,
      "Ġwr": 2148,
      "Ġsuch": 2149,
      "Ġmoderately": 2150,
      "Ġpost": 2151,
      "Ġball": 2152,
      "Ġireland": 2153,
      "ĠRiverside": 2154,
      "owns": 2155,
      "Ġ1951": 2156,
      "Ġcy": 2157,
      "Ġ1945": 2158,
      "Ġadv": 2159,
      "Ġteach": 2160,
      "Ġacademy": 2161,
      "Ġofficer": 2162,
      "uisine": 2163,
      "Ġmcc": 2164,
      "Ġ1947": 2165,
      "Ġchristian": 2166,
      "stab": 2167,
      "Ġsigned": 2168,
      "Ġpass": 2169,
      "Ġbegan": 2170,
      "Ġgeorg": 2171,
      "Ġtest": 2172,
      "Ġbatting": 2173,
      "Ġmad": 2174,
      "Ġriver": 2175,
      "Ġmoved": 2176,
      "Ġdra": 2177,
      "arm": 2178,
      "aults": 2179,
      "Ġlife": 2180,
      "Ġ1953": 2181,
      "play": 2182,
      "Ġav": 2183,
      "ural": 2184,
      "Ġprem": 2185,
      "'s": 2186,
      "rick": 2187,
      "ĠVaults": 2188,
      "illa": 2189,
      "uty": 2190,
      "aff": 2191,
      "weight": 2192,
      "Ġeuropean": 2193,
      "ĠSic": 2194,
      "Ġwater": 2195,
      "ĠSicilia": 2196,
      "Ġbay": 2197,
      "Ġdesign": 2198,
      "Ġcarolina": 2199,
      "xt": 2200,
      "Ġworks": 2201,
      "etts": 2202,
      "Ġhistory": 2203,
      "eeper": 2204,
      "ht": 2205,
      "Ġvol": 2206,
      "ps": 2207,
      "rey": 2208,
      "Ġtenn": 2209,
      "mon": 2210,
      "nd": 2211,
      "Ġradio": 2212,
      "Ġitalian": 2213,
      "gar": 2214,
      "Ġprim": 2215,
      "Ġthird": 2216,
      "ala": 2217,
      "Ġarm": 2218,
      "ansas": 2219,
      "Ġlegisl": 2220,
      "Ġflorida": 2221,
      "mond": 2222,
      "ink": 2223,
      "Ġoverall": 2224,
      "Ġtimes": 2225,
      "Ġrepublic": 2226,
      "ob": 2227,
      "iev": 2228,
      "Ġratings": 2229,
      "Ġ180": 2230,
      "Ġengine": 2231,
      "Ġhor": 2232,
      "Ġ1940": 2233,
      "Ġcat": 2234,
      "ria": 2235,
      "Ġvis": 2236,
      "usetts": 2237,
      "achusetts": 2238,
      "Ġmassachusetts": 2239,
      "Ġallegian": 2240,
      "Ġgar": 2241,
      "Ġallegiance": 2242,
      "Ġmat": 2243,
      "lare": 2244,
      "embly": 2245,
      "Ġprovides": 2246,
      "ival": 2247,
      "Ġever": 2248,
      "over": 2249,
      "ersh": 2250,
      "Ġfinalyear": 2251,
      "Ġestab": 2252,
      "ocated": 2253,
      "Ġontar": 2254,
      "result": 2255,
      "Ġnotable": 2256,
      "Ġgovernment": 2257,
      "Ġontario": 2258,
      "Ġwould": 2259,
      "Ġliber": 2260,
      "ty": 2261,
      "Ġcong": 2262,
      "Ġtechn": 2263,
      "Ġwind": 2264,
      "ĠMill": 2265,
      "ecut": 2266,
      "Ġcommun": 2267,
      "ase": 2268,
      "Ġspain": 2269,
      "pl": 2270,
      "chest": 2271,
      "don": 2272,
      "Ġcard": 2273,
      "Ġfed": 2274,
      "Ġresearch": 2275,
      "Ġbathroom": 2276,
      "Ġlake": 2277,
      "Ġspecial": 2278,
      "Ġhighly": 2279,
      "dy": 2280,
      "Ġgood": 2281,
      "Ġatl": 2282,
      "Ġftin": 2283,
      "Ġdet": 2284,
      "Ġassembly": 2285,
      "dle": 2286,
      "ring": 2287,
      "Ġjos": 2288,
      "band": 2289,
      "Ġiv": 2290,
      "Ġcompany": 2291,
      "Ġmountain": 2292,
      "Ġpeople": 2293,
      "round": 2294,
      "Ġnt": 2295,
      "Ġpolitical": 2296,
      "18": 2297,
      "ever": 2298,
      "Ġnovel": 2299,
      "Ġwales": 2300,
      "Ġprevious": 2301,
      "Ġcouncil": 2302,
      "ox": 2303,
      "ĠÅ": 2304,
      "Ġmichigan": 2305,
      "Ġq": 2306,
      "Ġsit": 2307,
      "Ġciv": 2308,
      "Ġbron": 2309,
      "ellow": 2310,
      "Ġheld": 2311,
      "Ġprofession": 2312,
      "Ġhonor": 2313,
      "ĠCocum": 2314,
      "ells": 2315,
      "Ġbob": 2316,
      "Ġsecret": 2317,
      "Ġboard": 2318,
      "199": 2319,
      "ured": 2320,
      "yan": 2321,
      "Ġcatch": 2322,
      "Ġos": 2323,
      "ized": 2324,
      "Ġ1920": 2325,
      "ĠRanch": 2326,
      "Ġblue": 2327,
      "Ġ1949": 2328,
      "ting": 2329,
      "time": 2330,
      "thers": 2331,
      "Ġsar": 2332,
      "gen": 2333,
      "Ġyearsactive": 2334,
      "Ġsenior": 2335,
      "cy": 2336,
      "adel": 2337,
      "Ġfly": 2338,
      "Ġlie": 2339,
      "olf": 2340,
      "lected": 2341,
      "ien": 2342,
      "Ġkr": 2343,
      "class": 2344,
      "Ġbattles": 2345,
      "ction": 2346,
      "ĠHall": 2347,
      "Ġdaugh": 2348,
      "iter": 2349,
      "ital": 2350,
      "lah": 2351,
      "Ġwent": 2352,
      "alth": 2353,
      "ĠClare": 2354,
      "Ġphys": 2355,
      "inn": 2356,
      "Ġpitcher": 2357,
      "Ġperson": 2358,
      "Ġmot": 2359,
      "Ġinfl": 2360,
      "Ġamerica": 2361,
      "Ġrest": 2362,
      "Ġinstitute": 2363,
      "cel": 2364,
      "Ġwood": 2365,
      "Ġfinalteam": 2366,
      "Ġcap": 2367,
      "Ġway": 2368,
      "ta": 2369,
      "Ġtook": 2370,
      "Ġjournalist": 2371,
      "Ġscience": 2372,
      "su": 2373,
      "Ġnext": 2374,
      "Ġdisc": 2375,
      "cow": 2376,
      "Ġsaint": 2377,
      "Ġba": 2378,
      "Ġturn": 2379,
      "ersey": 2380,
      "Ġsocial": 2381,
      "Ġstriker": 2382,
      "Ġlee": 2383,
      "ĠPalace": 2384,
      "Ã³n": 2385,
      "Ġele": 2386,
      "Ġoper": 2387,
      "Ġboat": 2388,
      "Ġgoalk": 2389,
      "Ġboston": 2390,
      "ez": 2391,
      "unk": 2392,
      "Ġstarted": 2393,
      "Ġpaint": 2394,
      "lowns": 2395,
      "Ġ1930": 2396,
      "Ġrepresentatives": 2397,
      "car": 2398,
      "ently": 2399,
      "position": 2400,
      "Ã¤": 2401,
      "Ġbeach": 2402,
      "han": 2403,
      "Located": 2404,
      "onto": 2405,
      "Ġstre": 2406,
      "Ġplate": 2407,
      "Ġdoctor": 2408,
      "ents": 2409,
      "Ġearned": 2410,
      "Ġmoscow": 2411,
      "Ġjersey": 2412,
      "ceed": 2413,
      "ety": 2414,
      "Ġhand": 2415,
      "Ġnative": 2416,
      "utch": 2417,
      "conom": 2418,
      "Ġcompos": 2419,
      "Ġpoet": 2420,
      "Ġsingle": 2421,
      "cr": 2422,
      "abe": 2423,
      "Ġcolor": 2424,
      "Ġsports": 2425,
      "adelph": 2426,
      "Ġmexico": 2427,
      "oy": 2428,
      "Ġlat": 2429,
      "lands": 2430,
      "Ġbuilding": 2431,
      "Ġhaving": 2432,
      "Ġabout": 2433,
      "Ġthrows": 2434,
      "ĠAromi": 2435,
      "omb": 2436,
      "Ġly": 2437,
      "Ġep": 2438,
      "Ġstan": 2439,
      "Ġmayor": 2440,
      "Ġforest": 2441,
      "Ġjul": 2442,
      "Ġphiladelph": 2443,
      "000": 2444,
      "Ġpen": 2445,
      "Ġpal": 2446,
      "Ġstage": 2447,
      "Ġalbert": 2448,
      "Ġgrass": 2449,
      "Ġ1943": 2450,
      "Ġcit": 2451,
      "Ġfeat": 2452,
      "Ġserviceyears": 2453,
      "Ġcongress": 2454,
      "Ġcivil": 2455,
      "Ġphiladelphia": 2456,
      "ounder": 2457,
      "Ġmodel": 2458,
      "Ġdate": 2459,
      "Ġcontin": 2460,
      "inois": 2461,
      "rd": 2462,
      "rie": 2463,
      "Ġinc": 2464,
      "Ġtoronto": 2465,
      "esh": 2466,
      "Ġdebutdate": 2467,
      "Ġgree": 2468,
      "Ġeconom": 2469,
      "Ġwestern": 2470,
      "epend": 2471,
      "overs": 2472,
      "Ġder": 2473,
      "arter": 2474,
      "Ġfer": 2475,
      "Ġhum": 2476,
      "Ġ1942": 2477,
      "Ġbed": 2478,
      "ĠWildwood": 2479,
      "Ġillinois": 2480,
      "Fitzbillies": 2481,
      "mark": 2482,
      "Ġfif": 2483,
      "ador": 2484,
      "ĠThey": 2485,
      "Ġvocals": 2486,
      "Ġgoalkeeper": 2487,
      "dr": 2488,
      "ĠÐ": 2489,
      "Ġargent": 2490,
      "Ġwal": 2491,
      "omot": 2492,
      "Ġindepend": 2493,
      "Ġmartin": 2494,
      "uz": 2495,
      "Ġfire": 2496,
      "Ġpiz": 2497,
      "Ġwinning": 2498,
      "Ġparent": 2499,
      "Ġsmall": 2500,
      "Ġtw": 2501,
      "akers": 2502,
      "Ġ100": 2503,
      "olk": 2504,
      "Ġcentral": 2505,
      "Ġsuc": 2506,
      "Ġanton": 2507,
      "oma": 2508,
      "Ġhig": 2509,
      "ĠZizzi": 2510,
      "reg": 2511,
      "Ġarr": 2512,
      "Ġ1944": 2513,
      "ures": 2514,
      "Ġhung": 2515,
      "Ġwicket": 2516,
      "Ġaff": 2517,
      "Ġcricketer": 2518,
      "Ġpla": 2519,
      "Ġempire": 2520,
      "Ġpartic": 2521,
      "board": 2522,
      "Ġnavy": 2523,
      "Ġwel": 2524,
      "Ġfest": 2525,
      "Ġpoints": 2526,
      "Ġsir": 2527,
      "Ġcolumb": 2528,
      "Ġdepart": 2529,
      "Ġlarge": 2530,
      "Ġsucceed": 2531,
      "Ġbig": 2532,
      "Ġdaniel": 2533,
      "Ġportra": 2534,
      "Ġmiddle": 2535,
      "rich": 2536,
      "Ġsour": 2537,
      "Ġtv": 2538,
      "lection": 2539,
      "gers": 2540,
      "Ġswim": 2541,
      "Ġscotland": 2542,
      "cent": 2543,
      "other": 2544,
      "edy": 2545,
      "Ġcast": 2546,
      "Ġ1938": 2547,
      "lete": 2548,
      "Ġant": 2549,
      "Ġbor": 2550,
      "Ġbal": 2551,
      "Ġreal": 2552,
      "ato": 2553,
      "hest": 2554,
      "azz": 2555,
      "bec": 2556,
      "ye": 2557,
      "Ġsov": 2558,
      "Ġdid": 2559,
      "Ġren": 2560,
      "Ġconstit": 2561,
      "uction": 2562,
      "Ġfa": 2563,
      "Ġ1936": 2564,
      "Ġexecut": 2565,
      "atic": 2566,
      "Ġstyle": 2567,
      "Ġbul": 2568,
      "Ġlate": 2569,
      "Ġforce": 2570,
      "Ġvo": 2571,
      "da": 2572,
      "mad": 2573,
      "Ġform": 2574,
      "Ġsea": 2575,
      "Ġexper": 2576,
      "Ġharv": 2577,
      "va": 2578,
      "Ġjapan": 2579,
      "Ġexpensive": 2580,
      "por": 2581,
      "ita": 2582,
      "Ġmath": 2583,
      "Ġrang": 2584,
      "Ġsqu": 2585,
      "Ġkey": 2586,
      "Ġbox": 2587,
      "Ġ1933": 2588,
      "Ġsecretary": 2589,
      "Ġwife": 2590,
      "Ġsilver": 2591,
      "Ġparents": 2592,
      "Ġcame": 2593,
      "Ġros": 2594,
      "Ġray": 2595,
      "iff": 2596,
      "Ġpizza": 2597,
      "Ġlang": 2598,
      "thur": 2599,
      "cted": 2600,
      "17": 2601,
      "ini": 2602,
      "Ġsn": 2603,
      "Ġpublished": 2604,
      "lent": 2605,
      "Ġsenate": 2606,
      "ira": 2607,
      "Ġprinc": 2608,
      "ova": 2609,
      "Ġflower": 2610,
      "Ġamong": 2611,
      "john": 2612,
      "uency": 2613,
      "ÅĤ": 2614,
      "amb": 2615,
      "star": 2616,
      "Ġbrad": 2617,
      "Ġfight": 2618,
      "ml": 2619,
      "Ġ1935": 2620,
      "Ġdar": 2621,
      "Ġeth": 2622,
      "Ġaround": 2623,
      "mann": 2624,
      "Ġspent": 2625,
      "Ġconstituency": 2626,
      "Ġheart": 2627,
      "ribut": 2628,
      "Ġvi": 2629,
      "ĠMidsummer": 2630,
      "ja": 2631,
      "ovich": 2632,
      "tern": 2633,
      "Ġ1937": 2634,
      "Ġha": 2635,
      "iano": 2636,
      "Ġmetal": 2637,
      "Ġchairman": 2638,
      "Ġdefe": 2639,
      "Ġliberal": 2640,
      "oor": 2641,
      "ette": 2642,
      "Ġearl": 2643,
      "Ġprogram": 2644,
      "chester": 2645,
      "23": 2646,
      "members": 2647,
      "Ġofficial": 2648,
      "Ġsoccer": 2649,
      "bourne": 2650,
      "Ġanth": 2651,
      "Ġled": 2652,
      "Ġcommitt": 2653,
      "Ġhowever": 2654,
      "Ġntupdate": 2655,
      "Ġsold": 2656,
      "amo": 2657,
      "ĠD": 2658,
      "Ã±": 2659,
      "Ġcem": 2660,
      "Ġdeputy": 2661,
      "Ġreach": 2662,
      "Ġsweden": 2663,
      "Ġhit": 2664,
      "Ġgard": 2665,
      "Ġbridge": 2666,
      "Ġic": 2667,
      "Ġland": 2668,
      "rael": 2669,
      "Ġext": 2670,
      "Ġvictoria": 2671,
      "Ġ1939": 2672,
      "Ġparis": 2673,
      "aja": 2674,
      "fo": 2675,
      "iro": 2676,
      "ci": 2677,
      "Ġdyn": 2678,
      "Ġminnes": 2679,
      "Ġminnesota": 2680,
      "Ġsoci": 2681,
      "Ġbud": 2682,
      "gl": 2683,
      "Ġdi": 2684,
      "Ġseven": 2685,
      "iction": 2686,
      "Ġpreviously": 2687,
      "Ġadam": 2688,
      "Ġgeorgia": 2689,
      "Ġnether": 2690,
      "Ġ1941": 2691,
      "Ġpopular": 2692,
      "gu": 2693,
      "app": 2694,
      "Ġsame": 2695,
      "osp": 2696,
      "Ġscreen": 2697,
      "Ġ150": 2698,
      "Ġreturned": 2699,
      "Ġdaughter": 2700,
      "ki": 2701,
      "Ġkansas": 2702,
      "Ġfinished": 2703,
      "Ġsoviet": 2704,
      "league": 2705,
      "Ġhost": 2706,
      "Ġrace": 2707,
      "ĠTree": 2708,
      "umpling": 2709,
      "ĠDumpling": 2710,
      "Ġlevel": 2711,
      "Ġscored": 2712,
      "ission": 2713,
      "80": 2714,
      "Ġpower": 2715,
      "Ġabd": 2716,
      "vin": 2717,
      "Ã£": 2718,
      "Ġbi": 2719,
      "Ġandrew": 2720,
      "Ġsongwriter": 2721,
      "Ġlove": 2722,
      "Ġsuccessful": 2723,
      "Ġbass": 2724,
      "eman": 2725,
      "burgh": 2726,
      "Ġsource": 2727,
      "Ġguard": 2728,
      "Ġhighest": 2729,
      "Ġline": 2730,
      "sr": 2731,
      "ene": 2732,
      "Ġnomin": 2733,
      "Ġworking": 2734,
      "Ġstars": 2735,
      "Ġfestival": 2736,
      "ya": 2737,
      "inist": 2738,
      "Ġdeg": 2739,
      "html": 2740,
      "Ġnetherlands": 2741,
      "10": 2742,
      "ining": 2743,
      "anish": 2744,
      "Ġfellow": 2745,
      "Ġeditor": 2746,
      "kn": 2747,
      "Ġwoman": 2748,
      "Ġvice": 2749,
      "Ġown": 2750,
      "abeth": 2751,
      "Ġcemet": 2752,
      "Ġach": 2753,
      "Ġjunior": 2754,
      "Ġirish": 2755,
      "cu": 2756,
      "Ġob": 2757,
      "iger": 2758,
      "Ġafrica": 2759,
      "Ġcemetery": 2760,
      "line": 2761,
      "Ġalexander": 2762,
      "Ġhalf": 2763,
      "olv": 2764,
      "pick": 2765,
      "Ġutc": 2766,
      "Ġ1934": 2767,
      "roit": 2768,
      "Ġnickname": 2769,
      "cle": 2770,
      "dney": 2771,
      "ouch": 2772,
      "Ġcost": 2773,
      "Ġdrafted": 2774,
      "ologist": 2775,
      "Ġliter": 2776,
      "Ġcommander": 2777,
      "Ġolympic": 2778,
      "Ġbooks": 2779,
      "present": 2780,
      "Ġcorn": 2781,
      "Ġstation": 2782,
      "Ġconserv": 2783,
      "Ġukra": 2784,
      "bra": 2785,
      "Ġset": 2786,
      "Ġod": 2787,
      "iga": 2788,
      "Ġcaptain": 2789,
      "Ġsingles": 2790,
      "Ġupd": 2791,
      "Ġmike": 2792,
      "Ġkent": 2793,
      "Ġ1924": 2794,
      "Ġcze": 2795,
      "Ġthem": 2796,
      "Ġisrael": 2797,
      "wan": 2798,
      "Ġ1931": 2799,
      "cord": 2800,
      "ati": 2801,
      "Ġva": 2802,
      "Ġmir": 2803,
      "Ġ1928": 2804,
      "ari": 2805,
      "Ġpu": 2806,
      "Ġcra": 2807,
      "Ġ35": 2808,
      "Ġupdated": 2809,
      "kins": 2810,
      "ola": 2811,
      "Ġhaw": 2812,
      "ised": 2813,
      "cons": 2814,
      "Ġjoe": 2815,
      "Ġsucceeded": 2816,
      "lie": 2817,
      "Ã§": 2818,
      "oming": 2819,
      "Ġattended": 2820,
      "In": 2821,
      "Ġmun": 2822,
      "Ġczech": 2823,
      "Ġdun": 2824,
      "Ġdefensive": 2825,
      "Ġsupport": 2826,
      "Ġcand": 2827,
      "Ġagent": 2828,
      "Ġ1929": 2829,
      "Ġfrancisco": 2830,
      "Ġbank": 2831,
      "Ġ250": 2832,
      "Ġsenator": 2833,
      "Ġlouisiana": 2834,
      "Ġsus": 2835,
      "real": 2836,
      "Ġjazz": 2837,
      "Ġawarded": 2838,
      "Ġvon": 2839,
      "Ġbased": 2840,
      "Ġlive": 2841,
      "Ġ50": 2842,
      "Ġ1925": 2843,
      "ophy": 2844,
      "ata": 2845,
      "open": 2846,
      "lam": 2847,
      "Ġluc": 2848,
      "Ġdev": 2849,
      "ities": 2850,
      "Ġmem": 2851,
      "Ġchina": 2852,
      "Ġve": 2853,
      "Ġactive": 2854,
      "school": 2855,
      "Ġdepartment": 2856,
      "ĠBakers": 2857,
      "Ġexecutive": 2858,
      "ricket": 2859,
      "Ġdog": 2860,
      "Ġrap": 2861,
      "rence": 2862,
      "Ġjackson": 2863,
      "po": 2864,
      "Ġnat": 2865,
      "oslav": 2866,
      "ĠCricket": 2867,
      "ĠCricketers": 2868,
      "Ġfem": 2869,
      "Ġko": 2870,
      "inese": 2871,
      "ĠIts": 2872,
      "Ġduke": 2873,
      "lor": 2874,
      "pton": 2875,
      "emat": 2876,
      "Ġserve": 2877,
      "Ġbreak": 2878,
      "Ġmexican": 2879,
      "rop": 2880,
      "Ġspanish": 2881,
      "Ġcrit": 2882,
      "Ġlawyer": 2883,
      "Ġdetroit": 2884,
      "Ġur": 2885,
      "plane": 2886,
      "16": 2887,
      "Ġif": 2888,
      "Ġfig": 2889,
      "iraffe": 2890,
      "Ġprize": 2891,
      "Ġfront": 2892,
      "ĠClowns": 2893,
      "Ġtravel": 2894,
      "Ġracing": 2895,
      "Ġatlant": 2896,
      "Ġ#": 2897,
      "Ġ40": 2898,
      "ense": 2899,
      "ili": 2900,
      "Ġorganiz": 2901,
      "Ġdevelopment": 2902,
      "Ġpract": 2903,
      "ĠMan": 2904,
      "Ġmelbourne": 2905,
      "Ġok": 2906,
      "Ġdie": 2907,
      "owers": 2908,
      "uten": 2909,
      "ays": 2910,
      "athan": 2911,
      "Ġknight": 2912,
      "Ġ1921": 2913,
      "Ġindust": 2914,
      "Ġportug": 2915,
      "Ġbrook": 2916,
      "Ġ1927": 2917,
      "Ġpremier": 2918,
      "Ġcommittee": 2919,
      "Ġcas": 2920,
      "Ġcustomers": 2921,
      "Ġserb": 2922,
      "Ġrussia": 2923,
      "ality": 2924,
      "Ġmovement": 2925,
      "Ġcentury": 2926,
      "less": 2927,
      "Ġ1922": 2928,
      "Ġcommission": 2929,
      "Ġcomposer": 2930,
      "Ġfriend": 2931,
      "Ġminor": 2932,
      "Ġeliz": 2933,
      "Ġsteph": 2934,
      "ek": 2935,
      "vir": 2936,
      "info": 2937,
      "thod": 2938,
      "Ġlegislative": 2939,
      "Ġcm": 2940,
      "Ġclose": 2941,
      "thern": 2942,
      "Ġjohnson": 2943,
      "Ġhistor": 2944,
      "Ġafrican": 2945,
      "Ã¨": 2946,
      "lebr": 2947,
      "Ġtheat": 2948,
      "Ġbronze": 2949,
      "Ã£o": 2950,
      "Ġfame": 2951,
      "istan": 2952,
      "Ġnews": 2953,
      "Ġfinaldate": 2954,
      "Ġchris": 2955,
      "hi": 2956,
      "Ġarts": 2957,
      "eter": 2958,
      "ĠjosÃ©": 2959,
      "well": 2960,
      "Ġ1932": 2961,
      "Ġnorthern": 2962,
      "Ġwilliams": 2963,
      "Ġjac": 2964,
      "test": 2965,
      "vis": 2966,
      "Äį": 2967,
      "inal": 2968,
      "Ġ32": 2969,
      "Ġbattle": 2970,
      "Ġsem": 2971,
      "ought": 2972,
      "Ġtraining": 2973,
      "Ġactiv": 2974,
      "Ġjeff": 2975,
      "Ġsydney": 2976,
      "Ġstreet": 2977,
      "Ġcitiz": 2978,
      "Ġref": 2979,
      "Ġtake": 2980,
      "Ġox": 2981,
      "Ġgian": 2982,
      "ateur": 2983,
      "Ġjudge": 2984,
      "nic": 2985,
      "Ġnik": 2986,
      "Ġken": 2987,
      "Ġtrad": 2988,
      "Ġcompetition": 2989,
      "Ġcolumbia": 2990,
      "Ġdavis": 2991,
      "Ġconsid": 2992,
      "Browns": 2993,
      "anda": 2994,
      "Ġslov": 2995,
      "Ġwickets": 2996,
      "iod": 2997,
      "Ġsat": 2998,
      "Ġpit": 2999,
      "elli": 3000,
      "Ġmanagerclubs": 3001,
      "Ð°": 3002,
      "though": 3003,
      "ounds": 3004,
      "ference": 3005,
      "ership": 3006,
      "Ġsom": 3007,
      "Ġfish": 3008,
      "Ġban": 3009,
      "Ġ1919": 3010,
      "Ġproviding": 3011,
      "01": 3012,
      "Ġak": 3013,
      "orth": 3014,
      "Ġjer": 3015,
      "Ġvery": 3016,
      "Ġrob": 3017,
      "Ġrober": 3018,
      "Ġboy": 3019,
      "Ġ1908": 3020,
      "Ġhy": 3021,
      "iced": 3022,
      "Ġdutch": 3023,
      "Ġarthur": 3024,
      "ni": 3025,
      "gest": 3026,
      "Ġpur": 3027,
      "Ġhur": 3028,
      "Ġtak": 3029,
      "ru": 3030,
      "instrument": 3031,
      "onment": 3032,
      "Ġty": 3033,
      "ardo": 3034,
      "Ġ1926": 3035,
      "Ġlike": 3036,
      "Ġgirl": 3037,
      "utenant": 3038,
      "hol": 3039,
      "Ġfounder": 3040,
      "Ġiss": 3041,
      "Ġcommon": 3042,
      "Al": 3043,
      "cri": 3044,
      "Ġwing": 3045,
      "Ġeight": 3046,
      "Ġquebec": 3047,
      "Ġjean": 3048,
      "Ġproject": 3049,
      "Ġmagaz": 3050,
      "Ġsteve": 3051,
      "will": 3052,
      "Ġcir": 3053,
      "Ġmoham": 3054,
      "Ġ1915": 3055,
      "vironment": 3056,
      "ittle": 3057,
      "Ġmontreal": 3058,
      "Ġteacher": 3059,
      "Ġwis": 3060,
      "Ġconne": 3061,
      "Ġmanageryears": 3062,
      "Ġscottish": 3063,
      "era": 3064,
      "Ġprime": 3065,
      "Ġstor": 3066,
      "razil": 3067,
      "ĠBrazil": 3068,
      "Ġqueens": 3069,
      "Near": 3070,
      "ract": 3071,
      "Ġenvironment": 3072,
      "Ġsheep": 3073,
      "airs": 3074,
      "ua": 3075,
      "Ġpoland": 3076,
      "Ġjones": 3077,
      "men": 3078,
      "olut": 3079,
      "Ġmaria": 3080,
      "Ġairplane": 3081,
      "Ġburn": 3082,
      "Ġsouthern": 3083,
      "Ġhard": 3084,
      "ito": 3085,
      "Ġchinese": 3086,
      "Ġdeliver": 3087,
      "Ġathletic": 3088,
      "ingu": 3089,
      "cast": 3090,
      "Ġhan": 3091,
      "Ġhang": 3092,
      "Ġseat": 3093,
      "known": 3094,
      "Ġfall": 3095,
      "record": 3096,
      "style": 3097,
      "Ġship": 3098,
      "Ġcycl": 3099,
      "Ġwrest": 3100,
      "Ġbroad": 3101,
      "rento": 3102,
      "Ġcoast": 3103,
      "Ġadminist": 3104,
      "Ġbat": 3105,
      "Ġhou": 3106,
      "Ġaged": 3107,
      "Ġaz": 3108,
      "Ġcub": 3109,
      "Ġcult": 3110,
      "Ġcontribut": 3111,
      "Ġsociety": 3112,
      "anian": 3113,
      "Ġpromot": 3114,
      "Ġqueen": 3115,
      "Ġswedish": 3116,
      "à¤": 3117,
      "umer": 3118,
      "Ġleading": 3119,
      "Ġwilson": 3120,
      "Ġdegree": 3121,
      "Ġadministr": 3122,
      "Ġnet": 3123,
      "owed": 3124,
      "oviÄĩ": 3125,
      "Ġpolish": 3126,
      "ique": 3127,
      "Ġcred": 3128,
      "Ġwid": 3129,
      "Ġjustice": 3130,
      "Ġcelebr": 3131,
      "ran": 3132,
      "rad": 3133,
      "Ð¸": 3134,
      "Ġmembers": 3135,
      "lyn": 3136,
      "awa": 3137,
      "Ġperforman": 3138,
      "Ġfreder": 3139,
      "Ġfederal": 3140,
      "Ġ34": 3141,
      "Ġcontr": 3142,
      "ody": 3143,
      "Ġ1913": 3144,
      "Ġtournam": 3145,
      "ping": 3146,
      "sw": 3147,
      "wa": 3148,
      "oubles": 3149,
      "rafted": 3150,
      "ences": 3151,
      "ula": 3152,
      "Ġaut": 3153,
      "aste": 3154,
      "Ġelizabeth": 3155,
      "ones": 3156,
      "orrento": 3157,
      "ogn": 3158,
      "Ġ1916": 3159,
      "Ġcitizen": 3160,
      "ually": 3161,
      "bc": 3162,
      "ds": 3163,
      "ves": 3164,
      "Ġbern": 3165,
      "Ġtable": 3166,
      "Ġ1918": 3167,
      "Ġoriginal": 3168,
      "no": 3169,
      "Ġsand": 3170,
      "ura": 3171,
      "Ġ182": 3172,
      "Ġstock": 3173,
      "Ġmodern": 3174,
      "ÃŃa": 3175,
      "Ġkorea": 3176,
      "Ġund": 3177,
      "Ġron": 3178,
      "ĠSorrento": 3179,
      "Ġperiod": 3180,
      "Ġiii": 3181,
      "Ġphot": 3182,
      "Ġnhl": 3183,
      "Ġkim": 3184,
      "Ġaustria": 3185,
      "Ġ1910": 3186,
      "Ġlost": 3187,
      "Ġbusinessman": 3188,
      "works": 3189,
      "Ġanother": 3190,
      "ries": 3191,
      "Ġestablish": 3192,
      "her": 3193,
      "Ġdrum": 3194,
      "rank": 3195,
      "sv": 3196,
      "Ġbab": 3197,
      "Ġmaking": 3198,
      "Ġ33": 3199,
      "Ġsab": 3200,
      "illy": 3201,
      "orney": 3202,
      "Ġlieutenant": 3203,
      "Ãº": 3204,
      "Ġyug": 3205,
      "Ġ1912": 3206,
      "Ġprovince": 3207,
      "Ġairport": 3208,
      "Ġprop": 3209,
      "Ġ1917": 3210,
      "Ġdecor": 3211,
      "american": 3212,
      "Ġcoup": 3213,
      "arian": 3214,
      "Ġpak": 3215,
      "els": 3216,
      "Ġ179": 3217,
      "85": 3218,
      "ex": 3219,
      "Ġlangu": 3220,
      "Ġpitts": 3221,
      "olution": 3222,
      "kin": 3223,
      "ention": 3224,
      "Ġfort": 3225,
      "Ġcatches": 3226,
      "Ġess": 3227,
      "Ġpot": 3228,
      "Ġfinish": 3229,
      "Ġhop": 3230,
      "ali": 3231,
      "Alimentum": 3232,
      "li": 3233,
      "Ġloss": 3234,
      "Ġteams": 3235,
      "Ġvarious": 3236,
      "Ġtype": 3237,
      "Ġbea": 3238,
      "Ġrepresentative": 3239,
      "Ġho": 3240,
      "Ġhu": 3241,
      "Ġhart": 3242,
      "Ġmak": 3243,
      "Ġinn": 3244,
      "unt": 3245,
      "Ġ1905": 3246,
      "fly": 3247,
      "Ġna": 3248,
      "ounced": 3249,
      "veland": 3250,
      "Ġaffairs": 3251,
      "Ġtheatre": 3252,
      "org": 3253,
      "Ġpier": 3254,
      "Ġoak": 3255,
      "eek": 3256,
      "Ġlabor": 3257,
      "Ġattorney": 3258,
      "Ġcleveland": 3259,
      "Ġportrait": 3260,
      "14": 3261,
      "Ġah": 3262,
      "Ġtam": 3263,
      "Ġcond": 3264,
      "Ġattack": 3265,
      "Ġphilipp": 3266,
      "Ġhouston": 3267,
      "75": 3268,
      "song": 3269,
      "ouri": 3270,
      "Ġread": 3271,
      "Ġalthough": 3272,
      "Ġselected": 3273,
      "Ġmatt": 3274,
      "Ġbirthname": 3275,
      "Ġkel": 3276,
      "Ġspace": 3277,
      "Ã¸": 3278,
      "ĠÄ": 3279,
      "ising": 3280,
      "Ġint": 3281,
      "che": 3282,
      "Ġlittle": 3283,
      "Ġka": 3284,
      "Ġalf": 3285,
      "ographer": 3286,
      "Ġgraduated": 3287,
      "Ġindependent": 3288,
      "hann": 3289,
      "ym": 3290,
      "Ġ1923": 3291,
      "Ġsquad": 3292,
      "'t": 3293,
      "Ġcuisine": 3294,
      "Ġkick": 3295,
      "ists": 3296,
      "Ġsee": 3297,
      "opher": 3298,
      "Ġbowling": 3299,
      "Ġparticip": 3300,
      "Ġcov": 3301,
      "Ġjapanese": 3302,
      "west": 3303,
      "Ġala": 3304,
      "Ġliving": 3305,
      "Ġvilla": 3306,
      "Ġrovers": 3307,
      "ask": 3308,
      "Ġye": 3309,
      "Ġrecogn": 3310,
      "iven": 3311,
      "bed": 3312,
      "Ġrom": 3313,
      "Ġkenn": 3314,
      "Ġunit": 3315,
      "Ġ1914": 3316,
      "Ġfemale": 3317,
      "Ġyugoslav": 3318,
      "Ġgal": 3319,
      "Ġlim": 3320,
      "rav": 3321,
      "aper": 3322,
      "Ġclock": 3323,
      "Ġmedia": 3324,
      "Ġincluded": 3325,
      "Ġoxford": 3326,
      "hen": 3327,
      "ero": 3328,
      "Ġalias": 3329,
      "pect": 3330,
      "ertain": 3331,
      "ged": 3332,
      "stem": 3333,
      "Ġinfluenc": 3334,
      "mo": 3335,
      "Ġmma": 3336,
      "ying": 3337,
      "Ġhom": 3338,
      "ĠCuisine": 3339,
      "Ġresting": 3340,
      "78": 3341,
      "aign": 3342,
      "uce": 3343,
      "Ġwat": 3344,
      "Ġinf": 3345,
      "Ġdue": 3346,
      "Ġlord": 3347,
      "Ġvlad": 3348,
      "form": 3349,
      "jan": 3350,
      "leg": 3351,
      "essee": 3352,
      "Ġgreg": 3353,
      "Ġgarden": 3354,
      "ÅŁ": 3355,
      "Ġali": 3356,
      "Ġkorean": 3357,
      "Ġmagazine": 3358,
      "15": 3359,
      "pro": 3360,
      "sc": 3361,
      "Ġsav": 3362,
      "Ġconv": 3363,
      "Ġ1911": 3364,
      "Ġtennessee": 3365,
      "row": 3366,
      "Ġsound": 3367,
      "Ġstudent": 3368,
      "Ġcontinu": 3369,
      "Ġconsidered": 3370,
      "ranking": 3371,
      "phant": 3372,
      "Ġlocal": 3373,
      "Ġathletics": 3374,
      "Ġshoots": 3375,
      "Ä±": 3376,
      "Ġky": 3377,
      "Ġash": 3378,
      "Ġconf": 3379,
      "Ġ45": 3380,
      "ĠRaja": 3381,
      "color": 3382,
      "Ġcandid": 3383,
      "born": 3384,
      "ibimb": 3385,
      "Ġplane": 3386,
      "Ġachiev": 3387,
      "Ġpittsburgh": 3388,
      "ibimbap": 3389,
      "12": 3390,
      "tra": 3391,
      "sey": 3392,
      "Ġgrow": 3393,
      "Ġamateur": 3394,
      "Ġevents": 3395,
      "Ġmathemat": 3396,
      "Ġshot": 3397,
      "ode": 3398,
      "Ġrepresenting": 3399,
      "urt": 3400,
      "Ġleon": 3401,
      "ified": 3402,
      "Ġinclude": 3403,
      "Ġwrote": 3404,
      "Ġeff": 3405,
      "Ġsher": 3406,
      "ĠGiraffe": 3407,
      "Ġamb": 3408,
      "fa": 3409,
      "Ġfle": 3410,
      "Ġfac": 3411,
      "Ġran": 3412,
      "Ġformed": 3413,
      "Ġprogress": 3414,
      "bell": 3415,
      "zo": 3416,
      "ments": 3417,
      "ple": 3418,
      "Ð¾": 3419,
      "Ġsof": 3420,
      "Ġbol": 3421,
      "Ġross": 3422,
      "ila": 3423,
      "outs": 3424,
      "Ġstaff": 3425,
      "Ġmarc": 3426,
      "Ġroles": 3427,
      "Ġregular": 3428,
      "Ġbrazilian": 3429,
      "Ġconnect": 3430,
      "ĠGreen": 3431,
      "Ġathlete": 3432,
      "ky": 3433,
      "sa": 3434,
      "Ġgil": 3435,
      "chi": 3436,
      "ofbur": 3437,
      "70": 3438,
      "Ġrose": 3439,
      "Ġinvolv": 3440,
      "Ġconservative": 3441,
      "ofburial": 3442,
      "Ġbell": 3443,
      "Ġtemp": 3444,
      "Ġfamous": 3445,
      "Ġplaceofburial": 3446,
      "Ġstudies": 3447,
      "prov": 3448,
      "gi": 3449,
      "reme": 3450,
      "Ġbalt": 3451,
      "Ġtony": 3452,
      "Ġgh": 3453,
      "Ġkil": 3454,
      "teams": 3455,
      "Ġtechnology": 3456,
      "Ġanthony": 3457,
      "Ġdiego": 3458,
      "Ġhosp": 3459,
      "Ġhealth": 3460,
      "Ġcommands": 3461,
      "Ġpainting": 3462,
      "84": 3463,
      "stant": 3464,
      "Ġlew": 3465,
      "Ġ36": 3466,
      "Ġsr": 3467,
      "ased": 3468,
      "ility": 3469,
      "elle": 3470,
      "Ġheav": 3471,
      "andr": 3472,
      "ude": 3473,
      "Ġbecome": 3474,
      "loy": 3475,
      "Ġiron": 3476,
      "Ġtitles": 3477,
      "william": 3478,
      "ray": 3479,
      "ordin": 3480,
      "Ġmax": 3481,
      "Ġmissouri": 3482,
      "Ġcampaign": 3483,
      "Ġsanta": 3484,
      "Ġtournament": 3485,
      "songwriter": 3486,
      "Ġsv": 3487,
      "Ġdj": 3488,
      "attle": 3489,
      "Ġmonth": 3490,
      "Ġbaron": 3491,
      "Ġfields": 3492,
      "Ġstudied": 3493,
      "Ġdenmark": 3494,
      "Ġcolumns": 3495,
      "law": 3496,
      "Ġ1907": 3497,
      "Ġbatted": 3498,
      "house": 3499,
      "ness": 3500,
      "Ġhay": 3501,
      "ika": 3502,
      "Ġcharact": 3503,
      "Ġsystem": 3504,
      "Ġalbums": 3505,
      "bury": 3506,
      "owa": 3507,
      "Ã©r": 3508,
      "ably": 3509,
      "Ġcomput": 3510,
      "Ġsongs": 3511,
      "Ġvoice": 3512,
      "Ġstephen": 3513,
      "dan": 3514,
      "Ġandre": 3515,
      "ides": 3516,
      "sky": 3517,
      "priced": 3518,
      "consin": 3519,
      "erto": 3520,
      "Ġcam": 3521,
      "Ġwinter": 3522,
      "Ġcarlos": 3523,
      "Ġwisconsin": 3524,
      "net": 3525,
      "alo": 3526,
      "Ġmarg": 3527,
      "Ġcolon": 3528,
      "Ġput": 3529,
      "Ġpick": 3530,
      "Ġmr": 3531,
      "Ġgon": 3532,
      "ges": 3533,
      "Ġpain": 3534,
      "Ġhong": 3535,
      "Ġdomin": 3536,
      "Ġspr": 3537,
      "Ġdefence": 3538,
      "83": 3539,
      "head": 3540,
      "Ġprior": 3541,
      "Ã©e": 3542,
      "Ġpoint": 3543,
      "Ġelephant": 3544,
      "cher": 3545,
      "Ġcoll": 3546,
      "Ġmedical": 3547,
      "Ġargentina": 3548,
      "Ġsnow": 3549,
      "An": 3550,
      "oke": 3551,
      "pa": 3552,
      "ror": 3553,
      "inian": 3554,
      "eng": 3555,
      "Ġyour": 3556,
      "ots": 3557,
      "Ġconc": 3558,
      "Ġconference": 3559,
      "Ġacting": 3560,
      "Ġ1906": 3561,
      "Ġtennis": 3562,
      "Ġharvard": 3563,
      "Ġott": 3564,
      "Ġstill": 3565,
      "Ġkir": 3566,
      "Ġlooking": 3567,
      "Ġcambridge": 3568,
      "Ġvide": 3569,
      "iffer": 3570,
      "Ġpatrick": 3571,
      "Ġtotalgoals": 3572,
      "Ġprincess": 3573,
      "Ġzh": 3574,
      "Ġtotalcaps": 3575,
      "Ġhuman": 3576,
      "instrumentalist": 3577,
      "Ġyugoslavia": 3578,
      "Strada": 3579,
      "lov": 3580,
      "lough": 3581,
      "zy": 3582,
      "Ġariz": 3583,
      "Ġplayers": 3584,
      "Ã©s": 3585,
      "Ġscor": 3586,
      "png": 3587,
      "Ġwhe": 3588,
      "Ġrho": 3589,
      "Ġstory": 3590,
      "Ġbetter": 3591,
      "Ġcreated": 3592,
      "Ġantonio": 3593,
      "Ġcitizenship": 3594,
      "cont": 3595,
      "Ġdistingu": 3596,
      "74": 3597,
      "town": 3598,
      "Ġbrian": 3599,
      "Ġcommand": 3600,
      "Ġpreced": 3601,
      "ency": 3602,
      "Ġstrike": 3603,
      "ĠCity": 3604,
      "Ġshar": 3605,
      "Ġ1900": 3606,
      "Ġannounced": 3607,
      "Ġengineer": 3608,
      "Ġarizona": 3609,
      "kes": 3610,
      "ois": 3611,
      "self": 3612,
      "Ġconse": 3613,
      "new": 3614,
      "Ġ1903": 3615,
      "Ġdescri": 3616,
      "Ġdeliveries": 3617,
      "Ġsi": 3618,
      "Ġpun": 3619,
      "Ġhot": 3620,
      "gether": 3621,
      "olas": 3622,
      "Ġver": 3623,
      "rene": 3624,
      "Ġmarket": 3625,
      "hind": 3626,
      "Ġmaster": 3627,
      "Ġdip": 3628,
      "Ġkong": 3629,
      "Ġjuan": 3630,
      "Ġharry": 3631,
      "ices": 3632,
      "Ġryan": 3633,
      "Ġgall": 3634,
      "Ġislam": 3635,
      "olar": 3636,
      "Ġorganization": 3637,
      "anz": 3638,
      "Ġinj": 3639,
      "Ġlyn": 3640,
      "Ġest": 3641,
      "Ġmuse": 3642,
      "Ġvisit": 3643,
      "Ġmotor": 3644,
      "Ġpuerto": 3645,
      "82": 3646,
      "Ġrail": 3647,
      "Ġgod": 3648,
      "Ġindiana": 3649,
      "Ġfounded": 3650,
      "Ġscient": 3651,
      "Ġcolorado": 3652,
      "Ġatlanta": 3653,
      "Ġdistinguished": 3654,
      "nel": 3655,
      "Ġbad": 3656,
      "Ġped": 3657,
      "Ġmult": 3658,
      "Ġnba": 3659,
      "Ġins": 3660,
      "Ġrefer": 3661,
      "ordon": 3662,
      "Ġrecorded": 3663,
      "Ġwritten": 3664,
      "Ġhospital": 3665,
      "rid": 3666,
      "tha": 3667,
      "orge": 3668,
      "Ġhamp": 3669,
      "Ġtogether": 3670,
      "ĠPlough": 3671,
      "Ġmoving": 3672,
      "Ġscreenwriter": 3673,
      "13": 3674,
      "Ġpil": 3675,
      "Ġmoo": 3676,
      "Ġandr": 3677,
      "ÃŃn": 3678,
      "Ġpress": 3679,
      "Ġmorn": 3680,
      "Ġrobin": 3681,
      "ucky": 3682,
      "Äĥ": 3683,
      "Ġhus": 3684,
      "Ġnbs": 3685,
      "Ġaltern": 3686,
      "itect": 3687,
      "Ġresign": 3688,
      "Ġ1904": 3689,
      "Ġnbsp": 3690,
      "bl": 3691,
      "hel": 3692,
      "Ġroo": 3693,
      "Ġcroat": 3694,
      "Ġforeign": 3695,
      "stein": 3696,
      "Ġethnic": 3697,
      "Cocum": 3698,
      "thy": 3699,
      "Ġpsy": 3700,
      "used": 3701,
      "Ġunknown": 3702,
      "Ġpreceded": 3703,
      "Ġbang": 3704,
      "Ġpad": 3705,
      "Ġniger": 3706,
      "Ġlam": 3707,
      "Ġreign": 3708,
      "Ġretire": 3709,
      "itzer": 3710,
      "Ġbelg": 3711,
      "lahoma": 3712,
      "Ġoklahoma": 3713,
      "Ġestablishment": 3714,
      "Ġpac": 3715,
      "Ġhugh": 3716,
      "Ġot": 3717,
      "Ġcome": 3718,
      "ible": 3719,
      "Ġ1899": 3720,
      "Ġoreg": 3721,
      "Ġoften": 3722,
      "Ġaction": 3723,
      "Ġcarr": 3724,
      "Ġmedals": 3725,
      "Ġsax": 3726,
      "Ġmiller": 3727,
      "Ġoregon": 3728,
      "ena": 3729,
      "Ġtay": 3730,
      "apol": 3731,
      "bi": 3732,
      "din": 3733,
      "inals": 3734,
      "Ġqual": 3735,
      "Cotto": 3736,
      "ause": 3737,
      "Ġbon": 3738,
      "Ġtry": 3739,
      "Ġga": 3740,
      "Ġhimself": 3741,
      "umpings": 3742,
      "Ġfreestyle": 3743,
      "Ġtrees": 3744,
      "Ġaddition": 3745,
      "Ġgreek": 3746,
      "do": 3747,
      "Ġwinger": 3748,
      "istry": 3749,
      "Ġbehind": 3750,
      "Ġnever": 3751,
      "Ġ1909": 3752,
      "Ġbarb": 3753,
      "86": 3754,
      "ls": 3755,
      "Ġfel": 3756,
      "aro": 3757,
      "Ġnumer": 3758,
      "Ġdiffer": 3759,
      "Ġpromin": 3760,
      "Ġimport": 3761,
      "Ġmanchester": 3762,
      "Ġindiv": 3763,
      "Ġundrafted": 3764,
      "ela": 3765,
      "Ġsho": 3766,
      "amin": 3767,
      "stumpings": 3768,
      "Ġspring": 3769,
      "Ġ49": 3770,
      "Ġreview": 3771,
      "kh": 3772,
      "pson": 3773,
      "ĠØ": 3774,
      "Ġwol": 3775,
      "Ġquarter": 3776,
      "Ġartists": 3777,
      "Ġwindow": 3778,
      "Ġcouple": 3779,
      "Two": 3780,
      "Ġcer": 3781,
      "icut": 3782,
      "Ġdave": 3783,
      "Ġtig": 3784,
      "quently": 3785,
      "Ġentertain": 3786,
      "Ġarchitect": 3787,
      "Ġfeatured": 3788,
      "war": 3789,
      "Ġbear": 3790,
      "Ġrome": 3791,
      "Ġbritain": 3792,
      "Ġestablished": 3793,
      "Ġmuseum": 3794,
      "can": 3795,
      "Ġdor": 3796,
      "aya": 3797,
      "Ġbecause": 3798,
      "Ġfrederick": 3799,
      "88": 3800,
      "voc": 3801,
      "worth": 3802,
      "Ġsri": 3803,
      "Ġnich": 3804,
      "Ġdam": 3805,
      "ilton": 3806,
      "Ġoutside": 3807,
      "Ã©t": 3808,
      "Ġiowa": 3809,
      "Ġphilos": 3810,
      "Ġsignature": 3811,
      "Ġproduced": 3812,
      "76": 3813,
      "mos": 3814,
      "nik": 3815,
      "eration": 3816,
      "Ġfiction": 3817,
      "Ġforces": 3818,
      "Ġalan": 3819,
      "Ġmarsh": 3820,
      "Ġ1902": 3821,
      "Ġfourth": 3822,
      "Ġguitarist": 3823,
      "Ġbulgar": 3824,
      "Ġconnecticut": 3825,
      "Ġsent": 3826,
      "Ġkev": 3827,
      "imore": 3828,
      "Ġturkey": 3829,
      "Ġdesigner": 3830,
      "Ġsoldier": 3831,
      "oon": 3832,
      "Ġfern": 3833,
      "Ġpriv": 3834,
      "Ġ39": 3835,
      "ugg": 3836,
      "Ġresult": 3837,
      "Ġeven": 3838,
      "Ġrangers": 3839,
      "Ġqueensland": 3840,
      "Ġnumerous": 3841,
      "Ġlind": 3842,
      "Ġmarie": 3843,
      "Ġmusical": 3844,
      "Ġbuff": 3845,
      "Ġbrothers": 3846,
      "Ġfivefor": 3847,
      "content": 3848,
      "ross": 3849,
      "Ġtack": 3850,
      "Ġchart": 3851,
      "Ġwins": 3852,
      "Ġadmir": 3853,
      "gypt": 3854,
      "archive": 3855,
      "Ġroberts": 3856,
      "24": 3857,
      "ape": 3858,
      "Ġmake": 3859,
      "Ġjam": 3860,
      "Ġtoile": 3861,
      "Ġserge": 3862,
      "roy": 3863,
      "Ġdraftpick": 3864,
      "Ġtenfor": 3865,
      "Ġclouds": 3866,
      "Ġivan": 3867,
      "ii": 3868,
      "pla": 3869,
      "Ġfred": 3870,
      "rel": 3871,
      "Ġ60": 3872,
      "Ġwalter": 3873,
      "Ġcyclist": 3874,
      "uring": 3875,
      "Ġscholar": 3876,
      "Ġappearance": 3877,
      "Ġberlin": 3878,
      "player": 3879,
      "wr": 3880,
      "atory": 3881,
      "Ġfur": 3882,
      "Ġegypt": 3883,
      "Ġera": 3884,
      "Ġeastern": 3885,
      "ography": 3886,
      "Ġmaryland": 3887,
      "Ġcommunity": 3888,
      "Ġnovelist": 3889,
      "Ġhans": 3890,
      "peror": 3891,
      "Ġmedium": 3892,
      "Ġrevolution": 3893,
      "Ġdraw": 3894,
      "Ġbelgium": 3895,
      "11": 3896,
      "cia": 3897,
      "Ġku": 3898,
      "agu": 3899,
      "Ġblo": 3900,
      "thew": 3901,
      "Ġdefeated": 3902,
      "Ġbaltimore": 3903,
      "dam": 3904,
      "lon": 3905,
      "Ġcamer": 3906,
      "Ġcolla": 3907,
      "Ġfind": 3908,
      "Ġblues": 3909,
      "Ġsaid": 3910,
      "Ġtries": 3911,
      "olit": 3912,
      "Ġused": 3913,
      "bar": 3914,
      "Ġpers": 3915,
      "Ġdin": 3916,
      "riatic": 3917,
      "Ġallen": 3918,
      "Ġweb": 3919,
      "Ġrunning": 3920,
      "aret": 3921,
      "Ġcandidate": 3922,
      "Ġmorning": 3923,
      "lan": 3924,
      "Ġtu": 3925,
      "Ġtower": 3926,
      "ological": 3927,
      "Ġsamuel": 3928,
      "Ġhungary": 3929,
      "Ġbrooklyn": 3930,
      "rated": 3931,
      "Ġdance": 3932,
      "heim": 3933,
      "Ġalt": 3934,
      "Ġ37": 3935,
      "Ġclark": 3936,
      "Ġfigure": 3937,
      "Ġcontinued": 3938,
      "names": 3939,
      "Ġcoo": 3940,
      "Ġfut": 3941,
      "Ġdick": 3942,
      "Ġtar": 3943,
      "Ġany": 3944,
      "imir": 3945,
      "osed": 3946,
      "Ġchal": 3947,
      "Ġbrand": 3948,
      "Ġcommer": 3949,
      "elling": 3950,
      "Ġperformance": 3951,
      "Ġlay": 3952,
      "Ġaud": 3953,
      "Ġfitz": 3954,
      "ively": 3955,
      "Ġhorse": 3956,
      "Ġkentucky": 3957,
      "ios": 3958,
      "zh": 3959,
      "Ġhair": 3960,
      "ending": 3961,
      "iest": 3962,
      "Ġwriting": 3963,
      "Ġreached": 3964,
      "Ġabdul": 3965,
      "Ġpainter": 3966,
      "ience": 3967,
      "mit": 3968,
      "sing": 3969,
      "Ġgri": 3970,
      "ided": 3971,
      "Ġprote": 3972,
      "Ġlady": 3973,
      "ĠAd": 3974,
      "Ġbatsman": 3975,
      "Ġpractice": 3976,
      "Ġdifferent": 3977,
      "Ġtoilet": 3978,
      "bal": 3979,
      "Ġcinc": 3980,
      "Ġanne": 3981,
      "ione": 3982,
      "char": 3983,
      "Ġker": 3984,
      "Ġepis": 3985,
      "Ġindivid": 3986,
      "Blue": 3987,
      "For": 3988,
      "fast": 3989,
      "rep": 3990,
      "Ġ04": 3991,
      "Ġrodr": 3992,
      "Ġ175": 3993,
      "Ġemperor": 3994,
      "vocal": 3995,
      "hr": 3996,
      "ji": 3997,
      "Ġsister": 3998,
      "Ġbuck": 3999,
      "Ġang": 4000,
      "Ġvas": 4001,
      "Ġvik": 4002,
      "Ġoffering": 4003,
      "iami": 4004,
      "Ġwinner": 4005,
      "Ġlanguage": 4006,
      "95": 4007,
      "count": 4008,
      "min": 4009,
      "Ġbach": 4010,
      "Ġward": 4011,
      "Ġmiami": 4012,
      "Ġdoc": 4013,
      "Ġtun": 4014,
      "Ġbrun": 4015,
      "Ġ1897": 4016,
      "Ġcontract": 4017,
      "Ġperforming": 4018,
      "innati": 4019,
      "ĠAdriatic": 4020,
      "ilies": 4021,
      "Ġgiven": 4022,
      "sex": 4023,
      "Ġcolomb": 4024,
      "Ġreport": 4025,
      "Ġcheese": 4026,
      "Ġabb": 4027,
      "itting": 4028,
      "Ġdays": 4029,
      "Ġperformed": 4030,
      "Ġflying": 4031,
      "Ġcincinnati": 4032,
      "wick": 4033,
      "ora": 4034,
      "Ġnar": 4035,
      "Ġrise": 4036,
      "Ġraj": 4037,
      "Ġbrig": 4038,
      "Ġcomedy": 4039,
      "Ġturned": 4040,
      "Ġgiants": 4041,
      "87": 4042,
      "Ġpiano": 4043,
      "ateg": 4044,
      "Ġkaz": 4045,
      "Ġcomed": 4046,
      "Ġadult": 4047,
      "ught": 4048,
      "Ġsubse": 4049,
      "Ġgiraffe": 4050,
      "Ġserbian": 4051,
      "Ġethnicity": 4052,
      "90": 4053,
      "james": 4054,
      "mich": 4055,
      "ole": 4056,
      "par": 4057,
      "icy": 4058,
      "Ġmix": 4059,
      "Ġgi": 4060,
      "Ġgary": 4061,
      "Ġlives": 4062,
      "ellers": 4063,
      "evich": 4064,
      "Ġ1895": 4065,
      "Ġsox": 4066,
      "Ġcharacter": 4067,
      "his": 4068,
      "ti": 4069,
      "Ġsle": 4070,
      "Ġfo": 4071,
      "Ġtaking": 4072,
      "Ġrelations": 4073,
      "Ġkevin": 4074,
      "yr": 4075,
      "Ġwide": 4076,
      "Ġmas": 4077,
      "Ġ01": 4078,
      "Ġstudio": 4079,
      "Ġvalley": 4080,
      "Ġturk": 4081,
      "Ġstrikeouts": 4082,
      "Ġhampshire": 4083,
      "Ġretirement": 4084,
      "ken": 4085,
      "Ġfoc": 4086,
      "Ġfolk": 4087,
      "Ġbull": 4088,
      "Ġwild": 4089,
      "Ġgordon": 4090,
      "Ġlanc": 4091,
      "Ġlands": 4092,
      "Ã¡r": 4093,
      "Ġtransl": 4094,
      "Ġriding": 4095
    },
    "merges": [
      [
        "Ġ",
        "="
      ],
      [
        "Ġ",
        "a"
      ],
      [
        "Ġ",
        ";"
      ],
      [
        "e",
        "r"
      ],
      [
        "i",
        "n"
      ],
      [
        "t",
        "h"
      ],
      [
        "a",
        "n"
      ],
      [
        "Ġ",
        "c"
      ],
      [
        "o",
        "n"
      ],
      [
        "Ġ",
        "s"
      ],
      [
        "a",
        "t"
      ],
      [
        "Ġ",
        "f"
      ],
      [
        "r",
        "e"
      ],
      [
        "Ġ",
        "b"
      ],
      [
        "a",
        "r"
      ],
      [
        "Ġ",
        "1"
      ],
      [
        "l",
        "e"
      ],
      [
        "Ġ",
        ","
      ],
      [
        "o",
        "r"
      ],
      [
        "Ġ",
        "p"
      ],
      [
        "Ġ",
        "th"
      ],
      [
        "e",
        "n"
      ],
      [
        "Ġ",
        "h"
      ],
      [
        "i",
        "s"
      ],
      [
        "Ġ",
        "-"
      ],
      [
        "i",
        "t"
      ],
      [
        "Ġ",
        "o"
      ],
      [
        "Ġ",
        "w"
      ],
      [
        "a",
        "l"
      ],
      [
        "i",
        "c"
      ],
      [
        "Ġ",
        "m"
      ],
      [
        "Ġth",
        "e"
      ],
      [
        "a",
        "m"
      ],
      [
        "Ġ",
        "n"
      ],
      [
        "s",
        "t"
      ],
      [
        "e",
        "d"
      ],
      [
        "r",
        "b"
      ],
      [
        "Ġ",
        "in"
      ],
      [
        "Ġ",
        "d"
      ],
      [
        "Ġ",
        "t"
      ],
      [
        "Ġ",
        "2"
      ],
      [
        "Ġ1",
        "9"
      ],
      [
        "Ġ",
        "."
      ],
      [
        "Ġa",
        "n"
      ],
      [
        "Ġo",
        "f"
      ],
      [
        "e",
        "s"
      ],
      [
        "in",
        "g"
      ],
      [
        "Ġ",
        "r"
      ],
      [
        "a",
        "s"
      ],
      [
        "i",
        "on"
      ],
      [
        "i",
        "l"
      ],
      [
        "l",
        "a"
      ],
      [
        "c",
        "e"
      ],
      [
        "o",
        "m"
      ],
      [
        "Ġ2",
        "0"
      ],
      [
        "Ġan",
        "d"
      ],
      [
        "i",
        "r"
      ],
      [
        "o",
        "u"
      ],
      [
        "Ġ",
        "g"
      ],
      [
        "g",
        "e"
      ],
      [
        "o",
        "o"
      ],
      [
        "e",
        "l"
      ],
      [
        "c",
        "h"
      ],
      [
        "Ġ",
        "l"
      ],
      [
        "Ġ",
        "j"
      ],
      [
        "r",
        "rb"
      ],
      [
        "l",
        "rb"
      ],
      [
        "am",
        "e"
      ],
      [
        "Ġ",
        "is"
      ],
      [
        "u",
        "r"
      ],
      [
        "en",
        "t"
      ],
      [
        "i",
        "v"
      ],
      [
        "Ġ",
        "re"
      ],
      [
        "i",
        "d"
      ],
      [
        "Ġh",
        "e"
      ],
      [
        "o",
        "l"
      ],
      [
        "u",
        "n"
      ],
      [
        "i",
        "g"
      ],
      [
        "it",
        "le"
      ],
      [
        "at",
        "e"
      ],
      [
        "Ġ",
        "e"
      ],
      [
        "l",
        "y"
      ],
      [
        "t",
        "itle"
      ],
      [
        "er",
        "s"
      ],
      [
        "h",
        "e"
      ],
      [
        "Ġp",
        "r"
      ],
      [
        "Ġ",
        "'"
      ],
      [
        "e",
        "ar"
      ],
      [
        "Ġb",
        "ir"
      ],
      [
        "Ġbir",
        "th"
      ],
      [
        "Ġd",
        "e"
      ],
      [
        "o",
        "w"
      ],
      [
        "Ġ20",
        "0"
      ],
      [
        "Ġs",
        "t"
      ],
      [
        "Ġ",
        "k"
      ],
      [
        "i",
        "an"
      ],
      [
        "Ġf",
        "oo"
      ],
      [
        "b",
        "er"
      ],
      [
        "Ġ",
        "y"
      ],
      [
        "a",
        "d"
      ],
      [
        "Ġf",
        "or"
      ],
      [
        "i",
        "m"
      ],
      [
        "Ġa",
        "r"
      ],
      [
        "at",
        "ion"
      ],
      [
        "c",
        "t"
      ],
      [
        "u",
        "t"
      ],
      [
        "u",
        "st"
      ],
      [
        "Ġ",
        "|"
      ],
      [
        "Ġw",
        "as"
      ],
      [
        "Ġt",
        "o"
      ],
      [
        "Ġ-",
        "-"
      ],
      [
        "r",
        "i"
      ],
      [
        "an",
        "d"
      ],
      [
        "p",
        "t"
      ],
      [
        "en",
        "d"
      ],
      [
        "o",
        "s"
      ],
      [
        "ig",
        "h"
      ],
      [
        "d",
        "ate"
      ],
      [
        "Ġ20",
        "1"
      ],
      [
        "ic",
        "e"
      ],
      [
        "e",
        "t"
      ],
      [
        "it",
        "y"
      ],
      [
        "Ġc",
        "h"
      ],
      [
        "e",
        "m"
      ],
      [
        "Ġ'",
        "'"
      ],
      [
        "u",
        "b"
      ],
      [
        "Ġfoo",
        "d"
      ],
      [
        "n",
        "ame"
      ],
      [
        "o",
        "v"
      ],
      [
        "Ġ",
        "on"
      ],
      [
        "r",
        "a"
      ],
      [
        "Ġar",
        "t"
      ],
      [
        "la",
        "ce"
      ],
      [
        "T",
        "he"
      ],
      [
        "Ġa",
        "s"
      ],
      [
        "h",
        "o"
      ],
      [
        "o",
        "c"
      ],
      [
        "is",
        "t"
      ],
      [
        "Ġ",
        "v"
      ],
      [
        "u",
        "s"
      ],
      [
        "Ġa",
        "l"
      ],
      [
        "Ġ",
        "le"
      ],
      [
        "u",
        "m"
      ],
      [
        "i",
        "a"
      ],
      [
        "p",
        "lace"
      ],
      [
        "p",
        "e"
      ],
      [
        "ic",
        "le"
      ],
      [
        "Ġ",
        "un"
      ],
      [
        "Ġart",
        "icle"
      ],
      [
        "i",
        "th"
      ],
      [
        "al",
        "l"
      ],
      [
        "Ġ",
        "5"
      ],
      [
        "Ġa",
        "t"
      ],
      [
        "a",
        "p"
      ],
      [
        "Ġr",
        "at"
      ],
      [
        "u",
        "l"
      ],
      [
        "Ġn",
        "ame"
      ],
      [
        "a",
        "y"
      ],
      [
        "o",
        "t"
      ],
      [
        "or",
        "n"
      ],
      [
        "Ġ",
        "`"
      ],
      [
        "re",
        "n"
      ],
      [
        "c",
        "on"
      ],
      [
        "Ġ19",
        "9"
      ],
      [
        "a",
        "th"
      ],
      [
        "iv",
        "ers"
      ],
      [
        "an",
        "t"
      ],
      [
        "a",
        "ge"
      ],
      [
        "a",
        "g"
      ],
      [
        "ar",
        "t"
      ],
      [
        "ri",
        "end"
      ],
      [
        "Ġrat",
        "ing"
      ],
      [
        "Ġw",
        "ith"
      ],
      [
        "Ġs",
        "e"
      ],
      [
        "la",
        "y"
      ],
      [
        "o",
        "f"
      ],
      [
        "Ġ`",
        "`"
      ],
      [
        "riend",
        "ly"
      ],
      [
        "ust",
        "om"
      ],
      [
        "re",
        "s"
      ],
      [
        "Ġh",
        "is"
      ],
      [
        "Ġc",
        "ustom"
      ],
      [
        "igh",
        "t"
      ],
      [
        "ation",
        "al"
      ],
      [
        "ar",
        "y"
      ],
      [
        "Ġf",
        "r"
      ],
      [
        "ar",
        "d"
      ],
      [
        "Ġcustom",
        "er"
      ],
      [
        "Ġb",
        "e"
      ],
      [
        "Ġ",
        "C"
      ],
      [
        "Ġ",
        "The"
      ],
      [
        "Ġ",
        "3"
      ],
      [
        "ou",
        "n"
      ],
      [
        "Ġ19",
        "8"
      ],
      [
        "m",
        "er"
      ],
      [
        "Ġ1",
        "8"
      ],
      [
        "is",
        "h"
      ],
      [
        "Ġp",
        "lay"
      ],
      [
        "id",
        "e"
      ],
      [
        "Ġ",
        "I"
      ],
      [
        "Ġ",
        "0"
      ],
      [
        "ce",
        "pt"
      ],
      [
        "il",
        "y"
      ],
      [
        "u",
        "p"
      ],
      [
        "an",
        "ge"
      ],
      [
        "u",
        "e"
      ],
      [
        "es",
        "s"
      ],
      [
        "Ġf",
        "am"
      ],
      [
        "Ġpr",
        "ice"
      ],
      [
        "cept",
        "s"
      ],
      [
        "con",
        "cepts"
      ],
      [
        "Ġn",
        "ear"
      ],
      [
        "Ġa",
        "re"
      ],
      [
        "t",
        "er"
      ],
      [
        "e",
        "e"
      ],
      [
        "Ġfam",
        "ily"
      ],
      [
        "Ġb",
        "orn"
      ],
      [
        "Ġn",
        "ational"
      ],
      [
        "ear",
        "s"
      ],
      [
        "il",
        "l"
      ],
      [
        "v",
        "er"
      ],
      [
        "Ġb",
        "r"
      ],
      [
        "Ġm",
        "o"
      ],
      [
        "em",
        "ber"
      ],
      [
        "iv",
        "e"
      ],
      [
        "d",
        "er"
      ],
      [
        "a",
        "c"
      ],
      [
        "ow",
        "n"
      ],
      [
        "Ġc",
        "l"
      ],
      [
        "Ġe",
        "at"
      ],
      [
        "Ġm",
        "ar"
      ],
      [
        "Ġ19",
        "7"
      ],
      [
        "Ġn",
        "e"
      ],
      [
        "y",
        "pe"
      ],
      [
        "a",
        "in"
      ],
      [
        "Ġs",
        "er"
      ],
      [
        "Ġ",
        "im"
      ],
      [
        "Ġc",
        "a"
      ],
      [
        "Ġde",
        "ath"
      ],
      [
        "b",
        "all"
      ],
      [
        "Ġare",
        "a"
      ],
      [
        "T",
        "ype"
      ],
      [
        "Ġeat",
        "Type"
      ],
      [
        "Ġt",
        "e"
      ],
      [
        "a",
        "v"
      ],
      [
        "m",
        "an"
      ],
      [
        "at",
        "ed"
      ],
      [
        "Ġc",
        "ity"
      ],
      [
        "s",
        "e"
      ],
      [
        "u",
        "g"
      ],
      [
        "i",
        "e"
      ],
      [
        "Ġw",
        "h"
      ],
      [
        "Ġc",
        "om"
      ],
      [
        "Ġo",
        "ut"
      ],
      [
        "a",
        "st"
      ],
      [
        "ic",
        "h"
      ],
      [
        "ivers",
        "ide"
      ],
      [
        "c",
        "c"
      ],
      [
        "ho",
        "p"
      ],
      [
        "a",
        "k"
      ],
      [
        "i",
        "p"
      ],
      [
        "Ġfr",
        "om"
      ],
      [
        "st",
        "a"
      ],
      [
        "of",
        "f"
      ],
      [
        "l",
        "and"
      ],
      [
        "Ġc",
        "on"
      ],
      [
        "Ġr",
        "iverside"
      ],
      [
        "u",
        "ary"
      ],
      [
        "Ġs",
        "p"
      ],
      [
        "Ġ",
        "B"
      ],
      [
        "b",
        "r"
      ],
      [
        "Ġb",
        "y"
      ],
      [
        "R",
        "ange"
      ],
      [
        "i",
        "re"
      ],
      [
        "or",
        "t"
      ],
      [
        "Ġh",
        "as"
      ],
      [
        "Ġprice",
        "Range"
      ],
      [
        "Ġ19",
        "6"
      ],
      [
        "ĠI",
        "t"
      ],
      [
        "Ġ",
        "la"
      ],
      [
        "Ġc",
        "ent"
      ],
      [
        "ic",
        "an"
      ],
      [
        "Ġc",
        "off"
      ],
      [
        "Ġcoff",
        "ee"
      ],
      [
        "Ġs",
        "hop"
      ],
      [
        "o",
        "p"
      ],
      [
        "i",
        "f"
      ],
      [
        "Ġa",
        "p"
      ],
      [
        "Ġim",
        "age"
      ],
      [
        "u",
        "d"
      ],
      [
        "i",
        "z"
      ],
      [
        "2",
        "0"
      ],
      [
        "Ġser",
        "v"
      ],
      [
        "ur",
        "ant"
      ],
      [
        "Ġre",
        "sta"
      ],
      [
        "Ġresta",
        "urant"
      ],
      [
        "ou",
        "r"
      ],
      [
        "le",
        "s"
      ],
      [
        "Ġh",
        "igh"
      ],
      [
        "t",
        "e"
      ],
      [
        "es",
        "e"
      ],
      [
        "Ġw",
        "or"
      ],
      [
        "Ġ",
        "F"
      ],
      [
        "Ġr",
        "o"
      ],
      [
        "r",
        "y"
      ],
      [
        "it",
        "ion"
      ],
      [
        "Ġs",
        "h"
      ],
      [
        "F",
        "riendly"
      ],
      [
        "Ġc",
        "ol"
      ],
      [
        "Ġfamily",
        "Friendly"
      ],
      [
        "t",
        "ball"
      ],
      [
        "al",
        "s"
      ],
      [
        "c",
        "l"
      ],
      [
        "Ã",
        "©"
      ],
      [
        "ic",
        "k"
      ],
      [
        "Ġfoo",
        "tball"
      ],
      [
        "a",
        "ch"
      ],
      [
        "or",
        "d"
      ],
      [
        "el",
        "l"
      ],
      [
        "Ġy",
        "ears"
      ],
      [
        "Ġne",
        "w"
      ],
      [
        "n",
        "e"
      ],
      [
        "i",
        "es"
      ],
      [
        "a",
        "b"
      ],
      [
        "Ġ19",
        "5"
      ],
      [
        "at",
        "er"
      ],
      [
        "Ġ",
        "4"
      ],
      [
        "Ġ",
        "en"
      ],
      [
        "Ġj",
        "o"
      ],
      [
        "k",
        "e"
      ],
      [
        "il",
        "d"
      ],
      [
        "o",
        "g"
      ],
      [
        "Ġa",
        "mer"
      ],
      [
        "Ġw",
        "e"
      ],
      [
        "f",
        "t"
      ],
      [
        "Ġcent",
        "re"
      ],
      [
        "Ġcl",
        "ub"
      ],
      [
        "in",
        "e"
      ],
      [
        "Ġs",
        "he"
      ],
      [
        "Ġw",
        "ho"
      ],
      [
        "re",
        "d"
      ],
      [
        "Ġ",
        "or"
      ],
      [
        "Â",
        "£"
      ],
      [
        "Ġ",
        "R"
      ],
      [
        "er",
        "e"
      ],
      [
        "Ġy",
        "es"
      ],
      [
        "Ġ",
        "Â£"
      ],
      [
        "Ġun",
        "ivers"
      ],
      [
        "ren",
        "t"
      ],
      [
        "o",
        "d"
      ],
      [
        "Ġg",
        "r"
      ],
      [
        "a",
        "f"
      ],
      [
        "i",
        "el"
      ],
      [
        "ou",
        "th"
      ],
      [
        "os",
        "ition"
      ],
      [
        "Ġ19",
        "4"
      ],
      [
        "ac",
        "k"
      ],
      [
        "Ġamer",
        "ican"
      ],
      [
        "u",
        "c"
      ],
      [
        "p",
        "g"
      ],
      [
        "Ġ",
        "6"
      ],
      [
        "oun",
        "d"
      ],
      [
        "Ġf",
        "e"
      ],
      [
        "l",
        "ish"
      ],
      [
        "on",
        "g"
      ],
      [
        "Ġj",
        "an"
      ],
      [
        "Ġst",
        "at"
      ],
      [
        "s",
        "h"
      ],
      [
        "Ġ",
        "it"
      ],
      [
        "al",
        "ian"
      ],
      [
        "Ġunivers",
        "ity"
      ],
      [
        "Ġs",
        "c"
      ],
      [
        "Ġth",
        "at"
      ],
      [
        "Ġp",
        "ub"
      ],
      [
        "Ġ",
        "E"
      ],
      [
        "Ġc",
        "o"
      ],
      [
        "as",
        "s"
      ],
      [
        "it",
        "ed"
      ],
      [
        "Ġm",
        "an"
      ],
      [
        "Ġp",
        "art"
      ],
      [
        "Ġm",
        "ay"
      ],
      [
        "Ġa",
        "f"
      ],
      [
        "w",
        "ard"
      ],
      [
        "s",
        "o"
      ],
      [
        "l",
        "d"
      ],
      [
        "Ġp",
        "osition"
      ],
      [
        "Ġhe",
        "ight"
      ],
      [
        "Ġb",
        "o"
      ],
      [
        "th",
        "er"
      ],
      [
        "Ġc",
        "ur"
      ],
      [
        "t",
        "s"
      ],
      [
        "re",
        "e"
      ],
      [
        "Ġc",
        "r"
      ],
      [
        "ou",
        "se"
      ],
      [
        "Ġh",
        "er"
      ],
      [
        "Ġplay",
        "ed"
      ],
      [
        "Ġf",
        "riendly"
      ],
      [
        "Ġth",
        "an"
      ],
      [
        "t",
        "on"
      ],
      [
        "o",
        "re"
      ],
      [
        "i",
        "o"
      ],
      [
        "Ġj",
        "un"
      ],
      [
        "ol",
        "d"
      ],
      [
        "Ġjan",
        "uary"
      ],
      [
        "Ġa",
        "ct"
      ],
      [
        "res",
        "ent"
      ],
      [
        "Ġen",
        "g"
      ],
      [
        "p",
        "h"
      ],
      [
        "d",
        "ian"
      ],
      [
        "Ġof",
        "f"
      ],
      [
        "Ġal",
        "so"
      ],
      [
        "Ġ",
        "P"
      ],
      [
        "Ġl",
        "oc"
      ],
      [
        "Ġp",
        "ol"
      ],
      [
        "Ġn",
        "ov"
      ],
      [
        "Ġun",
        "ited"
      ],
      [
        "Ġj",
        "u"
      ],
      [
        "ag",
        "ue"
      ],
      [
        "ul",
        "l"
      ],
      [
        "er",
        "m"
      ],
      [
        "Ġo",
        "cc"
      ],
      [
        "h",
        "n"
      ],
      [
        "o",
        "als"
      ],
      [
        "s",
        "on"
      ],
      [
        "Ġ19",
        "3"
      ],
      [
        "Ġcur",
        "rent"
      ],
      [
        "j",
        "pg"
      ],
      [
        "Ġ",
        "u"
      ],
      [
        "Ġk",
        "n"
      ],
      [
        "Ġf",
        "ir"
      ],
      [
        "am",
        "p"
      ],
      [
        "oun",
        "t"
      ],
      [
        "ĠI",
        "n"
      ],
      [
        "a",
        "ct"
      ],
      [
        "r",
        "o"
      ],
      [
        "q",
        "u"
      ],
      [
        "Ġa",
        "ug"
      ],
      [
        "Ġa",
        "ver"
      ],
      [
        "Ġ",
        "z"
      ],
      [
        "Ġocc",
        "up"
      ],
      [
        "ap",
        "s"
      ],
      [
        "Ġc",
        "al"
      ],
      [
        "Ġfir",
        "st"
      ],
      [
        "Ġmar",
        "ch"
      ],
      [
        "Ġaug",
        "ust"
      ],
      [
        "Ġn",
        "ot"
      ],
      [
        "Ġoccup",
        "ation"
      ],
      [
        "Ġ",
        "7"
      ],
      [
        "Ġre",
        "p"
      ],
      [
        "te",
        "am"
      ],
      [
        "t",
        "o"
      ],
      [
        "er",
        "n"
      ],
      [
        "Ġaver",
        "age"
      ],
      [
        "i",
        "al"
      ],
      [
        "Ġf",
        "in"
      ],
      [
        "Ġ1",
        "0"
      ],
      [
        "ren",
        "ch"
      ],
      [
        "m",
        "ent"
      ],
      [
        "Ġpr",
        "of"
      ],
      [
        "res",
        "s"
      ],
      [
        "Ġte",
        "am"
      ],
      [
        "Ġjun",
        "e"
      ],
      [
        "Ġa",
        "d"
      ],
      [
        "Ġ",
        "8"
      ],
      [
        "Ġju",
        "ly"
      ],
      [
        "Ġca",
        "pt"
      ],
      [
        "Ġ",
        "ed"
      ],
      [
        "b",
        "ut"
      ],
      [
        "Ġprof",
        "ess"
      ],
      [
        "Ġch",
        "ild"
      ],
      [
        "r",
        "il"
      ],
      [
        "Ġse",
        "pt"
      ],
      [
        "Ġc",
        "he"
      ],
      [
        "an",
        "g"
      ],
      [
        "Ġsept",
        "ember"
      ],
      [
        "ap",
        "an"
      ],
      [
        "oo",
        "d"
      ],
      [
        "Ġo",
        "ct"
      ],
      [
        "Ġloc",
        "ated"
      ],
      [
        "o",
        "ber"
      ],
      [
        "y",
        "ears"
      ],
      [
        "Ġle",
        "ague"
      ],
      [
        "Ġ201",
        "0"
      ],
      [
        "Ġn",
        "o"
      ],
      [
        "Ġoct",
        "ober"
      ],
      [
        "Ġ201",
        "2"
      ],
      [
        "Ġ1",
        "7"
      ],
      [
        "Ġc",
        "an"
      ],
      [
        "g",
        "h"
      ],
      [
        "Ġ201",
        "1"
      ],
      [
        "Ġs",
        "u"
      ],
      [
        "Ġde",
        "ce"
      ],
      [
        "m",
        "ber"
      ],
      [
        "Ġre",
        "c"
      ],
      [
        "Ġt",
        "erm"
      ],
      [
        "Ġap",
        "ril"
      ],
      [
        "Ġ",
        "9"
      ],
      [
        "Ġl",
        "ow"
      ],
      [
        "Ġcom",
        "p"
      ],
      [
        "le",
        "d"
      ],
      [
        "i",
        "k"
      ],
      [
        "Ġdece",
        "mber"
      ],
      [
        "Ġe",
        "x"
      ],
      [
        "Ġs",
        "ch"
      ],
      [
        "le",
        "ct"
      ],
      [
        "an",
        "k"
      ],
      [
        "Ġ201",
        "3"
      ],
      [
        "or",
        "k"
      ],
      [
        "Ġjo",
        "hn"
      ],
      [
        "Ġf",
        "ull"
      ],
      [
        "oo",
        "k"
      ],
      [
        "as",
        "h"
      ],
      [
        "Ġ201",
        "4"
      ],
      [
        "Ġ",
        "A"
      ],
      [
        "oc",
        "k"
      ],
      [
        "ic",
        "t"
      ],
      [
        "Ġmo",
        "der"
      ],
      [
        "Ġ",
        "i"
      ],
      [
        "Ġ200",
        "8"
      ],
      [
        "cl",
        "ub"
      ],
      [
        "Ġnov",
        "ember"
      ],
      [
        "Ġ200",
        "9"
      ],
      [
        "Ġa",
        "g"
      ],
      [
        "Ġwor",
        "k"
      ],
      [
        "Ġg",
        "en"
      ],
      [
        "Ġas",
        "s"
      ],
      [
        "br",
        "uary"
      ],
      [
        "n",
        "g"
      ],
      [
        "Ġm",
        "a"
      ],
      [
        "am",
        "es"
      ],
      [
        "Ġfe",
        "bruary"
      ],
      [
        "Ġa",
        "ust"
      ],
      [
        "apan",
        "ese"
      ],
      [
        "Ġkn",
        "own"
      ],
      [
        "Ġ19",
        "2"
      ],
      [
        "at",
        "t"
      ],
      [
        "ig",
        "n"
      ],
      [
        "it",
        "e"
      ],
      [
        "Ġ1",
        "5"
      ],
      [
        "i",
        "am"
      ],
      [
        "ic",
        "ian"
      ],
      [
        "Ġcapt",
        "ion"
      ],
      [
        "Ġ",
        "H"
      ],
      [
        "en",
        "s"
      ],
      [
        "Ġ",
        "W"
      ],
      [
        "u",
        "re"
      ],
      [
        "Ġc",
        "ar"
      ],
      [
        "ion",
        "al"
      ],
      [
        "w",
        "o"
      ],
      [
        "Ġt",
        "ra"
      ],
      [
        "Ġp",
        "ar"
      ],
      [
        "en",
        "ce"
      ],
      [
        "Ġ19",
        "1"
      ],
      [
        "Ġplay",
        "er"
      ],
      [
        "ra",
        "ft"
      ],
      [
        "Ġ200",
        "7"
      ],
      [
        "ĠIn",
        "dian"
      ],
      [
        "e",
        "c"
      ],
      [
        "Ġ1",
        "1"
      ],
      [
        "f",
        "or"
      ],
      [
        "an",
        "c"
      ],
      [
        "Ġb",
        "as"
      ],
      [
        "Ġm",
        "us"
      ],
      [
        "Ġr",
        "ange"
      ],
      [
        "Ġre",
        "s"
      ],
      [
        "oo",
        "l"
      ],
      [
        "m",
        "a"
      ],
      [
        "Ġ",
        "&"
      ],
      [
        "Ġf",
        "il"
      ],
      [
        "Ġca",
        "re"
      ],
      [
        "r",
        "it"
      ],
      [
        "Ġwor",
        "ld"
      ],
      [
        "Ġpart",
        "y"
      ],
      [
        "ĠIt",
        "alian"
      ],
      [
        "p",
        "er"
      ],
      [
        "i",
        "x"
      ],
      [
        "Ġm",
        "ed"
      ],
      [
        "as",
        "on"
      ],
      [
        "Ġfor",
        "mer"
      ],
      [
        "Ġcom",
        "m"
      ],
      [
        "Ġ1",
        "6"
      ],
      [
        "Ġc",
        "ount"
      ],
      [
        "an",
        "s"
      ],
      [
        "Ġde",
        "but"
      ],
      [
        "Ġm",
        "in"
      ],
      [
        "id",
        "ge"
      ],
      [
        "J",
        "apanese"
      ],
      [
        "Ġp",
        "h"
      ],
      [
        "Ġaf",
        "ter"
      ],
      [
        "Ġstat",
        "es"
      ],
      [
        "ess",
        "or"
      ],
      [
        "Ġcol",
        "le"
      ],
      [
        "Ġt",
        "r"
      ],
      [
        "Ġnational",
        "ity"
      ],
      [
        "Ġ",
        "Japanese"
      ],
      [
        "iel",
        "d"
      ],
      [
        "Ġn",
        "or"
      ],
      [
        "Ġwh",
        "ich"
      ],
      [
        "ic",
        "s"
      ],
      [
        "le",
        "y"
      ],
      [
        "Ġ1",
        "2"
      ],
      [
        "om",
        "e"
      ],
      [
        "h",
        "in"
      ],
      [
        "Ġd",
        "ur"
      ],
      [
        "Ġfull",
        "name"
      ],
      [
        "Ġcare",
        "er"
      ],
      [
        "c",
        "k"
      ],
      [
        "ĠF",
        "rench"
      ],
      [
        "ou",
        "s"
      ],
      [
        "Ġin",
        "d"
      ],
      [
        "is",
        "s"
      ],
      [
        "af",
        "Ã©"
      ],
      [
        "in",
        "a"
      ],
      [
        "Ġm",
        "ember"
      ],
      [
        "ĠC",
        "afÃ©"
      ],
      [
        "w",
        "e"
      ],
      [
        "Ġ",
        "G"
      ],
      [
        "Ġon",
        "e"
      ],
      [
        "ic",
        "al"
      ],
      [
        "ou",
        "gh"
      ],
      [
        "Ġa",
        "ward"
      ],
      [
        "Ġf",
        "l"
      ],
      [
        "Ġw",
        "in"
      ],
      [
        "Ġm",
        "e"
      ],
      [
        "Ġ200",
        "6"
      ],
      [
        "en",
        "n"
      ],
      [
        "Ġs",
        "ing"
      ],
      [
        "Ġ1",
        "4"
      ],
      [
        "Ġg",
        "u"
      ],
      [
        "y",
        "ear"
      ],
      [
        "Ġcolle",
        "ge"
      ],
      [
        "Ġl",
        "o"
      ],
      [
        "Ġaust",
        "r"
      ],
      [
        "im",
        "e"
      ],
      [
        "m",
        "p"
      ],
      [
        "Ġ1",
        "3"
      ],
      [
        "Ġpol",
        "it"
      ],
      [
        "Ġfil",
        "m"
      ],
      [
        "Ġ19",
        "0"
      ],
      [
        "Ġg",
        "oals"
      ],
      [
        "on",
        "d"
      ],
      [
        "Ġmo",
        "re"
      ],
      [
        "an",
        "ce"
      ],
      [
        "os",
        "s"
      ],
      [
        "Ġp",
        "o"
      ],
      [
        "Ġst",
        "ate"
      ],
      [
        "Ġche",
        "ap"
      ],
      [
        "Ġ",
        "S"
      ],
      [
        "sh",
        "ip"
      ],
      [
        "Ġclub",
        "s"
      ],
      [
        "Ġp",
        "er"
      ],
      [
        "o",
        "at"
      ],
      [
        "e",
        "y"
      ],
      [
        "iz",
        "e"
      ],
      [
        "i",
        "er"
      ],
      [
        "Ġw",
        "ar"
      ],
      [
        "Ġle",
        "s"
      ],
      [
        "Ġdur",
        "ing"
      ],
      [
        "Ġin",
        "ter"
      ],
      [
        "Ġap",
        "p"
      ],
      [
        "ad",
        "e"
      ],
      [
        "Ġy",
        "ork"
      ],
      [
        "le",
        "n"
      ],
      [
        "Ġs",
        "outh"
      ],
      [
        "ng",
        "lish"
      ],
      [
        "t",
        "t"
      ],
      [
        "Ġ201",
        "5"
      ],
      [
        "ur",
        "g"
      ],
      [
        "Ġre",
        "t"
      ],
      [
        "Ġprofess",
        "ional"
      ],
      [
        "ĠE",
        "nglish"
      ],
      [
        "ul",
        "t"
      ],
      [
        "Ġg",
        "e"
      ],
      [
        "Ġ200",
        "5"
      ],
      [
        "Ġb",
        "ut"
      ],
      [
        "Ġd",
        "raft"
      ],
      [
        "Ġa",
        "b"
      ],
      [
        "ct",
        "or"
      ],
      [
        "a",
        "h"
      ],
      [
        "Ġ",
        "us"
      ],
      [
        "Ġchild",
        "ren"
      ],
      [
        "Ġserv",
        "es"
      ],
      [
        "Ġy",
        "outh"
      ],
      [
        "Ġg",
        "re"
      ],
      [
        "Ġmoder",
        "ate"
      ],
      [
        "Ġp",
        "a"
      ],
      [
        "at",
        "ch"
      ],
      [
        "Ġrec",
        "ord"
      ],
      [
        "Ġ2",
        "5"
      ],
      [
        "w",
        "w"
      ],
      [
        "Ġm",
        "on"
      ],
      [
        "os",
        "e"
      ],
      [
        "Ġ200",
        "4"
      ],
      [
        "Ġw",
        "ill"
      ],
      [
        "st",
        "art"
      ],
      [
        "Ġb",
        "ack"
      ],
      [
        "a",
        "z"
      ],
      [
        "Ġch",
        "amp"
      ],
      [
        "hin",
        "ese"
      ],
      [
        "Ġde",
        "f"
      ],
      [
        "Ġeng",
        "land"
      ],
      [
        "ber",
        "t"
      ],
      [
        "Ġ",
        "T"
      ],
      [
        "ĠC",
        "hinese"
      ],
      [
        "Ġf",
        "c"
      ],
      [
        "e",
        "v"
      ],
      [
        "Ã",
        "¡"
      ],
      [
        "br",
        "idge"
      ],
      [
        "Ġfootball",
        "er"
      ],
      [
        "it",
        "z"
      ],
      [
        "i",
        "b"
      ],
      [
        "Ġco",
        "ach"
      ],
      [
        "Ġc",
        "aps"
      ],
      [
        "Ġse",
        "ason"
      ],
      [
        "Ġchamp",
        "ion"
      ],
      [
        "Ġb",
        "ar"
      ],
      [
        "i",
        "le"
      ],
      [
        "h",
        "am"
      ],
      [
        "Ġles",
        "s"
      ],
      [
        "Ġm",
        "id"
      ],
      [
        "i",
        "ed"
      ],
      [
        "1",
        "9"
      ],
      [
        "Ġp",
        "re"
      ],
      [
        "Ġs",
        "w"
      ],
      [
        "Ġpr",
        "ic"
      ],
      [
        "in",
        "ce"
      ],
      [
        "um",
        "ber"
      ],
      [
        "f",
        "f"
      ],
      [
        "or",
        "y"
      ],
      [
        "ad",
        "a"
      ],
      [
        "Ġa",
        "m"
      ],
      [
        "st",
        "r"
      ],
      [
        "3",
        "0"
      ],
      [
        "Ġ3",
        "0"
      ],
      [
        "Ġsch",
        "ool"
      ],
      [
        "2",
        "5"
      ],
      [
        "Ġg",
        "er"
      ],
      [
        "am",
        "bridge"
      ],
      [
        "a",
        "w"
      ],
      [
        "Ġsu",
        "cc"
      ],
      [
        "av",
        "e"
      ],
      [
        "Ġ200",
        "3"
      ],
      [
        "Ġs",
        "k"
      ],
      [
        "is",
        "ion"
      ],
      [
        "Ġr",
        "ight"
      ],
      [
        "p",
        "x"
      ],
      [
        "Ġt",
        "wo"
      ],
      [
        "Ġp",
        "resent"
      ],
      [
        "Ġal",
        "l"
      ],
      [
        "act",
        "ive"
      ],
      [
        "Ġo",
        "ver"
      ],
      [
        "s",
        "k"
      ],
      [
        "Ġfin",
        "al"
      ],
      [
        "ĠB",
        "oat"
      ],
      [
        "ĠR",
        "ice"
      ],
      [
        "Ġbe",
        "c"
      ],
      [
        "s",
        "b"
      ],
      [
        "g",
        "r"
      ],
      [
        "b",
        "el"
      ],
      [
        "Ġe",
        "lect"
      ],
      [
        "b",
        "s"
      ],
      [
        "Ġch",
        "ar"
      ],
      [
        "a",
        "ir"
      ],
      [
        "Ġh",
        "ar"
      ],
      [
        "Ġ18",
        "9"
      ],
      [
        "q",
        "ue"
      ],
      [
        "ick",
        "et"
      ],
      [
        "Ġe",
        "v"
      ],
      [
        "at",
        "ive"
      ],
      [
        "Ġr",
        "un"
      ],
      [
        "Ġ2",
        "4"
      ],
      [
        "ĠF",
        "ast"
      ],
      [
        "er",
        "al"
      ],
      [
        "Ġserv",
        "ed"
      ],
      [
        "id",
        "ent"
      ],
      [
        "Ġw",
        "on"
      ],
      [
        "Ġe",
        "ar"
      ],
      [
        "Ġ2",
        "1"
      ],
      [
        "f",
        "l"
      ],
      [
        "0",
        "0"
      ],
      [
        "e",
        "st"
      ],
      [
        "Ġbr",
        "it"
      ],
      [
        "Ġpolit",
        "ician"
      ],
      [
        "in",
        "t"
      ],
      [
        "r",
        "own"
      ],
      [
        "a",
        "ce"
      ],
      [
        "Ġd",
        "ire"
      ],
      [
        "a",
        "le"
      ],
      [
        "an",
        "n"
      ],
      [
        "us",
        "s"
      ],
      [
        "ĠC",
        "ambridge"
      ],
      [
        "Ġ",
        ":"
      ],
      [
        "Ġy",
        "ear"
      ],
      [
        "b",
        "y"
      ],
      [
        "Ġk",
        "id"
      ],
      [
        "ur",
        "n"
      ],
      [
        "Ġrep",
        "resent"
      ],
      [
        "oc",
        "i"
      ],
      [
        "Ġ",
        "up"
      ],
      [
        "st",
        "on"
      ],
      [
        "en",
        "c"
      ],
      [
        "Ġge",
        "or"
      ],
      [
        "Ġ200",
        "2"
      ],
      [
        "Ġ2",
        "3"
      ],
      [
        "v",
        "el"
      ],
      [
        "rit",
        "er"
      ],
      [
        "z",
        "a"
      ],
      [
        "Ġsp",
        "ouse"
      ],
      [
        "t",
        "r"
      ],
      [
        "ist",
        "er"
      ],
      [
        "Ġb",
        "l"
      ],
      [
        "Ġ",
        "el"
      ],
      [
        "Ġp",
        "res"
      ],
      [
        "Ġd",
        "r"
      ],
      [
        "Ġ2",
        "2"
      ],
      [
        "Ġh",
        "ad"
      ],
      [
        "l",
        "ing"
      ],
      [
        "Ġn",
        "d"
      ],
      [
        "Ġb",
        "att"
      ],
      [
        "Ġd",
        "ist"
      ],
      [
        "f",
        "ord"
      ],
      [
        "Ġ200",
        "0"
      ],
      [
        "Ġ200",
        "1"
      ],
      [
        "c",
        "om"
      ],
      [
        "Ġs",
        "m"
      ],
      [
        "Ġ2",
        "8"
      ],
      [
        "ing",
        "s"
      ],
      [
        "Ġwe",
        "ight"
      ],
      [
        "Ġre",
        "l"
      ],
      [
        "ic",
        "a"
      ],
      [
        "um",
        "mer"
      ],
      [
        "Ġwill",
        "iam"
      ],
      [
        "old",
        "en"
      ],
      [
        "n",
        "ational"
      ],
      [
        "p",
        "ort"
      ],
      [
        "Ġnd",
        "ash"
      ],
      [
        "Ġ2",
        "6"
      ],
      [
        "in",
        "s"
      ],
      [
        "ov",
        "e"
      ],
      [
        "Ġag",
        "ain"
      ],
      [
        "Ġwe",
        "st"
      ],
      [
        "Ġger",
        "man"
      ],
      [
        "Ġ2",
        "7"
      ],
      [
        "Ġbe",
        "st"
      ],
      [
        "a",
        "i"
      ],
      [
        "ater",
        "man"
      ],
      [
        "Ġf",
        "ield"
      ],
      [
        "Ġd",
        "av"
      ],
      [
        "cl",
        "ud"
      ],
      [
        "ĠW",
        "aterman"
      ],
      [
        "Ġ18",
        "8"
      ],
      [
        "al",
        "k"
      ],
      [
        "Ġpr",
        "ov"
      ],
      [
        "Ġp",
        "l"
      ],
      [
        "Ġr",
        "u"
      ],
      [
        "ol",
        "og"
      ],
      [
        "ou",
        "p"
      ],
      [
        "c",
        "o"
      ],
      [
        "Ġm",
        "ich"
      ],
      [
        "Ġat",
        "t"
      ],
      [
        "Ġth",
        "r"
      ],
      [
        "Ġin",
        "clud"
      ],
      [
        "Ġp",
        "lace"
      ],
      [
        "g",
        "an"
      ],
      [
        "ol",
        "l"
      ],
      [
        "Ġcurrent",
        "ly"
      ],
      [
        "club",
        "s"
      ],
      [
        "Ġchampion",
        "ship"
      ],
      [
        "ab",
        "le"
      ],
      [
        "f",
        "riendly"
      ],
      [
        "Ġb",
        "u"
      ],
      [
        "iv",
        "er"
      ],
      [
        "an",
        "e"
      ],
      [
        "Ġcal",
        "if"
      ],
      [
        "ire",
        "d"
      ],
      [
        "Ġb",
        "and"
      ],
      [
        "Ġcalif",
        "orn"
      ],
      [
        "Ġplay",
        "s"
      ],
      [
        "m",
        "s"
      ],
      [
        "Ġch",
        "r"
      ],
      [
        "Ġcal",
        "led"
      ],
      [
        "Ġcaliforn",
        "ia"
      ],
      [
        "ot",
        "t"
      ],
      [
        "ion",
        "s"
      ],
      [
        "at",
        "or"
      ],
      [
        "Ġs",
        "up"
      ],
      [
        "Ġle",
        "ad"
      ],
      [
        "Ġbrit",
        "ish"
      ],
      [
        "i",
        "or"
      ],
      [
        "y",
        "n"
      ],
      [
        "Ġst",
        "ar"
      ],
      [
        "Ġman",
        "ag"
      ],
      [
        "ub",
        "l"
      ],
      [
        "Ġact",
        "or"
      ],
      [
        "Ġd",
        "es"
      ],
      [
        "ill",
        "ies"
      ],
      [
        "er",
        "y"
      ],
      [
        "it",
        "t"
      ],
      [
        "e",
        "p"
      ],
      [
        "om",
        "an"
      ],
      [
        "Ġ2",
        "9"
      ],
      [
        "m",
        "y"
      ],
      [
        "Ġ199",
        "9"
      ],
      [
        "Ġp",
        "red"
      ],
      [
        "c",
        "aps"
      ],
      [
        "n",
        "er"
      ],
      [
        "ath",
        "er"
      ],
      [
        "Ġ199",
        "0"
      ],
      [
        "an",
        "ch"
      ],
      [
        "Ġlo",
        "an"
      ],
      [
        "ag",
        "le"
      ],
      [
        "Ġpr",
        "od"
      ],
      [
        "Ġp",
        "ort"
      ],
      [
        "Ġpres",
        "ident"
      ],
      [
        "g",
        "oals"
      ],
      [
        "el",
        "y"
      ],
      [
        "Ġwh",
        "ere"
      ],
      [
        "Ġa",
        "ir"
      ],
      [
        "ĠG",
        "olden"
      ],
      [
        "up",
        "date"
      ],
      [
        "re",
        "st"
      ],
      [
        "Ġa",
        "c"
      ],
      [
        "Ġph",
        "il"
      ],
      [
        "Ġdire",
        "ctor"
      ],
      [
        "Ġthe",
        "ir"
      ],
      [
        "Ġr",
        "ock"
      ],
      [
        "Ã",
        "Ń"
      ],
      [
        "Ġs",
        "en"
      ],
      [
        "Ġ",
        "â"
      ],
      [
        "le",
        "v"
      ],
      [
        "Ġo",
        "ly"
      ],
      [
        "Ġst",
        "ud"
      ],
      [
        "Ġk",
        "ing"
      ],
      [
        "iel",
        "der"
      ],
      [
        "Ġoly",
        "mp"
      ],
      [
        "t",
        "ar"
      ],
      [
        "Ġcon",
        "t"
      ],
      [
        "Ġm",
        "ade"
      ],
      [
        "Ġal",
        "ma"
      ],
      [
        "ec",
        "essor"
      ],
      [
        "Ġbe",
        "en"
      ],
      [
        "Ġpred",
        "ecessor"
      ],
      [
        "z",
        "e"
      ],
      [
        "itz",
        "b"
      ],
      [
        "on",
        "e"
      ],
      [
        "em",
        "b"
      ],
      [
        "Ġl",
        "i"
      ],
      [
        "Ġnor",
        "th"
      ],
      [
        "itzb",
        "illies"
      ],
      [
        "ĠE",
        "agle"
      ],
      [
        "Ġth",
        "ree"
      ],
      [
        "Ġal",
        "b"
      ],
      [
        "Ġ",
        "qu"
      ],
      [
        "ke",
        "y"
      ],
      [
        "Ġass",
        "oci"
      ],
      [
        "Ġm",
        "ov"
      ],
      [
        "il",
        "le"
      ],
      [
        "j",
        "or"
      ],
      [
        "f",
        "ielder"
      ],
      [
        "Ġl",
        "ater"
      ],
      [
        "a",
        "u"
      ],
      [
        "Ġcurrent",
        "club"
      ],
      [
        "m",
        "ater"
      ],
      [
        "Ġh",
        "ouse"
      ],
      [
        "Ġg",
        "o"
      ],
      [
        "b",
        "o"
      ],
      [
        "ĠA",
        "r"
      ],
      [
        "/",
        "/"
      ],
      [
        "con",
        "d"
      ],
      [
        "Ġplay",
        "ing"
      ],
      [
        "tt",
        "p"
      ],
      [
        "Ġoff",
        "ice"
      ],
      [
        "Ġsp",
        "ort"
      ],
      [
        ":",
        "//"
      ],
      [
        "Ġmus",
        "ic"
      ],
      [
        "Ġ199",
        "8"
      ],
      [
        "Ġbr",
        "o"
      ],
      [
        "Ġle",
        "ft"
      ],
      [
        "s",
        "ize"
      ],
      [
        "Ġh",
        "ttp"
      ],
      [
        "l",
        "o"
      ],
      [
        "ar",
        "k"
      ],
      [
        "st",
        "it"
      ],
      [
        "Ġ",
        "ir"
      ],
      [
        "f",
        "er"
      ],
      [
        "Ġp",
        "et"
      ],
      [
        "Ġm",
        "atch"
      ],
      [
        "y",
        "s"
      ],
      [
        "Ġo",
        "ther"
      ],
      [
        "ĠA",
        "l"
      ],
      [
        "d",
        "e"
      ],
      [
        "Ġtra",
        "in"
      ],
      [
        "Ġ199",
        "7"
      ],
      [
        "Ġaustr",
        "alian"
      ],
      [
        "Ġm",
        "il"
      ],
      [
        "ow",
        "er"
      ],
      [
        "Ġmed",
        "al"
      ],
      [
        "Ġde",
        "m"
      ],
      [
        "Ġ199",
        "6"
      ],
      [
        "Ġinter",
        "national"
      ],
      [
        "Ġla",
        "w"
      ],
      [
        "Ġse",
        "cond"
      ],
      [
        "Ġt",
        "our"
      ],
      [
        "Ġre",
        "g"
      ],
      [
        "Ġ",
        "O"
      ],
      [
        "ov",
        "ern"
      ],
      [
        "le",
        "t"
      ],
      [
        "Ġmo",
        "st"
      ],
      [
        "Ġun",
        "der"
      ],
      [
        "Ġsucc",
        "essor"
      ],
      [
        "Ġmanag",
        "er"
      ],
      [
        "Ġ199",
        "3"
      ],
      [
        "Ġl",
        "ou"
      ],
      [
        "im",
        "ent"
      ],
      [
        "Ĩ",
        "Ĵ"
      ],
      [
        "Ġâ",
        "ĨĴ"
      ],
      [
        "Ġ199",
        "2"
      ],
      [
        "at",
        "s"
      ],
      [
        "Ã",
        "³"
      ],
      [
        "Ġagain",
        "st"
      ],
      [
        "ou",
        "t"
      ],
      [
        "ig",
        "in"
      ],
      [
        "Ġs",
        "pe"
      ],
      [
        "Ġb",
        "et"
      ],
      [
        "ing",
        "ton"
      ],
      [
        "p",
        "r"
      ],
      [
        "Ġbec",
        "ame"
      ],
      [
        "Ġh",
        "im"
      ],
      [
        "Ġt",
        "ime"
      ],
      [
        "Ġma",
        "jor"
      ],
      [
        "is",
        "e"
      ],
      [
        "Ġr",
        "uss"
      ],
      [
        "Ġd",
        "o"
      ],
      [
        "Ġ",
        "M"
      ],
      [
        "Ġpric",
        "ed"
      ],
      [
        "Ġ",
        "?"
      ],
      [
        "Ġgen",
        "re"
      ],
      [
        "Ġg",
        "overn"
      ],
      [
        "Ġ199",
        "1"
      ],
      [
        "i",
        "ous"
      ],
      [
        "ĠB",
        "ar"
      ],
      [
        "Ġcomp",
        "et"
      ],
      [
        "gr",
        "ound"
      ],
      [
        "Ġp",
        "e"
      ],
      [
        "l",
        "ue"
      ],
      [
        "a",
        "j"
      ],
      [
        "r",
        "ict"
      ],
      [
        "Ġrat",
        "ed"
      ],
      [
        "Ġ199",
        "5"
      ],
      [
        "it",
        "ch"
      ],
      [
        "Ġor",
        "igin"
      ],
      [
        "Ġ18",
        "7"
      ],
      [
        "f",
        "ore"
      ],
      [
        "Ġi",
        "i"
      ],
      [
        "k",
        "et"
      ],
      [
        "w",
        "ood"
      ],
      [
        "um",
        "ent"
      ],
      [
        "Ġg",
        "ames"
      ],
      [
        "al",
        "ia"
      ],
      [
        "Ġb",
        "el"
      ],
      [
        "Ġt",
        "itle"
      ],
      [
        "Ġsing",
        "er"
      ],
      [
        "Ġeng",
        "lish"
      ],
      [
        "Ġcon",
        "s"
      ],
      [
        "Ġ",
        "V"
      ],
      [
        "Ġdist",
        "rict"
      ],
      [
        "ers",
        "on"
      ],
      [
        "Ġ198",
        "0"
      ],
      [
        "Ġb",
        "ra"
      ],
      [
        "ation",
        "s"
      ],
      [
        "a",
        "re"
      ],
      [
        "v",
        "al"
      ],
      [
        "n",
        "ing"
      ],
      [
        "Ġgen",
        "eral"
      ],
      [
        "Ġa",
        "le"
      ],
      [
        "Ġ198",
        "9"
      ],
      [
        "Ġf",
        "ast"
      ],
      [
        "Ġb",
        "la"
      ],
      [
        "Ġbe",
        "fore"
      ],
      [
        "Ġ199",
        "4"
      ],
      [
        "Ġgr",
        "oup"
      ],
      [
        "Ġmin",
        "ister"
      ],
      [
        "in",
        "o"
      ],
      [
        "Ġh",
        "ave"
      ],
      [
        "Ġ198",
        "8"
      ],
      [
        "in",
        "c"
      ],
      [
        "Ġj",
        "ames"
      ],
      [
        "ug",
        "h"
      ],
      [
        "Ġ198",
        "7"
      ],
      [
        "Ġrep",
        "ubl"
      ],
      [
        "Ġyouth",
        "clubs"
      ],
      [
        "Ġback",
        "ground"
      ],
      [
        "f",
        "e"
      ],
      [
        "Ġret",
        "ired"
      ],
      [
        "Ġh",
        "el"
      ],
      [
        "st",
        "er"
      ],
      [
        "Ġs",
        "an"
      ],
      [
        "Ġgeor",
        "ge"
      ],
      [
        "ic",
        "o"
      ],
      [
        "Ġst",
        "e"
      ],
      [
        "Ġnational",
        "team"
      ],
      [
        "Ġ18",
        "6"
      ],
      [
        "Ġmid",
        "fielder"
      ],
      [
        "un",
        "g"
      ],
      [
        "Ġ198",
        "6"
      ],
      [
        "a",
        "el"
      ],
      [
        "Ġcount",
        "y"
      ],
      [
        "Ġth",
        "is"
      ],
      [
        "Ġm",
        "c"
      ],
      [
        "Ġwh",
        "en"
      ],
      [
        "uc",
        "k"
      ],
      [
        "Ġs",
        "ol"
      ],
      [
        "Ġbas",
        "e"
      ],
      [
        "un",
        "d"
      ],
      [
        "u",
        "k"
      ],
      [
        "am",
        "ed"
      ],
      [
        "ad",
        "ian"
      ],
      [
        "Ġm",
        "iss"
      ],
      [
        "an",
        "a"
      ],
      [
        "Ġd",
        "ay"
      ],
      [
        "Ġm",
        "et"
      ],
      [
        "Ġact",
        "ress"
      ],
      [
        "r",
        "at"
      ],
      [
        "iv",
        "es"
      ],
      [
        "Ġ198",
        "4"
      ],
      [
        "Ġte",
        "lev"
      ],
      [
        "Ġe",
        "m"
      ],
      [
        "m",
        "ed"
      ],
      [
        "al",
        "d"
      ],
      [
        "Ġcount",
        "ry"
      ],
      [
        "on",
        "y"
      ],
      [
        "Ġs",
        "y"
      ],
      [
        "l",
        "er"
      ],
      [
        "Ġ",
        "ent"
      ],
      [
        "c",
        "ed"
      ],
      [
        "Ġin",
        "dian"
      ],
      [
        "p",
        "ress"
      ],
      [
        "Ġaward",
        "s"
      ],
      [
        "20",
        "0"
      ],
      [
        "Ġt",
        "own"
      ],
      [
        "Ġ",
        "end"
      ],
      [
        "Ġchr",
        "ist"
      ],
      [
        "Ġtelev",
        "ision"
      ],
      [
        "Ġ3",
        "1"
      ],
      [
        "Ġcan",
        "adian"
      ],
      [
        "urg",
        "er"
      ],
      [
        "Ġ",
        "er"
      ],
      [
        "Ġw",
        "ell"
      ],
      [
        "id",
        "ay"
      ],
      [
        "end",
        "er"
      ],
      [
        "u",
        "ct"
      ],
      [
        "Ġs",
        "ign"
      ],
      [
        "b",
        "a"
      ],
      [
        "and",
        "er"
      ],
      [
        "Ġf",
        "our"
      ],
      [
        "t",
        "il"
      ],
      [
        "w",
        "ay"
      ],
      [
        "if",
        "e"
      ],
      [
        "ur",
        "y"
      ],
      [
        "al",
        "ist"
      ],
      [
        "Ġg",
        "ra"
      ],
      [
        "Ġp",
        "at"
      ],
      [
        "j",
        "e"
      ],
      [
        "ens",
        "ive"
      ],
      [
        "Ġd",
        "is"
      ],
      [
        "Ġnational",
        "years"
      ],
      [
        "on",
        "s"
      ],
      [
        "le",
        "as"
      ],
      [
        "Ġre",
        "ce"
      ],
      [
        "Ġprod",
        "uc"
      ],
      [
        "Ġd",
        "ied"
      ],
      [
        "id",
        "ence"
      ],
      [
        "o",
        "ch"
      ],
      [
        "um",
        "p"
      ],
      [
        "Ġev",
        "ent"
      ],
      [
        "Ġdav",
        "id"
      ],
      [
        "k",
        "er"
      ],
      [
        "Ġw",
        "ere"
      ],
      [
        "Ġaustr",
        "alia"
      ],
      [
        "in",
        "d"
      ],
      [
        "Ġ198",
        "1"
      ],
      [
        "Ġte",
        "x"
      ],
      [
        "iv",
        "ed"
      ],
      [
        "ain",
        "t"
      ],
      [
        "Ġoff",
        "ic"
      ],
      [
        "Ġ",
        "K"
      ],
      [
        "rown",
        "s"
      ],
      [
        "Ġs",
        "a"
      ],
      [
        "Ġa",
        "th"
      ],
      [
        "Ġun",
        "til"
      ],
      [
        "Ġ198",
        "3"
      ],
      [
        "Ġp",
        "op"
      ],
      [
        "Ġlou",
        "is"
      ],
      [
        "Ġ",
        "que"
      ],
      [
        "Ġhe",
        "ad"
      ],
      [
        "Ġle",
        "g"
      ],
      [
        "Ġ198",
        "2"
      ],
      [
        "u",
        "th"
      ],
      [
        "ol",
        "iday"
      ],
      [
        "Ġ",
        "/"
      ],
      [
        "ww",
        "w"
      ],
      [
        "g",
        "er"
      ],
      [
        "Ġc",
        "up"
      ],
      [
        "Ġth",
        "om"
      ],
      [
        "Ġs",
        "ong"
      ],
      [
        "Ġb",
        "en"
      ],
      [
        "Ġr",
        "ich"
      ],
      [
        "Ġs",
        "ince"
      ],
      [
        "Ġ198",
        "5"
      ],
      [
        "Ġnational",
        "caps"
      ],
      [
        "Ġr",
        "ank"
      ],
      [
        "Ġj",
        "e"
      ],
      [
        "Ġo",
        "p"
      ],
      [
        "Ġed",
        "uc"
      ],
      [
        "n",
        "a"
      ],
      [
        "u",
        "al"
      ],
      [
        "ĠK",
        "ing"
      ],
      [
        "Ġnational",
        "goals"
      ],
      [
        "ĠB",
        "urger"
      ],
      [
        "er",
        "t"
      ],
      [
        "um",
        "b"
      ],
      [
        "et",
        "t"
      ],
      [
        "oc",
        "key"
      ],
      [
        "Ġd",
        "a"
      ],
      [
        "Ġf",
        "ound"
      ],
      [
        "Ġla",
        "st"
      ],
      [
        "op",
        "h"
      ],
      [
        "str",
        "ument"
      ],
      [
        "Ġbase",
        "ball"
      ],
      [
        "Ġdem",
        "oc"
      ],
      [
        "Ġ197",
        "9"
      ],
      [
        "ur",
        "ry"
      ],
      [
        "b",
        "or"
      ],
      [
        "Ġn",
        "umber"
      ],
      [
        "ar",
        "a"
      ],
      [
        "Ġre",
        "d"
      ],
      [
        "Ġde",
        "p"
      ],
      [
        "Ġm",
        "art"
      ],
      [
        "Ġf",
        "ive"
      ],
      [
        "Ġart",
        "ist"
      ],
      [
        "Ġapp",
        "ear"
      ],
      [
        "Ġb",
        "re"
      ],
      [
        "Ġserv",
        "ice"
      ],
      [
        "Ġb",
        "us"
      ],
      [
        "Ġv",
        "ict"
      ],
      [
        "Ġs",
        "o"
      ],
      [
        "Ġh",
        "ome"
      ],
      [
        "ing",
        "er"
      ],
      [
        "Ġwe",
        "bs"
      ],
      [
        "ow",
        "ing"
      ],
      [
        "al",
        "y"
      ],
      [
        "Ġd",
        "an"
      ],
      [
        "ĠC",
        "urry"
      ],
      [
        "i",
        "et"
      ],
      [
        "Ġin",
        "to"
      ],
      [
        "T",
        "h"
      ],
      [
        "Ġc",
        "or"
      ],
      [
        "Ġre",
        "leas"
      ],
      [
        "Ġpa",
        "ul"
      ],
      [
        "Ġst",
        "art"
      ],
      [
        "Ġwebs",
        "ite"
      ],
      [
        "Ġthe",
        "y"
      ],
      [
        "Ġe",
        "ur"
      ],
      [
        "i",
        "Ä"
      ],
      [
        "iment",
        "um"
      ],
      [
        "j",
        "o"
      ],
      [
        "Ġon",
        "ly"
      ],
      [
        "Ġrel",
        "ig"
      ],
      [
        "ĠF",
        "itzbillies"
      ],
      [
        "Ġh",
        "on"
      ],
      [
        "en",
        "ix"
      ],
      [
        "Ġp",
        "c"
      ],
      [
        "om",
        "in"
      ],
      [
        "s",
        "y"
      ],
      [
        "Ġf",
        "rench"
      ],
      [
        "Ġh",
        "ockey"
      ],
      [
        "Ġd",
        "u"
      ],
      [
        "ĠB",
        "lue"
      ],
      [
        "Ġserv",
        "ing"
      ],
      [
        "ho",
        "enix"
      ],
      [
        "Ġ197",
        "0"
      ],
      [
        "Ġper",
        "for"
      ],
      [
        "Ġl",
        "ond"
      ],
      [
        "Ġth",
        "en"
      ],
      [
        "Ġb",
        "ook"
      ],
      [
        "Ġto",
        "p"
      ],
      [
        "Ġn",
        "amed"
      ],
      [
        "Ġd",
        "iv"
      ],
      [
        "th",
        "e"
      ],
      [
        "er",
        "v"
      ],
      [
        "Ġs",
        "ummer"
      ],
      [
        "Ġpr",
        "o"
      ],
      [
        "Ġcr",
        "icket"
      ],
      [
        "ul",
        "ar"
      ],
      [
        "stit",
        "ut"
      ],
      [
        "a",
        "il"
      ],
      [
        "g",
        "in"
      ],
      [
        "on",
        "t"
      ],
      [
        "ak",
        "e"
      ],
      [
        "Ġit",
        "s"
      ],
      [
        "z",
        "il"
      ],
      [
        "Ġ",
        "Ã"
      ],
      [
        "Ġla",
        "bel"
      ],
      [
        "Ġlond",
        "on"
      ],
      [
        "Ġinclud",
        "ing"
      ],
      [
        "Ġe",
        "ast"
      ],
      [
        "b",
        "e"
      ],
      [
        "n",
        "umber"
      ],
      [
        "g",
        "ian"
      ],
      [
        "ou",
        "ge"
      ],
      [
        "Ġres",
        "idence"
      ],
      [
        "ort",
        "land"
      ],
      [
        "ow",
        "s"
      ],
      [
        "sh",
        "ire"
      ],
      [
        "Ġalb",
        "um"
      ],
      [
        "g",
        "o"
      ],
      [
        "Ġd",
        "el"
      ],
      [
        "l",
        "ers"
      ],
      [
        "Ġt",
        "im"
      ],
      [
        "ĠP",
        "ortland"
      ],
      [
        "ĠAr",
        "ms"
      ],
      [
        "l",
        "in"
      ],
      [
        "Ġpar",
        "k"
      ],
      [
        "Ġolymp",
        "ics"
      ],
      [
        "Ġto",
        "t"
      ],
      [
        "Ġbas",
        "ket"
      ],
      [
        "it",
        "ar"
      ],
      [
        "ur",
        "ch"
      ],
      [
        "ro",
        "om"
      ],
      [
        "Ġfr",
        "ance"
      ],
      [
        "Ġex",
        "p"
      ],
      [
        "Ġpc",
        "update"
      ],
      [
        "Ġk",
        "g"
      ],
      [
        "Ġz",
        "e"
      ],
      [
        "Ġprov",
        "id"
      ],
      [
        "Ġt",
        "om"
      ],
      [
        "o",
        "st"
      ],
      [
        "ĠE",
        "x"
      ],
      [
        "er",
        "ed"
      ],
      [
        "Ġh",
        "en"
      ],
      [
        "Ġs",
        "l"
      ],
      [
        "is",
        "m"
      ],
      [
        "v",
        "ille"
      ],
      [
        "ĠIn",
        "n"
      ],
      [
        "ĠH",
        "oliday"
      ],
      [
        "ĠEx",
        "press"
      ],
      [
        "w",
        "riter"
      ],
      [
        "Ġdemoc",
        "rat"
      ],
      [
        "r",
        "ic"
      ],
      [
        "Ġser",
        "ies"
      ],
      [
        "y",
        "le"
      ],
      [
        "Ġy",
        "oun"
      ],
      [
        "Ġan",
        "ge"
      ],
      [
        "Ġfr",
        "anc"
      ],
      [
        "ri",
        "ed"
      ],
      [
        "Ġ197",
        "8"
      ],
      [
        "Ġs",
        "un"
      ],
      [
        "Ġ197",
        "7"
      ],
      [
        "an",
        "ia"
      ],
      [
        "y",
        "ne"
      ],
      [
        "Ã",
        "¼"
      ],
      [
        "we",
        "en"
      ],
      [
        "tr",
        "ada"
      ],
      [
        "ĠR",
        "ouge"
      ],
      [
        "ot",
        "to"
      ],
      [
        "Ġs",
        "oc"
      ],
      [
        "Ġw",
        "il"
      ],
      [
        "k",
        "a"
      ],
      [
        "ie",
        "f"
      ],
      [
        "c",
        "a"
      ],
      [
        "Ġa",
        "uth"
      ],
      [
        "Ġt",
        "or"
      ],
      [
        "Ġsc",
        "i"
      ],
      [
        "m",
        "e"
      ],
      [
        "Ġro",
        "y"
      ],
      [
        "Ġf",
        "oll"
      ],
      [
        "w",
        "ent"
      ],
      [
        "Ġr",
        "oman"
      ],
      [
        "Ġ196",
        "0"
      ],
      [
        "Ġs",
        "ur"
      ],
      [
        "Ġ197",
        "2"
      ],
      [
        "f",
        "ield"
      ],
      [
        "Ġro",
        "bert"
      ],
      [
        "rest",
        "lers"
      ],
      [
        "Ġtot",
        "al"
      ],
      [
        "o",
        "pe"
      ],
      [
        "Ġw",
        "riter"
      ],
      [
        "Ġf",
        "ather"
      ],
      [
        "Ġh",
        "ist"
      ],
      [
        "Ġbet",
        "ween"
      ],
      [
        "Ġst",
        "r"
      ],
      [
        "Th",
        "ere"
      ],
      [
        "Ã",
        "¶"
      ],
      [
        "Ġor",
        "der"
      ],
      [
        "ne",
        "y"
      ],
      [
        "ot",
        "e"
      ],
      [
        "e",
        "ge"
      ],
      [
        "Ġs",
        "on"
      ],
      [
        "Ġm",
        "or"
      ],
      [
        "ĠW",
        "restlers"
      ],
      [
        "al",
        "t"
      ],
      [
        "am",
        "a"
      ],
      [
        "Ġ197",
        "5"
      ],
      [
        "Ġrun",
        "s"
      ],
      [
        "Ġcr",
        "oss"
      ],
      [
        "v",
        "en"
      ],
      [
        "an",
        "y"
      ],
      [
        "ĠP",
        "hoenix"
      ],
      [
        "Ġgerman",
        "y"
      ],
      [
        "Ġj",
        "pg"
      ],
      [
        "or",
        "s"
      ],
      [
        "Ġbla",
        "ck"
      ],
      [
        "Ġm",
        "ag"
      ],
      [
        "Ġr",
        "ad"
      ],
      [
        "olog",
        "y"
      ],
      [
        "Ġchar",
        "les"
      ],
      [
        "id",
        "a"
      ],
      [
        "Ġclub",
        "number"
      ],
      [
        "Ġc",
        "re"
      ],
      [
        "Ġtex",
        "as"
      ],
      [
        "l",
        "v"
      ],
      [
        "Ġb",
        "er"
      ],
      [
        "Ġh",
        "ow"
      ],
      [
        "Ġ197",
        "4"
      ],
      [
        "Ġrelig",
        "ion"
      ],
      [
        "Ġl",
        "os"
      ],
      [
        "Ġyouth",
        "years"
      ],
      [
        "at",
        "ing"
      ],
      [
        "Ġb",
        "ow"
      ],
      [
        "Ġfor",
        "ward"
      ],
      [
        "l",
        "ic"
      ],
      [
        "Ġf",
        "re"
      ],
      [
        "Ġb",
        "ur"
      ],
      [
        "ad",
        "em"
      ],
      [
        "in",
        "ed"
      ],
      [
        "it",
        "s"
      ],
      [
        "Ġale",
        "x"
      ],
      [
        "u",
        "el"
      ],
      [
        "un",
        "ter"
      ],
      [
        "Ġgr",
        "and"
      ],
      [
        "Ġthom",
        "as"
      ],
      [
        "k",
        "s"
      ],
      [
        "la",
        "v"
      ],
      [
        "Ġdef",
        "ender"
      ],
      [
        "l",
        "sb"
      ],
      [
        "Ġw",
        "a"
      ],
      [
        "Ġt",
        "ri"
      ],
      [
        "Ġ197",
        "6"
      ],
      [
        "Ġcan",
        "ada"
      ],
      [
        "Ġg",
        "ame"
      ],
      [
        "Ġun",
        "ion"
      ],
      [
        "Ġs",
        "ub"
      ],
      [
        "ĠH",
        "ouse"
      ],
      [
        "Ġst",
        "ri"
      ],
      [
        "Ġ18",
        "5"
      ],
      [
        "Ġar",
        "my"
      ],
      [
        "m",
        "ing"
      ],
      [
        "Ġf",
        "ar"
      ],
      [
        "ou",
        "d"
      ],
      [
        "iÄ",
        "ĩ"
      ],
      [
        "ot",
        "el"
      ],
      [
        "Ġthr",
        "ough"
      ],
      [
        "z",
        "i"
      ],
      [
        "Ġgu",
        "itar"
      ],
      [
        "Ġauth",
        "or"
      ],
      [
        "Ġs",
        "il"
      ],
      [
        "Ġme",
        "x"
      ],
      [
        "Ġ197",
        "1"
      ],
      [
        "Ġj",
        "ose"
      ],
      [
        "Ġmich",
        "ael"
      ],
      [
        "Ġbo",
        "th"
      ],
      [
        "Ġro",
        "le"
      ],
      [
        "Ġse",
        "ver"
      ],
      [
        "ou",
        "ld"
      ],
      [
        "went",
        "y"
      ],
      [
        "ag",
        "es"
      ],
      [
        "re",
        "en"
      ],
      [
        "Ġv",
        "ir"
      ],
      [
        "a",
        "ul"
      ],
      [
        "Ġwas",
        "h"
      ],
      [
        "Ġpric",
        "es"
      ],
      [
        "L",
        "och"
      ],
      [
        "Ġ197",
        "3"
      ],
      [
        "ĠF",
        "yne"
      ],
      [
        "Ġruss",
        "ian"
      ],
      [
        "Ġ196",
        "8"
      ],
      [
        "at",
        "ely"
      ],
      [
        "Ġch",
        "urch"
      ],
      [
        "Ġbasket",
        "ball"
      ],
      [
        "at",
        "ure"
      ],
      [
        "Ġrecord",
        "s"
      ],
      [
        "Ġsol",
        "o"
      ],
      [
        "ra",
        "ph"
      ],
      [
        "Ġ196",
        "9"
      ],
      [
        "Ġsk",
        "y"
      ],
      [
        "is",
        "on"
      ],
      [
        "u",
        "is"
      ],
      [
        "Ġd",
        "ou"
      ],
      [
        "Ġass",
        "ist"
      ],
      [
        "Ġn",
        "on"
      ],
      [
        "Ġwh",
        "ite"
      ],
      [
        "Ġo",
        "l"
      ],
      [
        "i",
        "um"
      ],
      [
        "Ġf",
        "ore"
      ],
      [
        "Ġt",
        "ree"
      ],
      [
        "Ġe",
        "mp"
      ],
      [
        "r",
        "on"
      ],
      [
        "v",
        "e"
      ],
      [
        "la",
        "bel"
      ],
      [
        "ag",
        "o"
      ],
      [
        "Ġde",
        "c"
      ],
      [
        "Ġvict",
        "or"
      ],
      [
        "a",
        "red"
      ],
      [
        "b",
        "our"
      ],
      [
        "at",
        "es"
      ],
      [
        "our",
        "n"
      ],
      [
        "Ġac",
        "adem"
      ],
      [
        "ug",
        "by"
      ],
      [
        "Ġj",
        "ust"
      ],
      [
        "Ġm",
        "en"
      ],
      [
        "20",
        "1"
      ],
      [
        "in",
        "ess"
      ],
      [
        "b",
        "ow"
      ],
      [
        "Ġ",
        "N"
      ],
      [
        "n",
        "es"
      ],
      [
        "Ġin",
        "v"
      ],
      [
        "om",
        "en"
      ],
      [
        "and",
        "ed"
      ],
      [
        "Ġse",
        "c"
      ],
      [
        "Ġ196",
        "7"
      ],
      [
        "Ġl",
        "ar"
      ],
      [
        "Ġind",
        "ia"
      ],
      [
        "Ġreleas",
        "ed"
      ],
      [
        "Ġk",
        "h"
      ],
      [
        "Ġj",
        "ack"
      ],
      [
        "Ġwh",
        "ile"
      ],
      [
        "Ġmus",
        "ician"
      ],
      [
        "Ġproduc",
        "er"
      ],
      [
        "Ġcl",
        "ass"
      ],
      [
        "b",
        "ack"
      ],
      [
        "b",
        "ur"
      ],
      [
        "Ġc",
        "our"
      ],
      [
        "Ġelect",
        "ed"
      ],
      [
        "Ġc",
        "oun"
      ],
      [
        "Ġeur",
        "ope"
      ],
      [
        "Ġwash",
        "ington"
      ],
      [
        "t",
        "en"
      ],
      [
        "Ġbe",
        "ing"
      ],
      [
        "Ġcent",
        "er"
      ],
      [
        "Ġan",
        "n"
      ],
      [
        "ĠB",
        "rowns"
      ],
      [
        "o",
        "int"
      ],
      [
        "Ġa",
        "cc"
      ],
      [
        "Ġsever",
        "al"
      ],
      [
        "la",
        "za"
      ],
      [
        "og",
        "raph"
      ],
      [
        "Ġ",
        "es"
      ],
      [
        "Ġp",
        "enn"
      ],
      [
        "Ġch",
        "air"
      ],
      [
        "Ġchampionship",
        "s"
      ],
      [
        "Ġbus",
        "iness"
      ],
      [
        "b",
        "urg"
      ],
      [
        "Ġp",
        "itch"
      ],
      [
        "ish",
        "ed"
      ],
      [
        "k",
        "o"
      ],
      [
        "Ġ",
        "ut"
      ],
      [
        "Ġb",
        "ath"
      ],
      [
        "Ġst",
        "and"
      ],
      [
        "h",
        "a"
      ],
      [
        "Ġh",
        "am"
      ],
      [
        "Ġsucc",
        "ess"
      ],
      [
        "f",
        "ul"
      ],
      [
        "Ġth",
        "ere"
      ],
      [
        "Ġo",
        "w"
      ],
      [
        "ain",
        "bow"
      ],
      [
        "ĠP",
        "unter"
      ],
      [
        "Ġs",
        "am"
      ],
      [
        "ĠP",
        "laza"
      ],
      [
        "ĠH",
        "otel"
      ],
      [
        "p",
        "ed"
      ],
      [
        "Ġ",
        "x"
      ],
      [
        "Ġd",
        "on"
      ],
      [
        "um",
        "n"
      ],
      [
        "Ġu",
        "k"
      ],
      [
        "Ġd",
        "en"
      ],
      [
        "ĠC",
        "rown"
      ],
      [
        "p",
        "ice"
      ],
      [
        "oc",
        "um"
      ],
      [
        "Ġman",
        "y"
      ],
      [
        "Ġoff",
        "ers"
      ],
      [
        "Ġ",
        "ill"
      ],
      [
        "Ġh",
        "ol"
      ],
      [
        "Ġar",
        "ch"
      ],
      [
        "Ġl",
        "ook"
      ],
      [
        "id",
        "s"
      ],
      [
        "Ġsc",
        "ott"
      ],
      [
        "Ġs",
        "al"
      ],
      [
        "c",
        "er"
      ],
      [
        "Ġm",
        "ass"
      ],
      [
        "Ġg",
        "l"
      ],
      [
        "Ġ",
        "Y"
      ],
      [
        "Ġw",
        "all"
      ],
      [
        "Ġaf",
        "r"
      ],
      [
        "c",
        "ial"
      ],
      [
        "is",
        "hop"
      ],
      [
        "c",
        "es"
      ],
      [
        "c",
        "ol"
      ],
      [
        "ad",
        "u"
      ],
      [
        "ĠS",
        "pice"
      ],
      [
        "Ġn",
        "ick"
      ],
      [
        "Ġn",
        "fl"
      ],
      [
        "Ġap",
        "pe"
      ],
      [
        "Ġc",
        "amp"
      ],
      [
        "Ġm",
        "ary"
      ],
      [
        "Ġn",
        "av"
      ],
      [
        "Ġdemocrat",
        "ic"
      ],
      [
        "Ġpub",
        "lic"
      ],
      [
        "r",
        "am"
      ],
      [
        "Ġrece",
        "ived"
      ],
      [
        "Ġin",
        "strument"
      ],
      [
        "if",
        "ic"
      ],
      [
        "g",
        "a"
      ],
      [
        "Ġb",
        "ats"
      ],
      [
        "Ġgovern",
        "or"
      ],
      [
        "m",
        "ar"
      ],
      [
        "ip",
        "pe"
      ],
      [
        "anc",
        "es"
      ],
      [
        "Ġsw",
        "ed"
      ],
      [
        "Ġa",
        "ge"
      ],
      [
        "tar",
        "ian"
      ],
      [
        "Ġch",
        "ic"
      ],
      [
        "Ġb",
        "ill"
      ],
      [
        "Ġm",
        "er"
      ],
      [
        "i",
        "us"
      ],
      [
        "Ġs",
        "im"
      ],
      [
        "Ġf",
        "ree"
      ],
      [
        "emb",
        "ers"
      ],
      [
        "r",
        "sb"
      ],
      [
        "Ġv",
        "oc"
      ],
      [
        "s",
        "ide"
      ],
      [
        "ege",
        "tarian"
      ],
      [
        "om",
        "i"
      ],
      [
        "em",
        "p"
      ],
      [
        "Ġc",
        "ath"
      ],
      [
        "Ġm",
        "el"
      ],
      [
        "ĠAl",
        "imentum"
      ],
      [
        "Ġg",
        "ir"
      ],
      [
        "je",
        "ct"
      ],
      [
        "u",
        "es"
      ],
      [
        "Ġrich",
        "ard"
      ],
      [
        "ak",
        "ing"
      ],
      [
        "re",
        "w"
      ],
      [
        "Ġear",
        "ly"
      ],
      [
        "ĠV",
        "egetarian"
      ],
      [
        "Ġhen",
        "ry"
      ],
      [
        "Ġm",
        "ount"
      ],
      [
        "Ġt",
        "a"
      ],
      [
        "Ġsh",
        "ow"
      ],
      [
        "ĠR",
        "ainbow"
      ],
      [
        "Ġcar",
        "ol"
      ],
      [
        "Ġbr",
        "own"
      ],
      [
        "Ġro",
        "om"
      ],
      [
        "l",
        "b"
      ],
      [
        "on",
        "a"
      ],
      [
        "Ġth",
        "ir"
      ],
      [
        "Ġt",
        "re"
      ],
      [
        "u",
        "enc"
      ],
      [
        "Ġre",
        "m"
      ],
      [
        "Ġprofess",
        "or"
      ],
      [
        "Ġfr",
        "ank"
      ],
      [
        "Ġeduc",
        "ation"
      ],
      [
        "Ġch",
        "ief"
      ],
      [
        "Ġwork",
        "ed"
      ],
      [
        "Ġassoci",
        "ated"
      ],
      [
        "Ġ196",
        "4"
      ],
      [
        "Ġw",
        "omen"
      ],
      [
        "Ġr",
        "ugby"
      ],
      [
        "er",
        "ing"
      ],
      [
        "us",
        "h"
      ],
      [
        "f",
        "r"
      ],
      [
        "lish",
        "ed"
      ],
      [
        "Ġgre",
        "en"
      ],
      [
        "Ġs",
        "ome"
      ],
      [
        "Ġo",
        "h"
      ],
      [
        "Ġj",
        "on"
      ],
      [
        "Ġ196",
        "6"
      ],
      [
        "Ġmon",
        "t"
      ],
      [
        "Ġj",
        "ourn"
      ],
      [
        "ho",
        "t"
      ],
      [
        "Ġapp",
        "oint"
      ],
      [
        "Ġpr",
        "og"
      ],
      [
        "ip",
        "p"
      ],
      [
        "i",
        "j"
      ],
      [
        "Ġchic",
        "ago"
      ],
      [
        "la",
        "d"
      ],
      [
        "Ġbr",
        "anch"
      ],
      [
        "i",
        "y"
      ],
      [
        "Ġm",
        "ac"
      ],
      [
        "Ġdebut",
        "year"
      ],
      [
        "ber",
        "g"
      ],
      [
        "Ġvir",
        "gin"
      ],
      [
        "l",
        "ive"
      ],
      [
        "Ġpar",
        "l"
      ],
      [
        "Ġgre",
        "at"
      ],
      [
        "Ġ196",
        "2"
      ],
      [
        "ĠCrown",
        "e"
      ],
      [
        "Ġis",
        "land"
      ],
      [
        "av",
        "ing"
      ],
      [
        "ood",
        "le"
      ],
      [
        "Ġs",
        "ant"
      ],
      [
        "ig",
        "an"
      ],
      [
        "r",
        "ove"
      ],
      [
        "iam",
        "ent"
      ],
      [
        "Ġus",
        "a"
      ],
      [
        "in",
        "ts"
      ],
      [
        "Ġl",
        "ong"
      ],
      [
        "Ġsm",
        "ith"
      ],
      [
        "ak",
        "er"
      ],
      [
        "Ġ196",
        "5"
      ],
      [
        "Ġ196",
        "3"
      ],
      [
        "Ġc",
        "la"
      ],
      [
        "Ġtr",
        "ans"
      ],
      [
        "ĠO",
        "live"
      ],
      [
        "ĠG",
        "rove"
      ],
      [
        "Ġt",
        "en"
      ],
      [
        "Ġad",
        "m"
      ],
      [
        "ĠS",
        "trada"
      ],
      [
        "Ġrepubl",
        "ican"
      ],
      [
        "Ġparl",
        "iament"
      ],
      [
        "Ġr",
        "a"
      ],
      [
        "Ġm",
        "al"
      ],
      [
        "em",
        "ent"
      ],
      [
        "ĠN",
        "oodle"
      ],
      [
        "ippe",
        "e"
      ],
      [
        "t",
        "in"
      ],
      [
        "ĠY",
        "ippee"
      ],
      [
        "Ġc",
        "e"
      ],
      [
        "Ġfranc",
        "is"
      ],
      [
        "Ġ18",
        "4"
      ],
      [
        "w",
        "ork"
      ],
      [
        "Ġange",
        "les"
      ],
      [
        "ĠT",
        "wo"
      ],
      [
        "ĠT",
        "wenty"
      ],
      [
        "re",
        "t"
      ],
      [
        "Ġk",
        "ar"
      ],
      [
        "Ġmil",
        "it"
      ],
      [
        "at",
        "ives"
      ],
      [
        "Ġv",
        "al"
      ],
      [
        "d",
        "om"
      ],
      [
        "Ġbu",
        "ild"
      ],
      [
        "val",
        "ue"
      ],
      [
        "Ġdiv",
        "ision"
      ],
      [
        "act",
        "s"
      ],
      [
        "ire",
        "land"
      ],
      [
        "Ġpet",
        "er"
      ],
      [
        "Ġcompet",
        "ed"
      ],
      [
        "Ġ195",
        "0"
      ],
      [
        "Ġn",
        "ow"
      ],
      [
        "Ġed",
        "ward"
      ],
      [
        "al",
        "and"
      ],
      [
        "Ġl",
        "ight"
      ],
      [
        "Ġret",
        "urn"
      ],
      [
        "Ġassist",
        "ant"
      ],
      [
        "Ġw",
        "alk"
      ],
      [
        "Ġmo",
        "d"
      ],
      [
        "Ġm",
        "ill"
      ],
      [
        "s",
        "p"
      ],
      [
        "Ġg",
        "old"
      ],
      [
        "im",
        "b"
      ],
      [
        "Ġfoll",
        "owing"
      ],
      [
        "Ġc",
        "le"
      ],
      [
        "Ġin",
        "stitut"
      ],
      [
        "Ġh",
        "al"
      ],
      [
        "el",
        "f"
      ],
      [
        "iv",
        "ing"
      ],
      [
        "Ġre",
        "v"
      ],
      [
        "Ġr",
        "ound"
      ],
      [
        "Ġal",
        "ong"
      ],
      [
        "st",
        "e"
      ],
      [
        "ĠO",
        "ne"
      ],
      [
        "Ġit",
        "aly"
      ],
      [
        "Ġsup",
        "er"
      ],
      [
        "lv",
        "ania"
      ],
      [
        "Ġm",
        "i"
      ],
      [
        "Ġy",
        "ou"
      ],
      [
        "y",
        "er"
      ],
      [
        "am",
        "er"
      ],
      [
        "Ġyoun",
        "g"
      ],
      [
        "Ġbro",
        "ther"
      ],
      [
        "ĠAl",
        "l"
      ],
      [
        "Ġr",
        "ac"
      ],
      [
        "Ġrepresent",
        "ed"
      ],
      [
        "n",
        "y"
      ],
      [
        "il",
        "ia"
      ],
      [
        "and",
        "s"
      ],
      [
        "Ġal",
        "le"
      ],
      [
        "Ġath",
        "let"
      ],
      [
        "sy",
        "lvania"
      ],
      [
        "n",
        "ed"
      ],
      [
        "Ġstat",
        "label"
      ],
      [
        "Ġw",
        "rit"
      ],
      [
        "r",
        "al"
      ],
      [
        "Ġar",
        "g"
      ],
      [
        "Ġor",
        "gan"
      ],
      [
        "Ġstat",
        "value"
      ],
      [
        "Ġs",
        "ide"
      ],
      [
        "Ġs",
        "ix"
      ],
      [
        "ot",
        "a"
      ],
      [
        "Ġ194",
        "6"
      ],
      [
        "Ġfl",
        "or"
      ],
      [
        "Ġseason",
        "s"
      ],
      [
        "ĠC",
        "otto"
      ],
      [
        "Ġte",
        "ch"
      ],
      [
        "Ġcl",
        "oud"
      ],
      [
        "ain",
        "ed"
      ],
      [
        "Ġ195",
        "8"
      ],
      [
        "Ġj",
        "r"
      ],
      [
        "Ġjose",
        "ph"
      ],
      [
        "ol",
        "ic"
      ],
      [
        "Ġpenn",
        "sylvania"
      ],
      [
        "Ġj",
        "im"
      ],
      [
        "Ġ195",
        "6"
      ],
      [
        "Ġbra",
        "zil"
      ],
      [
        "w",
        "in"
      ],
      [
        "iz",
        "zi"
      ],
      [
        "Ġappe",
        "ared"
      ],
      [
        "Ġking",
        "dom"
      ],
      [
        "l",
        "l"
      ],
      [
        "Ġv",
        "an"
      ],
      [
        "b",
        "in"
      ],
      [
        "op",
        "le"
      ],
      [
        "Ġfilm",
        "s"
      ],
      [
        "Ġ195",
        "2"
      ],
      [
        "i",
        "ent"
      ],
      [
        "Ġh",
        "ill"
      ],
      [
        "ild",
        "wood"
      ],
      [
        "n",
        "am"
      ],
      [
        "Ġ",
        "ice"
      ],
      [
        "Ġpre",
        "v"
      ],
      [
        "Ġmatch",
        "es"
      ],
      [
        "Z",
        "izzi"
      ],
      [
        "Ġl",
        "b"
      ],
      [
        "Ġl",
        "u"
      ],
      [
        "Ġv",
        "en"
      ],
      [
        "Ġdebut",
        "team"
      ],
      [
        "o",
        "red"
      ],
      [
        "Ġl",
        "ist"
      ],
      [
        "Ġze",
        "aland"
      ],
      [
        "an",
        "i"
      ],
      [
        "Ġm",
        "os"
      ],
      [
        "Ġlead",
        "er"
      ],
      [
        "d",
        "ay"
      ],
      [
        "s",
        "ch"
      ],
      [
        "Ġv",
        "ar"
      ],
      [
        "us",
        "e"
      ],
      [
        "Ġoh",
        "io"
      ],
      [
        "Ġtra",
        "ck"
      ],
      [
        "r",
        "is"
      ],
      [
        "ie",
        "w"
      ],
      [
        "d",
        "en"
      ],
      [
        "g",
        "y"
      ],
      [
        "Ġm",
        "ur"
      ],
      [
        "it",
        "or"
      ],
      [
        "Ġt",
        "ur"
      ],
      [
        "Ġjo",
        "ined"
      ],
      [
        "af",
        "fe"
      ],
      [
        "h",
        "ar"
      ],
      [
        "Ġm",
        "y"
      ],
      [
        "ard",
        "s"
      ],
      [
        "Ġmo",
        "ther"
      ],
      [
        "Ġj",
        "ud"
      ],
      [
        "Ġ196",
        "1"
      ],
      [
        "Ã¡",
        "n"
      ],
      [
        "Ġroy",
        "al"
      ],
      [
        "b",
        "le"
      ],
      [
        "Ġmar",
        "k"
      ],
      [
        "Ġr",
        "am"
      ],
      [
        "Ġr",
        "id"
      ],
      [
        "in",
        "es"
      ],
      [
        "Ġcol",
        "umn"
      ],
      [
        "Ġ194",
        "8"
      ],
      [
        "Ġo",
        "ld"
      ],
      [
        "Ġst",
        "ev"
      ],
      [
        "Ġappear",
        "ances"
      ],
      [
        "Ġvirgin",
        "ia"
      ],
      [
        "o",
        "k"
      ],
      [
        "Ġim",
        "ages"
      ],
      [
        "Ġp",
        "ast"
      ],
      [
        "ian",
        "a"
      ],
      [
        "Ġgr",
        "adu"
      ],
      [
        "Å",
        "¡"
      ],
      [
        "Ġ195",
        "7"
      ],
      [
        "Ġd",
        "own"
      ],
      [
        "Ġ195",
        "5"
      ],
      [
        "al",
        "ly"
      ],
      [
        "sk",
        "i"
      ],
      [
        "is",
        "l"
      ],
      [
        "Ġ195",
        "9"
      ],
      [
        "Ġ",
        "Loch"
      ],
      [
        "Ġmilit",
        "ary"
      ],
      [
        "Ġp",
        "an"
      ],
      [
        "ast",
        "er"
      ],
      [
        "end",
        "ed"
      ],
      [
        "Ġcour",
        "t"
      ],
      [
        "i",
        "as"
      ],
      [
        "2",
        "1"
      ],
      [
        "Ġt",
        "er"
      ],
      [
        "h",
        "l"
      ],
      [
        "ear",
        "ch"
      ],
      [
        "et",
        "s"
      ],
      [
        "Ġassoci",
        "ation"
      ],
      [
        "Ġk",
        "ore"
      ],
      [
        "ar",
        "ch"
      ],
      [
        "al",
        "ace"
      ],
      [
        "Ġ195",
        "4"
      ],
      [
        "Ġcar",
        "l"
      ],
      [
        "s",
        "inger"
      ],
      [
        "Ġsh",
        "oo"
      ],
      [
        "Ġsh",
        "ort"
      ],
      [
        "Ġappoint",
        "ed"
      ],
      [
        "Ġelect",
        "ion"
      ],
      [
        "Ġh",
        "all"
      ],
      [
        "Ġm",
        "u"
      ],
      [
        "ou",
        "l"
      ],
      [
        "Ġro",
        "ad"
      ],
      [
        "Ġm",
        "ain"
      ],
      [
        "Ġkid",
        "s"
      ],
      [
        "Ġb",
        "ishop"
      ],
      [
        "an",
        "o"
      ],
      [
        "Ġsc",
        "ot"
      ],
      [
        "Ġh",
        "old"
      ],
      [
        "Ġde",
        "vel"
      ],
      [
        "Ġk",
        "e"
      ],
      [
        "b",
        "les"
      ],
      [
        "Ġdevel",
        "op"
      ],
      [
        "ad",
        "o"
      ],
      [
        "Ġ18",
        "3"
      ],
      [
        "Ġpr",
        "ince"
      ],
      [
        "Ġmar",
        "ried"
      ],
      [
        "Ġop",
        "en"
      ],
      [
        "Ġcath",
        "olic"
      ],
      [
        "h",
        "anded"
      ],
      [
        "Ġimages",
        "ize"
      ],
      [
        "Ġad",
        "d"
      ],
      [
        "Ġcoun",
        "c"
      ],
      [
        "ids",
        "ummer"
      ],
      [
        "s",
        "en"
      ],
      [
        "Ġw",
        "r"
      ],
      [
        "Ġsu",
        "ch"
      ],
      [
        "Ġmoder",
        "ately"
      ],
      [
        "Ġpo",
        "st"
      ],
      [
        "Ġb",
        "all"
      ],
      [
        "Ġ",
        "ireland"
      ],
      [
        "ĠR",
        "iverside"
      ],
      [
        "own",
        "s"
      ],
      [
        "Ġ195",
        "1"
      ],
      [
        "Ġc",
        "y"
      ],
      [
        "Ġ194",
        "5"
      ],
      [
        "Ġad",
        "v"
      ],
      [
        "Ġte",
        "ach"
      ],
      [
        "Ġacadem",
        "y"
      ],
      [
        "Ġoffic",
        "er"
      ],
      [
        "uis",
        "ine"
      ],
      [
        "Ġm",
        "cc"
      ],
      [
        "Ġ194",
        "7"
      ],
      [
        "Ġchrist",
        "ian"
      ],
      [
        "sta",
        "b"
      ],
      [
        "Ġsign",
        "ed"
      ],
      [
        "Ġp",
        "ass"
      ],
      [
        "Ġbe",
        "gan"
      ],
      [
        "Ġgeor",
        "g"
      ],
      [
        "Ġte",
        "st"
      ],
      [
        "Ġbatt",
        "ing"
      ],
      [
        "Ġm",
        "ad"
      ],
      [
        "Ġr",
        "iver"
      ],
      [
        "Ġmov",
        "ed"
      ],
      [
        "Ġd",
        "ra"
      ],
      [
        "ar",
        "m"
      ],
      [
        "aul",
        "ts"
      ],
      [
        "Ġl",
        "ife"
      ],
      [
        "Ġ195",
        "3"
      ],
      [
        "p",
        "lay"
      ],
      [
        "Ġa",
        "v"
      ],
      [
        "ur",
        "al"
      ],
      [
        "Ġpre",
        "m"
      ],
      [
        "'",
        "s"
      ],
      [
        "r",
        "ick"
      ],
      [
        "ĠV",
        "aults"
      ],
      [
        "il",
        "la"
      ],
      [
        "ut",
        "y"
      ],
      [
        "af",
        "f"
      ],
      [
        "we",
        "ight"
      ],
      [
        "Ġeurope",
        "an"
      ],
      [
        "ĠS",
        "ic"
      ],
      [
        "Ġw",
        "ater"
      ],
      [
        "ĠSic",
        "ilia"
      ],
      [
        "Ġb",
        "ay"
      ],
      [
        "Ġdes",
        "ign"
      ],
      [
        "Ġcarol",
        "ina"
      ],
      [
        "x",
        "t"
      ],
      [
        "Ġwork",
        "s"
      ],
      [
        "et",
        "ts"
      ],
      [
        "Ġhist",
        "ory"
      ],
      [
        "ee",
        "per"
      ],
      [
        "h",
        "t"
      ],
      [
        "Ġv",
        "ol"
      ],
      [
        "p",
        "s"
      ],
      [
        "re",
        "y"
      ],
      [
        "Ġt",
        "enn"
      ],
      [
        "m",
        "on"
      ],
      [
        "n",
        "d"
      ],
      [
        "Ġrad",
        "io"
      ],
      [
        "Ġit",
        "alian"
      ],
      [
        "g",
        "ar"
      ],
      [
        "Ġpr",
        "im"
      ],
      [
        "Ġthir",
        "d"
      ],
      [
        "al",
        "a"
      ],
      [
        "Ġar",
        "m"
      ],
      [
        "ans",
        "as"
      ],
      [
        "Ġleg",
        "isl"
      ],
      [
        "Ġflor",
        "ida"
      ],
      [
        "m",
        "ond"
      ],
      [
        "in",
        "k"
      ],
      [
        "Ġover",
        "all"
      ],
      [
        "Ġtim",
        "es"
      ],
      [
        "Ġrepubl",
        "ic"
      ],
      [
        "o",
        "b"
      ],
      [
        "ie",
        "v"
      ],
      [
        "Ġrating",
        "s"
      ],
      [
        "Ġ18",
        "0"
      ],
      [
        "Ġeng",
        "ine"
      ],
      [
        "Ġh",
        "or"
      ],
      [
        "Ġ194",
        "0"
      ],
      [
        "Ġc",
        "at"
      ],
      [
        "ri",
        "a"
      ],
      [
        "Ġv",
        "is"
      ],
      [
        "us",
        "etts"
      ],
      [
        "ach",
        "usetts"
      ],
      [
        "Ġmass",
        "achusetts"
      ],
      [
        "Ġalle",
        "gian"
      ],
      [
        "Ġg",
        "ar"
      ],
      [
        "Ġallegian",
        "ce"
      ],
      [
        "Ġm",
        "at"
      ],
      [
        "la",
        "re"
      ],
      [
        "emb",
        "ly"
      ],
      [
        "Ġprovid",
        "es"
      ],
      [
        "iv",
        "al"
      ],
      [
        "Ġe",
        "ver"
      ],
      [
        "ov",
        "er"
      ],
      [
        "ers",
        "h"
      ],
      [
        "Ġfinal",
        "year"
      ],
      [
        "Ġe",
        "stab"
      ],
      [
        "oc",
        "ated"
      ],
      [
        "Ġon",
        "tar"
      ],
      [
        "res",
        "ult"
      ],
      [
        "Ġnot",
        "able"
      ],
      [
        "Ġgovern",
        "ment"
      ],
      [
        "Ġontar",
        "io"
      ],
      [
        "Ġw",
        "ould"
      ],
      [
        "Ġli",
        "ber"
      ],
      [
        "t",
        "y"
      ],
      [
        "Ġcon",
        "g"
      ],
      [
        "Ġtech",
        "n"
      ],
      [
        "Ġwin",
        "d"
      ],
      [
        "ĠM",
        "ill"
      ],
      [
        "ec",
        "ut"
      ],
      [
        "Ġcomm",
        "un"
      ],
      [
        "as",
        "e"
      ],
      [
        "Ġsp",
        "ain"
      ],
      [
        "p",
        "l"
      ],
      [
        "ch",
        "est"
      ],
      [
        "d",
        "on"
      ],
      [
        "Ġc",
        "ard"
      ],
      [
        "Ġf",
        "ed"
      ],
      [
        "Ġres",
        "earch"
      ],
      [
        "Ġbath",
        "room"
      ],
      [
        "Ġla",
        "ke"
      ],
      [
        "Ġspe",
        "cial"
      ],
      [
        "Ġhigh",
        "ly"
      ],
      [
        "d",
        "y"
      ],
      [
        "Ġg",
        "ood"
      ],
      [
        "Ġat",
        "l"
      ],
      [
        "Ġf",
        "tin"
      ],
      [
        "Ġde",
        "t"
      ],
      [
        "Ġass",
        "embly"
      ],
      [
        "d",
        "le"
      ],
      [
        "r",
        "ing"
      ],
      [
        "Ġj",
        "os"
      ],
      [
        "b",
        "and"
      ],
      [
        "Ġ",
        "iv"
      ],
      [
        "Ġcomp",
        "any"
      ],
      [
        "Ġmount",
        "ain"
      ],
      [
        "Ġpe",
        "ople"
      ],
      [
        "r",
        "ound"
      ],
      [
        "Ġn",
        "t"
      ],
      [
        "Ġpolit",
        "ical"
      ],
      [
        "1",
        "8"
      ],
      [
        "e",
        "ver"
      ],
      [
        "Ġnov",
        "el"
      ],
      [
        "Ġwa",
        "les"
      ],
      [
        "Ġprev",
        "ious"
      ],
      [
        "Ġcounc",
        "il"
      ],
      [
        "o",
        "x"
      ],
      [
        "Ġ",
        "Å"
      ],
      [
        "Ġmich",
        "igan"
      ],
      [
        "Ġ",
        "q"
      ],
      [
        "Ġs",
        "it"
      ],
      [
        "Ġc",
        "iv"
      ],
      [
        "Ġbr",
        "on"
      ],
      [
        "ell",
        "ow"
      ],
      [
        "Ġhel",
        "d"
      ],
      [
        "Ġprofess",
        "ion"
      ],
      [
        "Ġhon",
        "or"
      ],
      [
        "ĠC",
        "ocum"
      ],
      [
        "ell",
        "s"
      ],
      [
        "Ġbo",
        "b"
      ],
      [
        "Ġsec",
        "ret"
      ],
      [
        "Ġbo",
        "ard"
      ],
      [
        "19",
        "9"
      ],
      [
        "u",
        "red"
      ],
      [
        "y",
        "an"
      ],
      [
        "Ġc",
        "atch"
      ],
      [
        "Ġo",
        "s"
      ],
      [
        "iz",
        "ed"
      ],
      [
        "Ġ19",
        "20"
      ],
      [
        "ĠR",
        "anch"
      ],
      [
        "Ġbl",
        "ue"
      ],
      [
        "Ġ194",
        "9"
      ],
      [
        "t",
        "ing"
      ],
      [
        "t",
        "ime"
      ],
      [
        "th",
        "ers"
      ],
      [
        "Ġs",
        "ar"
      ],
      [
        "g",
        "en"
      ],
      [
        "Ġyears",
        "active"
      ],
      [
        "Ġsen",
        "ior"
      ],
      [
        "c",
        "y"
      ],
      [
        "ad",
        "el"
      ],
      [
        "Ġf",
        "ly"
      ],
      [
        "Ġl",
        "ie"
      ],
      [
        "ol",
        "f"
      ],
      [
        "lect",
        "ed"
      ],
      [
        "i",
        "en"
      ],
      [
        "Ġk",
        "r"
      ],
      [
        "cl",
        "ass"
      ],
      [
        "Ġbatt",
        "les"
      ],
      [
        "ct",
        "ion"
      ],
      [
        "ĠH",
        "all"
      ],
      [
        "Ġda",
        "ugh"
      ],
      [
        "it",
        "er"
      ],
      [
        "it",
        "al"
      ],
      [
        "la",
        "h"
      ],
      [
        "Ġw",
        "ent"
      ],
      [
        "al",
        "th"
      ],
      [
        "ĠC",
        "lare"
      ],
      [
        "Ġph",
        "ys"
      ],
      [
        "in",
        "n"
      ],
      [
        "Ġpitch",
        "er"
      ],
      [
        "Ġp",
        "erson"
      ],
      [
        "Ġm",
        "ot"
      ],
      [
        "Ġin",
        "fl"
      ],
      [
        "Ġamer",
        "ica"
      ],
      [
        "Ġre",
        "st"
      ],
      [
        "Ġinstitut",
        "e"
      ],
      [
        "ce",
        "l"
      ],
      [
        "Ġw",
        "ood"
      ],
      [
        "Ġfinal",
        "team"
      ],
      [
        "Ġc",
        "ap"
      ],
      [
        "Ġw",
        "ay"
      ],
      [
        "t",
        "a"
      ],
      [
        "Ġt",
        "ook"
      ],
      [
        "Ġjourn",
        "alist"
      ],
      [
        "Ġsci",
        "ence"
      ],
      [
        "s",
        "u"
      ],
      [
        "Ġne",
        "xt"
      ],
      [
        "Ġdis",
        "c"
      ],
      [
        "c",
        "ow"
      ],
      [
        "Ġs",
        "aint"
      ],
      [
        "Ġb",
        "a"
      ],
      [
        "Ġt",
        "urn"
      ],
      [
        "ers",
        "ey"
      ],
      [
        "Ġsoc",
        "ial"
      ],
      [
        "Ġstri",
        "ker"
      ],
      [
        "Ġle",
        "e"
      ],
      [
        "ĠP",
        "alace"
      ],
      [
        "Ã³",
        "n"
      ],
      [
        "Ġe",
        "le"
      ],
      [
        "Ġo",
        "per"
      ],
      [
        "Ġbo",
        "at"
      ],
      [
        "Ġgo",
        "alk"
      ],
      [
        "Ġbo",
        "ston"
      ],
      [
        "e",
        "z"
      ],
      [
        "un",
        "k"
      ],
      [
        "Ġstart",
        "ed"
      ],
      [
        "Ġp",
        "aint"
      ],
      [
        "l",
        "owns"
      ],
      [
        "Ġ193",
        "0"
      ],
      [
        "Ġrepresent",
        "atives"
      ],
      [
        "c",
        "ar"
      ],
      [
        "ent",
        "ly"
      ],
      [
        "p",
        "osition"
      ],
      [
        "Ã",
        "¤"
      ],
      [
        "Ġbe",
        "ach"
      ],
      [
        "h",
        "an"
      ],
      [
        "L",
        "ocated"
      ],
      [
        "on",
        "to"
      ],
      [
        "Ġst",
        "re"
      ],
      [
        "Ġpl",
        "ate"
      ],
      [
        "Ġdo",
        "ctor"
      ],
      [
        "ent",
        "s"
      ],
      [
        "Ġear",
        "ned"
      ],
      [
        "Ġmos",
        "cow"
      ],
      [
        "Ġj",
        "ersey"
      ],
      [
        "ce",
        "ed"
      ],
      [
        "et",
        "y"
      ],
      [
        "Ġh",
        "and"
      ],
      [
        "Ġn",
        "ative"
      ],
      [
        "ut",
        "ch"
      ],
      [
        "con",
        "om"
      ],
      [
        "Ġcomp",
        "os"
      ],
      [
        "Ġpo",
        "et"
      ],
      [
        "Ġsing",
        "le"
      ],
      [
        "c",
        "r"
      ],
      [
        "ab",
        "e"
      ],
      [
        "Ġcol",
        "or"
      ],
      [
        "Ġsport",
        "s"
      ],
      [
        "adel",
        "ph"
      ],
      [
        "Ġmex",
        "ico"
      ],
      [
        "o",
        "y"
      ],
      [
        "Ġl",
        "at"
      ],
      [
        "land",
        "s"
      ],
      [
        "Ġbuild",
        "ing"
      ],
      [
        "Ġh",
        "aving"
      ],
      [
        "Ġab",
        "out"
      ],
      [
        "Ġthr",
        "ows"
      ],
      [
        "ĠAr",
        "omi"
      ],
      [
        "om",
        "b"
      ],
      [
        "Ġl",
        "y"
      ],
      [
        "Ġe",
        "p"
      ],
      [
        "Ġst",
        "an"
      ],
      [
        "Ġmay",
        "or"
      ],
      [
        "Ġfore",
        "st"
      ],
      [
        "Ġj",
        "ul"
      ],
      [
        "Ġphil",
        "adelph"
      ],
      [
        "00",
        "0"
      ],
      [
        "Ġp",
        "en"
      ],
      [
        "Ġp",
        "al"
      ],
      [
        "Ġst",
        "age"
      ],
      [
        "Ġal",
        "bert"
      ],
      [
        "Ġgr",
        "ass"
      ],
      [
        "Ġ194",
        "3"
      ],
      [
        "Ġc",
        "it"
      ],
      [
        "Ġfe",
        "at"
      ],
      [
        "Ġservice",
        "years"
      ],
      [
        "Ġcong",
        "ress"
      ],
      [
        "Ġciv",
        "il"
      ],
      [
        "Ġphiladelph",
        "ia"
      ],
      [
        "oun",
        "der"
      ],
      [
        "Ġmod",
        "el"
      ],
      [
        "Ġd",
        "ate"
      ],
      [
        "Ġcont",
        "in"
      ],
      [
        "ino",
        "is"
      ],
      [
        "r",
        "d"
      ],
      [
        "ri",
        "e"
      ],
      [
        "Ġin",
        "c"
      ],
      [
        "Ġtor",
        "onto"
      ],
      [
        "es",
        "h"
      ],
      [
        "Ġdebut",
        "date"
      ],
      [
        "Ġg",
        "ree"
      ],
      [
        "Ġe",
        "conom"
      ],
      [
        "Ġwest",
        "ern"
      ],
      [
        "ep",
        "end"
      ],
      [
        "ov",
        "ers"
      ],
      [
        "Ġd",
        "er"
      ],
      [
        "art",
        "er"
      ],
      [
        "Ġf",
        "er"
      ],
      [
        "Ġh",
        "um"
      ],
      [
        "Ġ194",
        "2"
      ],
      [
        "Ġb",
        "ed"
      ],
      [
        "ĠW",
        "ildwood"
      ],
      [
        "Ġill",
        "inois"
      ],
      [
        "F",
        "itzbillies"
      ],
      [
        "m",
        "ark"
      ],
      [
        "Ġf",
        "if"
      ],
      [
        "ad",
        "or"
      ],
      [
        "ĠThe",
        "y"
      ],
      [
        "Ġvoc",
        "als"
      ],
      [
        "Ġgoalk",
        "eeper"
      ],
      [
        "d",
        "r"
      ],
      [
        "Ġ",
        "Ð"
      ],
      [
        "Ġarg",
        "ent"
      ],
      [
        "Ġw",
        "al"
      ],
      [
        "om",
        "ot"
      ],
      [
        "Ġind",
        "epend"
      ],
      [
        "Ġmart",
        "in"
      ],
      [
        "u",
        "z"
      ],
      [
        "Ġf",
        "ire"
      ],
      [
        "Ġp",
        "iz"
      ],
      [
        "Ġwin",
        "ning"
      ],
      [
        "Ġpa",
        "rent"
      ],
      [
        "Ġsm",
        "all"
      ],
      [
        "Ġt",
        "w"
      ],
      [
        "ak",
        "ers"
      ],
      [
        "Ġ10",
        "0"
      ],
      [
        "ol",
        "k"
      ],
      [
        "Ġcent",
        "ral"
      ],
      [
        "Ġs",
        "uc"
      ],
      [
        "Ġan",
        "ton"
      ],
      [
        "om",
        "a"
      ],
      [
        "Ġh",
        "ig"
      ],
      [
        "Ġ",
        "Zizzi"
      ],
      [
        "re",
        "g"
      ],
      [
        "Ġar",
        "r"
      ],
      [
        "Ġ194",
        "4"
      ],
      [
        "u",
        "res"
      ],
      [
        "Ġh",
        "ung"
      ],
      [
        "Ġw",
        "icket"
      ],
      [
        "Ġaf",
        "f"
      ],
      [
        "Ġcricket",
        "er"
      ],
      [
        "Ġp",
        "la"
      ],
      [
        "Ġemp",
        "ire"
      ],
      [
        "Ġpart",
        "ic"
      ],
      [
        "bo",
        "ard"
      ],
      [
        "Ġnav",
        "y"
      ],
      [
        "Ġw",
        "el"
      ],
      [
        "Ġfe",
        "st"
      ],
      [
        "Ġpo",
        "ints"
      ],
      [
        "Ġs",
        "ir"
      ],
      [
        "Ġcol",
        "umb"
      ],
      [
        "Ġdep",
        "art"
      ],
      [
        "Ġlar",
        "ge"
      ],
      [
        "Ġsuc",
        "ceed"
      ],
      [
        "Ġb",
        "ig"
      ],
      [
        "Ġdan",
        "iel"
      ],
      [
        "Ġport",
        "ra"
      ],
      [
        "Ġmid",
        "dle"
      ],
      [
        "r",
        "ich"
      ],
      [
        "Ġs",
        "our"
      ],
      [
        "Ġt",
        "v"
      ],
      [
        "lect",
        "ion"
      ],
      [
        "g",
        "ers"
      ],
      [
        "Ġsw",
        "im"
      ],
      [
        "Ġscot",
        "land"
      ],
      [
        "c",
        "ent"
      ],
      [
        "o",
        "ther"
      ],
      [
        "ed",
        "y"
      ],
      [
        "Ġca",
        "st"
      ],
      [
        "Ġ193",
        "8"
      ],
      [
        "le",
        "te"
      ],
      [
        "Ġan",
        "t"
      ],
      [
        "Ġb",
        "or"
      ],
      [
        "Ġb",
        "al"
      ],
      [
        "Ġre",
        "al"
      ],
      [
        "at",
        "o"
      ],
      [
        "he",
        "st"
      ],
      [
        "az",
        "z"
      ],
      [
        "b",
        "ec"
      ],
      [
        "y",
        "e"
      ],
      [
        "Ġs",
        "ov"
      ],
      [
        "Ġd",
        "id"
      ],
      [
        "Ġre",
        "n"
      ],
      [
        "Ġcon",
        "stit"
      ],
      [
        "uct",
        "ion"
      ],
      [
        "Ġf",
        "a"
      ],
      [
        "Ġ193",
        "6"
      ],
      [
        "Ġex",
        "ecut"
      ],
      [
        "at",
        "ic"
      ],
      [
        "Ġst",
        "yle"
      ],
      [
        "Ġb",
        "ul"
      ],
      [
        "Ġl",
        "ate"
      ],
      [
        "Ġfor",
        "ce"
      ],
      [
        "Ġv",
        "o"
      ],
      [
        "d",
        "a"
      ],
      [
        "m",
        "ad"
      ],
      [
        "Ġfor",
        "m"
      ],
      [
        "Ġse",
        "a"
      ],
      [
        "Ġex",
        "per"
      ],
      [
        "Ġhar",
        "v"
      ],
      [
        "v",
        "a"
      ],
      [
        "Ġj",
        "apan"
      ],
      [
        "Ġexp",
        "ensive"
      ],
      [
        "p",
        "or"
      ],
      [
        "it",
        "a"
      ],
      [
        "Ġm",
        "ath"
      ],
      [
        "Ġr",
        "ang"
      ],
      [
        "Ġs",
        "qu"
      ],
      [
        "Ġk",
        "ey"
      ],
      [
        "Ġbo",
        "x"
      ],
      [
        "Ġ193",
        "3"
      ],
      [
        "Ġsecret",
        "ary"
      ],
      [
        "Ġw",
        "ife"
      ],
      [
        "Ġsil",
        "ver"
      ],
      [
        "Ġparent",
        "s"
      ],
      [
        "Ġc",
        "ame"
      ],
      [
        "Ġr",
        "os"
      ],
      [
        "Ġr",
        "ay"
      ],
      [
        "if",
        "f"
      ],
      [
        "Ġpiz",
        "za"
      ],
      [
        "Ġl",
        "ang"
      ],
      [
        "th",
        "ur"
      ],
      [
        "ct",
        "ed"
      ],
      [
        "1",
        "7"
      ],
      [
        "in",
        "i"
      ],
      [
        "Ġs",
        "n"
      ],
      [
        "Ġpub",
        "lished"
      ],
      [
        "len",
        "t"
      ],
      [
        "Ġsen",
        "ate"
      ],
      [
        "ir",
        "a"
      ],
      [
        "Ġpr",
        "inc"
      ],
      [
        "ov",
        "a"
      ],
      [
        "Ġfl",
        "ower"
      ],
      [
        "Ġam",
        "ong"
      ],
      [
        "jo",
        "hn"
      ],
      [
        "uenc",
        "y"
      ],
      [
        "Å",
        "Ĥ"
      ],
      [
        "am",
        "b"
      ],
      [
        "st",
        "ar"
      ],
      [
        "Ġbr",
        "ad"
      ],
      [
        "Ġf",
        "ight"
      ],
      [
        "m",
        "l"
      ],
      [
        "Ġ193",
        "5"
      ],
      [
        "Ġd",
        "ar"
      ],
      [
        "Ġe",
        "th"
      ],
      [
        "Ġar",
        "ound"
      ],
      [
        "man",
        "n"
      ],
      [
        "Ġsp",
        "ent"
      ],
      [
        "Ġconstit",
        "uency"
      ],
      [
        "Ġhe",
        "art"
      ],
      [
        "ri",
        "but"
      ],
      [
        "Ġv",
        "i"
      ],
      [
        "ĠM",
        "idsummer"
      ],
      [
        "j",
        "a"
      ],
      [
        "ov",
        "ich"
      ],
      [
        "ter",
        "n"
      ],
      [
        "Ġ193",
        "7"
      ],
      [
        "Ġh",
        "a"
      ],
      [
        "ian",
        "o"
      ],
      [
        "Ġmet",
        "al"
      ],
      [
        "Ġchair",
        "man"
      ],
      [
        "Ġdef",
        "e"
      ],
      [
        "Ġliber",
        "al"
      ],
      [
        "o",
        "or"
      ],
      [
        "et",
        "te"
      ],
      [
        "Ġear",
        "l"
      ],
      [
        "Ġprog",
        "ram"
      ],
      [
        "chest",
        "er"
      ],
      [
        "2",
        "3"
      ],
      [
        "m",
        "embers"
      ],
      [
        "Ġoffic",
        "ial"
      ],
      [
        "Ġsoc",
        "cer"
      ],
      [
        "bour",
        "ne"
      ],
      [
        "Ġan",
        "th"
      ],
      [
        "Ġle",
        "d"
      ],
      [
        "Ġcomm",
        "itt"
      ],
      [
        "Ġhow",
        "ever"
      ],
      [
        "Ġnt",
        "update"
      ],
      [
        "Ġs",
        "old"
      ],
      [
        "am",
        "o"
      ],
      [
        "Ġ",
        "D"
      ],
      [
        "Ã",
        "±"
      ],
      [
        "Ġc",
        "em"
      ],
      [
        "Ġdep",
        "uty"
      ],
      [
        "Ġre",
        "ach"
      ],
      [
        "Ġswed",
        "en"
      ],
      [
        "Ġh",
        "it"
      ],
      [
        "Ġg",
        "ard"
      ],
      [
        "Ġbr",
        "idge"
      ],
      [
        "Ġ",
        "ic"
      ],
      [
        "Ġl",
        "and"
      ],
      [
        "ra",
        "el"
      ],
      [
        "Ġex",
        "t"
      ],
      [
        "Ġvictor",
        "ia"
      ],
      [
        "Ġ193",
        "9"
      ],
      [
        "Ġpar",
        "is"
      ],
      [
        "aj",
        "a"
      ],
      [
        "f",
        "o"
      ],
      [
        "ir",
        "o"
      ],
      [
        "c",
        "i"
      ],
      [
        "Ġd",
        "yn"
      ],
      [
        "Ġmin",
        "nes"
      ],
      [
        "Ġminnes",
        "ota"
      ],
      [
        "Ġs",
        "oci"
      ],
      [
        "Ġb",
        "ud"
      ],
      [
        "g",
        "l"
      ],
      [
        "Ġd",
        "i"
      ],
      [
        "Ġse",
        "ven"
      ],
      [
        "ict",
        "ion"
      ],
      [
        "Ġprevious",
        "ly"
      ],
      [
        "Ġad",
        "am"
      ],
      [
        "Ġgeorg",
        "ia"
      ],
      [
        "Ġne",
        "ther"
      ],
      [
        "Ġ194",
        "1"
      ],
      [
        "Ġpop",
        "ular"
      ],
      [
        "g",
        "u"
      ],
      [
        "ap",
        "p"
      ],
      [
        "Ġs",
        "ame"
      ],
      [
        "os",
        "p"
      ],
      [
        "Ġsc",
        "reen"
      ],
      [
        "Ġ15",
        "0"
      ],
      [
        "Ġreturn",
        "ed"
      ],
      [
        "Ġdaugh",
        "ter"
      ],
      [
        "k",
        "i"
      ],
      [
        "Ġk",
        "ansas"
      ],
      [
        "Ġfin",
        "ished"
      ],
      [
        "Ġsov",
        "iet"
      ],
      [
        "le",
        "ague"
      ],
      [
        "Ġh",
        "ost"
      ],
      [
        "Ġr",
        "ace"
      ],
      [
        "ĠT",
        "ree"
      ],
      [
        "ump",
        "ling"
      ],
      [
        "ĠD",
        "umpling"
      ],
      [
        "Ġle",
        "vel"
      ],
      [
        "Ġsc",
        "ored"
      ],
      [
        "iss",
        "ion"
      ],
      [
        "8",
        "0"
      ],
      [
        "Ġp",
        "ower"
      ],
      [
        "Ġab",
        "d"
      ],
      [
        "v",
        "in"
      ],
      [
        "Ã",
        "£"
      ],
      [
        "Ġb",
        "i"
      ],
      [
        "Ġand",
        "rew"
      ],
      [
        "Ġsong",
        "writer"
      ],
      [
        "Ġl",
        "ove"
      ],
      [
        "Ġsuccess",
        "ful"
      ],
      [
        "Ġb",
        "ass"
      ],
      [
        "em",
        "an"
      ],
      [
        "bur",
        "gh"
      ],
      [
        "Ġsour",
        "ce"
      ],
      [
        "Ġgu",
        "ard"
      ],
      [
        "Ġhig",
        "hest"
      ],
      [
        "Ġl",
        "ine"
      ],
      [
        "s",
        "r"
      ],
      [
        "en",
        "e"
      ],
      [
        "Ġn",
        "omin"
      ],
      [
        "Ġwork",
        "ing"
      ],
      [
        "Ġstar",
        "s"
      ],
      [
        "Ġfest",
        "ival"
      ],
      [
        "y",
        "a"
      ],
      [
        "in",
        "ist"
      ],
      [
        "Ġde",
        "g"
      ],
      [
        "ht",
        "ml"
      ],
      [
        "Ġnether",
        "lands"
      ],
      [
        "1",
        "0"
      ],
      [
        "in",
        "ing"
      ],
      [
        "an",
        "ish"
      ],
      [
        "Ġf",
        "ellow"
      ],
      [
        "Ġed",
        "itor"
      ],
      [
        "k",
        "n"
      ],
      [
        "Ġw",
        "oman"
      ],
      [
        "Ġv",
        "ice"
      ],
      [
        "Ġow",
        "n"
      ],
      [
        "abe",
        "th"
      ],
      [
        "Ġcem",
        "et"
      ],
      [
        "Ġa",
        "ch"
      ],
      [
        "Ġjun",
        "ior"
      ],
      [
        "Ġir",
        "ish"
      ],
      [
        "c",
        "u"
      ],
      [
        "Ġo",
        "b"
      ],
      [
        "ig",
        "er"
      ],
      [
        "Ġafr",
        "ica"
[...]
