{
  "version": "1.0",
  "truncation": null,
  "padding": null,
  "added_tokens": [
    {
      "id": 0,
      "content": "<pad>",
      "single_word": false,
      "lstrip": false,
      "rstrip": false,
      "normalized": false,
      "special": true
    },
    {
      "id": 1,
      "content": "<bos>",
      "single_word": false,
      "lstrip": false,
      "rstrip": false,
      "normalized": false,
      "special": true
    },
    {
      "id": 2,
      "content": "<eos>",
      "single_word": false,
      "lstrip": false,
      "rstrip": false,
      "normalized": false,
      "special": true
    },
    {
      "id": 3,
      "content": "<src>",
      "single_word": false,
      "lstrip": false,
      "rstrip": false,
      "normalized": false,
      "special": true
    },
    {
      "id": 4,
      "content": "<tgt>",
      "single_word": false,
      "lstrip": false,
      "rstrip": false,
      "normalized": false,
      "special": true
    }
  ],
  "normalizer": null,
  "pre_tokenizer": {
    "type": "ByteLevel",
    "add_prefix_space": false,
    "trim_offsets": true,
    "use_regex": true
  },
  "post_processor": {
    "type": "ByteLevel",
    "add_prefix_space": true,
    "trim_offsets": true,
    "use_regex": true
  },
  "decoder": {
    "type": "ByteLevel",
    "add_prefix_space": true,
    "trim_offsets": true,
    "use_regex": true
  },
  "model": {
    "type": "BPE",
    "dropout": null,
    "unk_token": "<pad>",
    "continuing_subword_prefix": null,
    "end_of_word_suffix": null,
    "fuse_unk": false,
    "byte_fallback": false,
    "ignore_merges": false,
    "vocab": {
      "<pad>": 0,
      "<bos>": 1,
      "<eos>": 2,
      "<src>": 3,
      "<tgt>": 4,
      "!": 5,
      "\"": 6,
      "&": 7,
      "'": 8,
      ",": 9,
      "-": 10,
      ".": 11,
      "/": 12,
      "0": 13,
      "1": 14,
      "2": 15,
      "3": 16,
      "4": 17,
      "5": 18,
      "6": 19,
      "9": 20,
      ":": 21,
      ";": 22,
      "=": 23,
      "?": 24,
      "A": 25,
      "B": 26,
      "C": 27,
      "D": 28,
      "E": 29,
      "F": 30,
      "G": 31,
      "H": 32,
      "I": 33,
      "J": 34,
      "K": 35,
      "L": 36,
      "M": 37,
      "N": 38,
      "O": 39,
      "P": 40,
      "Q": 41,
      "R": 42,
      "S": 43,
      "T": 44,
      "U": 45,
      "V": 46,
      "W": 47,
      "Y": 48,
      "Z": 49,
      "a": 50,
      "b": 51,
      "c": 52,
      "d": 53,
      "e": 54,
      "f": 55,
      "g": 56,
      "h": 57,
      "i": 58,
      "j": 59,
      "k": 60,
      "l": 61,
      "m": 62,
      "n": 63,
      "o": 64,
      "p": 65,
      "q": 66,
      "r": 67,
      "s": 68,
      "t": 69,
      "u": 70,
      "v": 71,
      "w": 72,
      "x": 73,
      "y": 74,
      "z": 75,
      "|": 76,
      "£": 77,
      "©": 78,
      "Â": 79,
      "Ã": 80,
      "Ċ": 81,
      "Ġ": 82,
      "Ġ=": 83,
      "Ġ;": 84,
      "an": 85,
      "er": 86,
      "at": 87,
      "Ġc": 88,
      "Ġf": 89,
      "ri": 90,
      "in": 91,
      "re": 92,
      "he": 93,
      "Ġa": 94,
      "st": 95,
      "Ġt": 96,
      "ce": 97,
      "en": 98,
      "Ġo": 99,
      "am": 100,
      "Ġp": 101,
      "ly": 102,
      "oo": 103,
      "ing": 104,
      "is": 105,
      "Ġ|": 106,
      "ood": 107,
      "Ġr": 108,
      "es": 109,
      "Ġs": 110,
      "ge": 111,
      "Ġfood": 112,
      "it": 113,
      "ar": 114,
      "The": 115,
      "Ġis": 116,
      "om": 117,
      "Ġn": 118,
      "on": 119,
      "Ġrat": 120,
      "Ġthe": 121,
      "Ġl": 122,
      "id": 123,
      "Ġof": 124,
      "rice": 125,
      "end": 126,
      "ver": 127,
      "Ġcu": 128,
      "Ġrating": 129,
      "Ġprice": 130,
      "ts": 131,
      "ame": 132,
      "riend": 133,
      "riendly": 134,
      "stom": 135,
      "Ġh": 136,
      "stomer": 137,
      "Ġcustomer": 138,
      "name": 139,
      "ĠThe": 140,
      "ĠC": 141,
      "ĠI": 142,
      "Ġe": 143,
      "ear": 144,
      "con": 145,
      "cep": 146,
      "concep": 147,
      "concepts": 148,
      "ange": 149,
      "ur": 150,
      "Ġw": 151,
      "Ġb": 152,
      "pe": 153,
      "Ġnear": 154,
      "ow": 155,
      "Ġan": 156,
      "ami": 157,
      "Ġfami": 158,
      "ed": 159,
      "Ġfamily": 160,
      "Ġare": 161,
      "Ġin": 162,
      "al": 163,
      "Ġm": 164,
      "Ġeat": 165,
      "Ġ5": 166,
      "ide": 167,
      "ent": 168,
      "Ġre": 169,
      "ype": 170,
      "Type": 171,
      "Ġco": 172,
      "ĠeatType": 173,
      "ho": 174,
      "Ġri": 175,
      "Ġarea": 176,
      "ut": 177,
      "side": 178,
      "verside": 179,
      "il": 180,
      "ff": 181,
      "sta": 182,
      "ee": 183,
      "Range": 184,
      "Ġriverside": 185,
      "ant": 186,
      "ĠpriceRange": 187,
      "Ġand": 188,
      "ĠB": 189,
      "Ġth": 190,
      "staur": 191,
      "Ġrestaur": 192,
      "Ġrestaurant": 193,
      "ĠIt": 194,
      "Ġout": 195,
      "Ġsho": 196,
      "gh": 197,
      "ch": 198,
      "ĠF": 199,
      "ffee": 200,
      "Ġcoffee": 201,
      "ian": 202,
      "Ġshop": 203,
      "ity": 204,
      "or": 205,
      "Friendly": 206,
      "ĠfamilyFriendly": 207,
      "ap": 208,
      "Ġcity": 209,
      "igh": 210,
      "Ġmo": 211,
      "oc": 212,
      "ra": 213,
      "ĠR": 214,
      "Â£": 215,
      "ou": 216,
      "Ġcent": 217,
      "Ġy": 218,
      "ĠÂ£": 219,
      "ese": 220,
      "Ġhigh": 221,
      "le": 222,
      "Ġcentre": 223,
      "as": 224,
      "ith": 225,
      "ve": 226,
      "Ġwith": 227,
      "Ġyes": 228,
      "nd": 229,
      "ated": 230,
      "Ġfriendly": 231,
      "ĠE": 232,
      "ot": 233,
      "ĠP": 234,
      "ren": 235,
      "ate": 236,
      "ol": 237,
      "ocated": 238,
      "ast": 239,
      "Ġg": 240,
      "Ġthan": 241,
      "Ġd": 242,
      "ub": 243,
      "20": 244,
      "li": 245,
      "age": 246,
      "Ġpub": 247,
      "Ġhas": 248,
      "um": 249,
      "Ġlocated": 250,
      "Ġon": 251,
      "Ġser": 252,
      "ers": 253,
      "der": 254,
      "ĠA": 255,
      "verage": 256,
      "ĠW": 257,
      "Ġaverage": 258,
      "ild": 259,
      "la": 260,
      "ĠH": 261,
      "ndian": 262,
      "ng": 263,
      "all": 264,
      "Ġlow": 265,
      "ĠIndian": 266,
      "Ġserv": 267,
      "alian": 268,
      "ice": 269,
      "ĠItalian": 270,
      "un": 271,
      "own": 272,
      "Ġrange": 273,
      "anese": 274,
      "apanese": 275,
      "Japanese": 276,
      "derate": 277,
      "Ġto": 278,
      "ish": 279,
      "Ġmoderate": 280,
      "ĠJapanese": 281,
      "Ġst": 282,
      "Ġche": 283,
      "rench": 284,
      "ĠFrench": 285,
      "oat": 286,
      "af": 287,
      "ĠG": 288,
      "Ã©": 289,
      "afÃ©": 290,
      "ĠCafÃ©": 291,
      "ĠS": 292,
      "Ġcheap": 293,
      "Ġat": 294,
      "ay": 295,
      "Ġch": 296,
      "lish": 297,
      "ess": 298,
      "el": 299,
      "ĠT": 300,
      "hin": 301,
      "Ġ3": 302,
      "ir": 303,
      "Ġserves": 304,
      "rid": 305,
      "Ġ1": 306,
      "nglish": 307,
      "ater": 308,
      "ĠEnglish": 309,
      "Ġno": 310,
      "Ġthat": 311,
      "ro": 312,
      "Ġless": 313,
      "ridge": 314,
      "hinese": 315,
      "ĠChinese": 316,
      "ĠBoat": 317,
      "ĠRice": 318,
      "se": 319,
      "ue": 320,
      "Ġby": 321,
      "ic": 322,
      "ĠFast": 323,
      "ss": 324,
      "rown": 325,
      "Ġk": 326,
      "old": 327,
      "and": 328,
      "man": 329,
      "amb": 330,
      "Ġchild": 331,
      "ĠCamb": 332,
      "ĠCambridge": 333,
      "Ġit": 334,
      "ain": 335,
      "Ġmore": 336,
      "her": 337,
      "Ġ.": 338,
      "Ġnot": 339,
      "et": 340,
      "30": 341,
      "aterman": 342,
      "ĠWaterman": 343,
      "oom": 344,
      "ort": 345,
      "Ġtra": 346,
      "Ġfor": 347,
      "ne": 348,
      "Ġkid": 349,
      "xp": 350,
      "25": 351,
      "ter": 352,
      "friendly": 353,
      "ak": 354,
      "ment": 355,
      "ry": 356,
      "ion": 357,
      "to": 358,
      "ea": 359,
      "olden": 360,
      "ĠGolden": 361,
      "ree": 362,
      "ll": 363,
      "lies": 364,
      "lue": 365,
      "ĠAr": 366,
      "Ġpla": 367,
      "ĠO": 368,
      "Ġcl": 369,
      "ĠTw": 370,
      "ĠM": 371,
      "ĠBar": 372,
      "ag": 373,
      "Ġpriced": 374,
      "ĠV": 375,
      "bil": 376,
      "itz": 377,
      "itzbil": 378,
      "itzbillies": 379,
      "Ġrated": 380,
      "hi": 381,
      "rest": 382,
      "ill": 383,
      "ct": 384,
      "Ġcall": 385,
      "ix": 386,
      "here": 387,
      "za": 388,
      "ad": 389,
      "Ġcalled": 390,
      "tra": 391,
      "iz": 392,
      "Ġoff": 393,
      "ress": 394,
      "agle": 395,
      "ul": 396,
      "ck": 397,
      "rowns": 398,
      "ĠEagle": 399,
      "Ġfast": 400,
      "land": 401,
      "iday": 402,
      "oliday": 403,
      "Ġfl": 404,
      "ms": 405,
      "get": 406,
      "urry": 407,
      "ĠCurry": 408,
      "liment": 409,
      "limentum": 410,
      "da": 411,
      "Ġsk": 412,
      "ive": 413,
      "ook": 414,
      "ĠIn": 415,
      "ĠBlue": 416,
      "xpress": 417,
      "ĠHoliday": 418,
      "ĠInn": 419,
      "ĠExpress": 420,
      "Ġpro": 421,
      "trada": 422,
      "ĠRou": 423,
      "ĠRouge": 424,
      "ĠPort": 425,
      "ĠArms": 426,
      "ĠPortland": 427,
      "ome": 428,
      "ger": 429,
      "room": 430,
      "lers": 431,
      "restlers": 432,
      "ĠWrestlers": 433,
      "Ġchildren": 434,
      "enix": 435,
      "hoenix": 436,
      "ĠPhoenix": 437,
      "ari": 438,
      "ab": 439,
      "ound": 440,
      "There": 441,
      "Ġpl": 442,
      "Ġtrain": 443,
      "Ġfr": 444,
      "otto": 445,
      "Ġplace": 446,
      "ĠFitzbillies": 447,
      "pl": 448,
      "ouse": 449,
      "ine": 450,
      "ĠHouse": 451,
      "im": 452,
      "och": 453,
      "Ġprov": 454,
      "yne": 455,
      "Loch": 456,
      "ĠFyne": 457,
      "Ġv": 458,
      "ace": 459,
      "unter": 460,
      "Ġbe": 461,
      "Ġprices": 462,
      "Ġprovid": 463,
      "ĠN": 464,
      "ark": 465,
      "ard": 466,
      "ĠK": 467,
      "Ġgra": 468,
      "ĠBrowns": 469,
      "mer": 470,
      "urger": 471,
      "ower": 472,
      "Ġtree": 473,
      "ĠPunter": 474,
      "Ġair": 475,
      "ocum": 476,
      "ip": 477,
      "bow": 478,
      "Ġsky": 479,
      "ainbow": 480,
      "ĠSp": 481,
      "ĠKing": 482,
      "otel": 483,
      "ĠY": 484,
      "ĠSpice": 485,
      "ĠBurger": 486,
      "Ġbu": 487,
      "pee": 488,
      "ĠPla": 489,
      "ĠPlaza": 490,
      "ath": 491,
      "ĠHotel": 492,
      "arian": 493,
      "ĠCrown": 494,
      "ĠAlimentum": 495,
      "getarian": 496,
      "ĠVe": 497,
      "ĠVegetarian": 498,
      "Ġoffers": 499,
      "ĠRainbow": 500,
      "Ġbut": 501,
      "enty": 502,
      "live": 503,
      "rove": 504,
      "oodle": 505,
      "Ġfi": 506,
      "ane": 507,
      "ĠOlive": 508,
      "ĠGrove": 509,
      "ĠStrada": 510,
      "ake": 511,
      "ĠNoodle": 512,
      "ippee": 513,
      "ĠYippee": 514,
      "oud": 515,
      "ĠTwo": 516,
      "ĠTwenty": 517,
      "ĠCrowne": 518,
      "omi": 519,
      "ock": 520,
      "ummer": 521,
      "Ġstar": 522,
      "Ġroom": 523,
      "Ġu": 524,
      "raff": 525,
      "ĠOne": 526,
      "iraff": 527,
      "ass": 528,
      "ults": 529,
      "ls": 530,
      "izz": 531,
      "ĠAll": 532,
      "unt": 533,
      "Ġserving": 534,
      "ĠCotto": 535,
      "wood": 536,
      "ring": 537,
      "ind": 538,
      "Ġlook": 539,
      "Zizz": 540,
      "Ġli": 541,
      "ildwood": 542,
      "Zizzi": 543,
      "Ġbath": 544,
      "ids": 545,
      "Ġcloud": 546,
      "Ġgr": 547,
      "ĠLoch": 548,
      "Ġar": 549,
      "reen": 550,
      "Ġsun": 551,
      "Ġwall": 552,
      "Ġsit": 553,
      "iverside": 554,
      "Ġfrom": 555,
      "ia": 556,
      "ens": 557,
      "Ġwhi": 558,
      "ple": 559,
      "ough": 560,
      "idsummer": 561,
      "iraffe": 562,
      "bo": 563,
      "Ġmoderately": 564,
      "isine": 565,
      "aults": 566,
      "ĠVaults": 567,
      "Ġwhich": 568,
      "ĠSic": 569,
      "ĠSicil": 570,
      "ĠSicilia": 571,
      "anch": 572,
      "ĠRiverside": 573,
      "Ġlea": 574,
      "ation": 575,
      "Ġhe": 576,
      "ĠMill": 577,
      "Ġexp": 578,
      "ensive": 579,
      "Ġne": 580,
      "ure": 581,
      "Ġbathroom": 582,
      "Ġover": 583,
      "Ġkids": 584,
      "lare": 585,
      "Ġde": 586,
      "Ġsp": 587,
      "Ġha": 588,
      "Ġsh": 589,
      "Ġboat": 590,
      "ĠCocum": 591,
      "og": 592,
      "Ġratings": 593,
      "Ġwor": 594,
      "ĠRanch": 595,
      "'s": 596,
      "Ġprovides": 597,
      "atch": 598,
      "alk": 599,
      "ight": 600,
      "ud": 601,
      "ĠHall": 602,
      "ĠClare": 603,
      "Ġbuild": 604,
      "Ġyou": 605,
      "ere": 606,
      "Ġday": 607,
      "owns": 608,
      "lowns": 609,
      "ving": 610,
      "Ġshe": 611,
      "Ġpark": 612,
      "alace": 613,
      "able": 614,
      "us": 615,
      "Ġas": 616,
      "ĠAromi": 617,
      "Located": 618,
      "Ġcan": 619,
      "ĠPalace": 620,
      "ĠCu": 621,
      "os": 622,
      "Ġplay": 623,
      "eld": 624,
      "Ġcon": 625,
      "hip": 626,
      "ĠWildwood": 627,
      "ction": 628,
      "Ġmount": 629,
      "Ġcar": 630,
      "ĠZizzi": 631,
      "ze": 632,
      "Ġplate": 633,
      "Ġad": 634,
      "art": 635,
      "Ġgrass": 636,
      "ĠThey": 637,
      "izza": 638,
      "Ġsm": 639,
      "Ġwh": 640,
      "Ġbuilding": 641,
      "est": 642,
      "Ġname": 643,
      "ite": 644,
      "Ġpizza": 645,
      "Ġexpensive": 646,
      "Ġfield": 647,
      "uring": 648,
      "ep": 649,
      "the": 650,
      "ĠMidsummer": 651,
      "ĠD": 652,
      "Ġcom": 653,
      "Ġflower": 654,
      "Ġj": 655,
      "Ġhave": 656,
      "umpl": 657,
      "ĠTree": 658,
      "ĠDumpl": 659,
      "ĠDumpling": 660,
      "Ġwind": 661,
      "Ġhighly": 662,
      "ells": 663,
      "Ġen": 664,
      "Ġmountain": 665,
      "Fitzbillies": 666,
      "ting": 667,
      "Ġduring": 668,
      "Ġwalk": 669,
      "Ġcat": 670,
      "Ġnamed": 671,
      "air": 672,
      "wo": 673,
      "Ġstand": 674,
      "port": 675,
      "rick": 676,
      "ician": 677,
      "Ġgrow": 678,
      "ang": 679,
      "xt": 680,
      "akers": 681,
      "Ġmatch": 682,
      "each": 683,
      "ĠMan": 684,
      "Ġfo": 685,
      "ĠClowns": 686,
      "plane": 687,
      "ĠBakers": 688,
      "Ġbo": 689,
      "Ġor": 690,
      "Ġher": 691,
      "Ġte": 692,
      "Ġme": 693,
      "In": 694,
      "olit": 695,
      "Ġits": 696,
      "Ġtop": 697,
      "ĠIts": 698,
      "way": 699,
      "Ġcenter": 700,
      "olitician": 701,
      "ricket": 702,
      "Browns": 703,
      "ie": 704,
      "Ġsea": 705,
      "Ġcustomers": 706,
      "Ġplayer": 707,
      "iv": 708,
      "Ġcol": 709,
      "Ġthere": 710,
      "Ġhis": 711,
      "Ġriver": 712,
      "ile": 713,
      "Ġairplane": 714,
      "te": 715,
      "Ġhome": 716,
      "Ġman": 717,
      "oad": 718,
      "Ġlake": 719,
      "Ġbed": 720,
      "Ġtrack": 721,
      "Near": 722,
      "ĠSor": 723,
      "Ġup": 724,
      "ricketers": 725,
      "ph": 726,
      "ĠCricketers": 727,
      "rento": 728,
      "Ġsheep": 729,
      "ĠSorrento": 730,
      "Ġforest": 731,
      "Ġele": 732,
      "ib": 733,
      "Alimentum": 734,
      "Ġtheir": 735,
      "ong": 736,
      "cl": 737,
      "Ġpass": 738,
      "Ġcou": 739,
      "Ġbridge": 740,
      "ose": 741,
      "his": 742,
      "ist": 743,
      "Ġ20": 744,
      "ld": 745,
      "Ġstud": 746,
      "aj": 747,
      "fe": 748,
      "ĠCuisine": 749,
      "ke": 750,
      "imb": 751,
      "Ġcuisine": 752,
      "Ġairport": 753,
      "raz": 754,
      "Ġproviding": 755,
      "Ġsl": 756,
      "Ġdown": 757,
      "ĠRaj": 758,
      "ĠRaja": 759,
      "ibimb": 760,
      "ibimbap": 761,
      "ru": 762,
      "ĠGiraffe": 763,
      "ac": 764,
      "one": 765,
      "razil": 766,
      "price": 767,
      "ĠBrazil": 768,
      "ĠGreen": 769,
      "Ġclock": 770,
      "Ġcost": 771,
      "Ġwhite": 772,
      "Ġthr": 773,
      "Ġsta": 774,
      "Ġal": 775,
      "Ġbeach": 776,
      "Ġoffer": 777,
      "Ġplane": 778,
      "ning": 779,
      "rees": 780,
      "Ġwindow": 781,
      "Ġfire": 782,
      "Ġnext": 783,
      "Ġstation": 784,
      "Ġflow": 785,
      "uit": 786,
      "Ġrun": 787,
      "ves": 788,
      "vel": 789,
      "An": 790,
      "Strada": 791,
      "qu": 792,
      "priced": 793,
      "ach": 794,
      "our": 795,
      "arm": 796,
      "Ġfe": 797,
      "arge": 798,
      "Ġwork": 799,
      "Ġse": 800,
      "Ġthis": 801,
      "tain": 802,
      "rist": 803,
      "ĠPl": 804,
      "Ġserve": 805,
      "Ġsome": 806,
      "Ġwater": 807,
      "ĠPlough": 808,
      "Ġfly": 809,
      "Ġhar": 810,
      "Cocum": 811,
      "Ġmot": 812,
      "aste": 813,
      "ĠCity": 814,
      "br": 815,
      "Cotto": 816,
      "bra": 817,
      "oor": 818,
      "Ġthrough": 819,
      "Two": 820,
      "Ġbr": 821,
      "atic": 822,
      "nder": 823,
      "ping": 824,
      "ship": 825,
      "Ġtrees": 826,
      "oot": 827,
      "Ġeleph": 828,
      "Ġev": 829,
      "Ġve": 830,
      "Ġce": 831,
      "ell": 832,
      "ft": 833,
      "Ġbl": 834,
      "Ġunder": 835,
      "au": 836,
      "Ġtable": 837,
      "Ġblue": 838,
      "now": 839,
      "Ġclouds": 840,
      "dri": 841,
      "Ġlo": 842,
      "Ġlight": 843,
      "Ġgard": 844,
      "Ġone": 845,
      "zebra": 846,
      "urn": 847,
      "Ġlooking": 848,
      "ull": 849,
      "isit": 850,
      "Ġzebra": 851,
      "ating": 852,
      "Ġpolitician": 853,
      "Ġship": 854,
      "ail": 855,
      "ilet": 856,
      "Ġtravel": 857,
      "Blue": 858,
      "ĠAdri": 859,
      "Ġtoilet": 860,
      "Ġgarden": 861,
      "ĠAdriatic": 862,
      "Ġcover": 863,
      "For": 864,
      "Ġgre": 865,
      "Ġgiraffe": 866,
      "Ġap": 867,
      "Ġbre": 868,
      "ale": 869,
      "Ġfive": 870,
      "Ġpat": 871,
      "Ġthey": 872,
      "Ġdog": 873,
      "osp": 874,
      "Ġnon": 875,
      "ime": 876,
      "Ġroad": 877,
      "ross": 878,
      "very": 879,
      "Ġarri": 880,
      "Ġcheese": 881,
      "val": 882,
      "Ġinto": 883,
      "Ġtower": 884,
      "lso": 885,
      "cor": 886,
      "Ġfound": 887,
      "Ġref": 888,
      "Ġgreen": 889,
      "Ġclose": 890,
      "Ġabo": 891,
      "vell": 892,
      "Ar": 893,
      "Ġlarge": 894,
      "ĠBells": 895,
      "ĠSix": 896,
      "Ġvisit": 897,
      "Aromi": 898,
      "Ġtake": 899,
      "Ġoffering": 900,
      "op": 901,
      "Ġwa": 902,
      "Ġalso": 903,
      "ourist": 904,
      "Ġsur": 905,
      "ĠBibimbap": 906,
      "Ġex": 907,
      "stab": 908,
      "iron": 909,
      "Ġsmall": 910,
      "stablish": 911,
      "Ġestablish": 912,
      "ier": 913,
      "ust": 914,
      "ous": 915,
      "Ġgood": 916,
      "hes": 917,
      "Ġaround": 918,
      "Ġhang": 919,
      "orm": 920,
      "Ġport": 921,
      "Ġside": 922,
      "Ġelephant": 923,
      "col": 924,
      "Ġsnow": 925,
      "ty": 926,
      "viron": 927,
      "oman": 928,
      "Ġcele": 929,
      "ci": 930,
      "Ġestablishment": 931,
      "lect": 932,
      "Ġenviron": 933,
      "red": 934,
      "Ġper": 935,
      "Ġcount": 936,
      "ball": 937,
      "Ġban": 938,
      "Ġenvironment": 939,
      "Ġrock": 940,
      "ult": 941,
      "Ġalong": 942,
      "ounds": 943,
      "Ġstars": 944,
      "ĠCustomer": 945,
      "Ġbedroom": 946,
      "Ġflowers": 947,
      "rise": 948,
      "uts": 949,
      "oon": 950,
      "Ġsells": 951,
      "eefe": 952,
      "ĠBeefe": 953,
      "ravell": 954,
      "ĠRest": 955,
      "ravellers": 956,
      "lete": 957,
      "Ġle": 958,
      "Ġonly": 959,
      "ĠTaste": 960,
      "les": 961,
      "gg": 962,
      "ople": 963,
      "Ġworship": 964,
      "Ġmeal": 965,
      "ĠBeefeater": 966,
      "Ġven": 967,
      "Ġdecor": 968,
      "Ġadd": 969,
      "if": 970,
      "ĠAval": 971,
      "ĠAvalon": 972,
      "row": 973,
      "Ġrece": 974,
      "Wildwood": 975,
      "Ġqu": 976,
      "Ġcolor": 977,
      "oes": 978,
      "yle": 979,
      "ool": 980,
      "Ġso": 981,
      "Ġvenue": 982,
      "Ġop": 983,
      "oll": 984,
      "Ġstre": 985,
      "Ġfish": 986,
      "Ġmid": 987,
      "Ġrunway": 988,
      "Ġcelebr": 989,
      "Ġfill": 990,
      "Ġhill": 991,
      "image": 992,
      "mon": 993,
      "Ġhold": 994,
      "Midsummer": 995,
      "tle": 996,
      "ber": 997,
      "Ġfind": 998,
      "Ġchair": 999,
      "ĠThis": 1000,
      "Ġcountry": 1001,
      "Ġwin": 1002,
      "Ġrise": 1003,
      "arket": 1004,
      "Ġlead": 1005,
      "Ġpounds": 1006,
      "Ġspe": 1007,
      "Ġlap": 1008,
      "Ġheart": 1009,
      "Ġcouple": 1010,
      "Ġshot": 1011,
      "board": 1012,
      "co": 1013,
      "Ġloc": 1014,
      "ans": 1015,
      "Ġdri": 1016,
      "Ġ30": 1017,
      "Ġall": 1018,
      "Ġspace": 1019,
      "Ġhor": 1020,
      "tern": 1021,
      "ootball": 1022,
      "ents": 1023,
      "Ġstudent": 1024,
      "are": 1025,
      "up": 1026,
      "Ġsunrise": 1027,
      "rot": 1028,
      "Ġpe": 1029,
      "Ġbear": 1030,
      "Ġyour": 1031,
      "Ġveget": 1032,
      "Ġbreak": 1033,
      "Ġevent": 1034,
      "Ġvery": 1035,
      "ery": 1036,
      "atue": 1037,
      "With": 1038,
      "Ġag": 1039,
      "ĠTravellers": 1040,
      "Ġgreat": 1041,
      "we": 1042,
      "Ġstyle": 1043,
      "iew": 1044,
      "ond": 1045,
      "eep": 1046,
      "ies": 1047,
      "Ġtourist": 1048,
      "Ġparked": 1049,
      "pla": 1050,
      "Ġac": 1051,
      "Ġlay": 1052,
      "ont": 1053,
      "orning": 1054,
      "Ġherd": 1055,
      "Ġz": 1056,
      "Ġwas": 1057,
      "ped": 1058,
      "Ġath": 1059,
      "ush": 1060,
      "com": 1061,
      "Ġthree": 1062,
      "Ġabove": 1063,
      "Ġbanan": 1064,
      "Ġimage": 1065,
      "Ġwoman": 1066,
      "Ġbas": 1067,
      "Ġdi": 1068,
      "Ġlove": 1069,
      "Ġbet": 1070,
      "Ġred": 1071,
      "Ġclass": 1072,
      "Ġteam": 1073,
      "Ġent": 1074,
      "Ġold": 1075,
      "ick": 1076,
      "Ġleave": 1077,
      "Ġmorning": 1078,
      "Ġathlete": 1079,
      "Ġaf": 1080,
      "Ġtry": 1081,
      "Ġtime": 1082,
      "Ġreceiv": 1083,
      "Ġpre": 1084,
      "Ġtown": 1085,
      "rait": 1086,
      "Ġagain": 1087,
      "ather": 1088,
      "Ġeating": 1089,
      "Ġtr": 1090,
      "Ġwait": 1091,
      "Ġcome": 1092,
      "ance": 1093,
      "Ġpast": 1094,
      "Ġland": 1095,
      "mosp": 1096,
      "oup": 1097,
      "ween": 1098,
      "mosphere": 1099,
      "Ġtak": 1100,
      "Ġfamilies": 1101,
      "Ġadult": 1102,
      "de": 1103,
      "ĠCent": 1104,
      "Ġstatue": 1105,
      "Ġpassen": 1106,
      "Ġbetween": 1107,
      "Ġagainst": 1108,
      "ĠCentre": 1109,
      "round": 1110,
      "Ġrev": 1111,
      "Ġcoast": 1112,
      "Ġdish": 1113,
      "Ġatmosphere": 1114,
      "Ġzoo": 1115,
      "fl": 1116,
      "Ġgl": 1117,
      "Ġattra": 1118,
      "zing": 1119,
      "Ġpain": 1120,
      "Ġpart": 1121,
      "ical": 1122,
      "ade": 1123,
      "Ġpattern": 1124,
      "Ġstreet": 1125,
      "Ġfriend": 1126,
      "Ġdes": 1127,
      "Ġhead": 1128,
      "cy": 1129,
      "Ġgrowing": 1130,
      "If": 1131,
      "politician": 1132,
      "sing": 1133,
      "Ġtow": 1134,
      "Ġot": 1135,
      "Ġway": 1136,
      "Ġwill": 1137,
      "Ġbook": 1138,
      "Ġafter": 1139,
      "ack": 1140,
      "Ġcur": 1141,
      "Ġrest": 1142,
      "ead": 1143,
      "Clowns": 1144,
      "ses": 1145,
      "Ġisland": 1146,
      "Ġgo": 1147,
      "lack": 1148,
      "uet": 1149,
      "uated": 1150,
      "amily": 1151,
      "Ġreflect": 1152,
      "Ġreview": 1153,
      "ary": 1154,
      "Ġlot": 1155,
      "Ġsha": 1156,
      "ven": 1157,
      "Ġsale": 1158,
      "Ġwood": 1159,
      "'t": 1160,
      "ble": 1161,
      "Ġlie": 1162,
      "Ġwe": 1163,
      "Ġgraze": 1164,
      "ore": 1165,
      "Ġcross": 1166,
      "Ġmed": 1167,
      "Ġfeat": 1168,
      "Ġsc": 1169,
      "Ġmarket": 1170,
      "ĠFriendly": 1171,
      "irl": 1172,
      "Ġliving": 1173,
      "ever": 1174,
      "Ġsite": 1175,
      "urch": 1176,
      "Ġmove": 1177,
      "cture": 1178,
      "Ġmee": 1179,
      "Ġwhile": 1180,
      "Ġmother": 1181,
      "Ġhorse": 1182,
      "bour": 1183,
      "Ġun": 1184,
      "Ġsw": 1185,
      "Ġholiday": 1186,
      "Ġbox": 1187,
      "Ġattraction": 1188,
      "ks": 1189,
      "Ġserved": 1190,
      "Ġfront": 1191,
      "Ġcouch": 1192,
      "Ġdon": 1193,
      "Ġfruit": 1194,
      "Ġother": 1195,
      "ĠLocated": 1196,
      "ric": 1197,
      "ence": 1198,
      "Ġsus": 1199,
      "xpensive": 1200,
      "Ġbeing": 1201,
      "Ġbroc": 1202,
      "ium": 1203,
      "Ġbee": 1204,
      "ĠPrice": 1205,
      "Ġleader": 1206,
      "Ġharbour": 1207,
      "coli": 1208,
      "Ġbroccoli": 1209,
      "ator": 1210,
      "Ġouts": 1211,
      "Ġstru": 1212,
      "Ġpeople": 1213,
      "oke": 1214,
      "ugh": 1215,
      "Ġmoon": 1216,
      "cra": 1217,
      "Ġface": 1218,
      "Ġhand": 1219,
      "ĠRating": 1220,
      "Ġtracks": 1221,
      "armac": 1222,
      "cer": 1223,
      "du": 1224,
      "Ġchurch": 1225,
      "Ġblack": 1226,
      "Ġdin": 1227,
      "craft": 1228,
      "Ġtwo": 1229,
      "Ġcup": 1230,
      "lying": 1231,
      "Ġrang": 1232,
      "Ġcor": 1233,
      "lic": 1234,
      "Ġgrazing": 1235,
      "Ġwalking": 1236,
      "Ġarrive": 1237,
      "Ġreceived": 1238,
      "Ġpull": 1239,
      "hough": 1240,
      "Ġmoving": 1241,
      "rit": 1242,
      "Ġmead": 1243,
      "Ġground": 1244,
      "Ġtopping": 1245,
      "Ġcelebrate": 1246,
      "Ġmeadow": 1247,
      "Ġwel": 1248,
      "mb": 1249,
      "wor": 1250,
      "Ġsuit": 1251,
      "Ġwhe": 1252,
      "Ġdis": 1253,
      "Ġdress": 1254,
      "Ġsituated": 1255,
      "Ġsushi": 1256,
      "Ġball": 1257,
      "Ġglass": 1258,
      "gers": 1259,
      "mp": 1260,
      "Ġtype": 1261,
      "Ġnew": 1262,
      "Ġshower": 1263,
      "Ġmotor": 1264,
      "ig": 1265,
      "Ġcli": 1266,
      "ase": 1267,
      "Ġstanding": 1268,
      "Ġmeat": 1269,
      "Ġsurround": 1270,
      "ĠCustomers": 1271,
      "erm": 1272,
      "top": 1273,
      "eaut": 1274,
      "ady": 1275,
      "Ġdeli": 1276,
      "Ġbloom": 1277,
      "expensive": 1278,
      "look": 1279,
      "Ġinexpensive": 1280,
      "Ġmountains": 1281,
      "Ġstructure": 1282,
      "star": 1283,
      "Ġpo": 1284,
      "Ġpot": 1285,
      "Ġbow": 1286,
      "iece": 1287,
      "Ġclassroom": 1288,
      "Ġoutside": 1289,
      "res": 1290,
      "Ġwatch": 1291,
      "Ġmen": 1292,
      "other": 1293,
      "Ġorange": 1294,
      "Ġfilled": 1295,
      "Ġreviews": 1296,
      "gan": 1297,
      "Ġfall": 1298,
      "ition": 1299,
      "pet": 1300,
      "ght": 1301,
      "Ġfan": 1302,
      "Ġaut": 1303,
      "Ġpond": 1304,
      "Ġrail": 1305,
      "Ġcovered": 1306,
      "ffer": 1307,
      "Ġboy": 1308,
      "Ġcosts": 1309,
      "Ġperf": 1310,
      "cle": 1311,
      "ket": 1312,
      "ally": 1313,
      "Ġdoes": 1314,
      "Ġstorm": 1315,
      "dle": 1316,
      "sun": 1317,
      "Ġaw": 1318,
      "Ġpiece": 1319,
      "unch": 1320,
      "Ġjet": 1321,
      "Ġpassenger": 1322,
      "Ġpa": 1323,
      "Ġgirl": 1324,
      "hind": 1325,
      "Ġbehind": 1326,
      "Ġbanana": 1327,
      "bor": 1328,
      "ire": 1329,
      "Ġwhere": 1330,
      "Ġshel": 1331,
      "orth": 1332,
      "Ġart": 1333,
      "ug": 1334,
      "Ġtarmac": 1335,
      "Ġpair": 1336,
      "Ġsau": 1337,
      "Ġeatery": 1338,
      "Ġbeen": 1339,
      "Ġlike": 1340,
      "Ġapp": 1341,
      "ink": 1342,
      "Ġtile": 1343,
      "Ġload": 1344,
      "Ġtem": 1345,
      "Ġwho": 1346,
      "ality": 1347,
      "Ġmon": 1348,
      "Ġservice": 1349,
      "Ġge": 1350,
      "amp": 1351,
      "Ġsil": 1352,
      "Ġgroup": 1353,
      "Ġcontain": 1354,
      "Ġportrait": 1355,
      "Ġmeals": 1356,
      "Ġfeature": 1357,
      "th": 1358,
      "Ġpoor": 1359,
      "Ġhow": 1360,
      "irr": 1361,
      "Ġfeed": 1362,
      "Ġdecorate": 1363,
      "Ġmotorcy": 1364,
      "Green": 1365,
      "ches": 1366,
      "Ġlying": 1367,
      "Ġbar": 1368,
      "iraffes": 1369,
      "Ġadults": 1370,
      "Ġjust": 1371,
      "ritish": 1372,
      "ates": 1373,
      "ĠBritish": 1374,
      "Ġtray": 1375,
      "Ġsitting": 1376,
      "irror": 1377,
      "come": 1378,
      "ants": 1379,
      "Ġhay": 1380,
      "Ġmirror": 1381,
      "iling": 1382,
      "Ġsleep": 1383,
      "rowd": 1384,
      "nt": 1385,
      "Ġfootball": 1386,
      "int": 1387,
      "Ġsummer": 1388,
      "Ġbeaut": 1389,
      "umn": 1390,
      "Giraffe": 1391,
      "Ġcho": 1392,
      "Ġrate": 1393,
      "Ġho": 1394,
      "ows": 1395,
      "umb": 1396,
      "ables": 1397,
      "iful": 1398,
      "Bibimbap": 1399,
      "ny": 1400,
      "eri": 1401,
      "Ġcere": 1402,
      "ries": 1403,
      "Ġaff": 1404,
      "Ġhot": 1405,
      "unk": 1406,
      "Ġcomp": 1407,
      "Ġquality": 1408,
      "place": 1409,
      "Ġcurtain": 1410,
      "fa": 1411,
      "fast": 1412,
      "rated": 1413,
      "Ġcrowd": 1414,
      "ason": 1415,
      "Ġlist": 1416,
      "Ġboard": 1417,
      "Ġflying": 1418,
      "Ġlaptop": 1419,
      "Ġsauce": 1420,
      "Ġtemple": 1421,
      "Ġget": 1422,
      "Ġam": 1423,
      "Ġreason": 1424,
      "Ġaircraft": 1425,
      "Ġcoming": 1426,
      "Ġorgan": 1427,
      "clos": 1428,
      "Ġopen": 1429,
      "hed": 1430,
      "Ġthen": 1431,
      "Ġfloor": 1432,
      "Ġenclos": 1433,
      "ival": 1434,
      "Ġaffor": 1435,
      "family": 1436,
      "Ġfarm": 1437,
      "Ġpra": 1438,
      "Ġsch": 1439,
      "Ġsup": 1440,
      "Ġgather": 1441,
      "Ġgiraffes": 1442,
      "Ġacross": 1443,
      "Ġafforda": 1444,
      "Ġcake": 1445,
      "Ġfog": 1446,
      "Ġfull": 1447,
      "Ġprot": 1448,
      "ital": 1449,
      "Ġear": 1450,
      "Ġstop": 1451,
      "ession": 1452,
      "ushroom": 1453,
      "Ġenter": 1454,
      "Ġaffordable": 1455,
      "anes": 1456,
      "Ġinside": 1457,
      "Ġtraveling": 1458,
      "mony": 1459,
      "Ġvegetable": 1460,
      "Ġtrunk": 1461,
      "Ġschool": 1462,
      "fer": 1463,
      "fore": 1464,
      "stru": 1465,
      "Ġres": 1466,
      "lection": 1467,
      "Ġform": 1468,
      "Ġdrin": 1469,
      "Ġdesk": 1470,
      "Ġceremony": 1471,
      "na": 1472,
      "use": 1473,
      "ugg": 1474,
      "ato": 1475,
      "Ġenclosure": 1476,
      "boat": 1477,
      "tor": 1478,
      "Ġroo": 1479,
      "Ġsold": 1480,
      "Ġga": 1481,
      "terf": 1482,
      "Ġbefore": 1483,
      "Ġworld": 1484,
      "Ġlapse": 1485,
      "ious": 1486,
      "oy": 1487,
      "Ġhosp": 1488,
      "octor": 1489,
      "Ġhigher": 1490,
      "Ġsmoke": 1491,
      "comm": 1492,
      "Ġhospital": 1493,
      "Ġend": 1494,
      "rel": 1495,
      "Ġsal": 1496,
      "Ġwant": 1497,
      "Ġlooks": 1498,
      "ellow": 1499,
      "augh": 1500,
      "by": 1501,
      "light": 1502,
      "Ġtom": 1503,
      "owing": 1504,
      "Ġleaves": 1505,
      "estival": 1506,
      "eacher": 1507,
      "ĠPrices": 1508,
      "ful": 1509,
      "ient": 1510,
      "this": 1511,
      "Ġlit": 1512,
      "Ġfloat": 1513,
      "Ġyoung": 1514,
      "Ġbreakfast": 1515,
      "Ġaward": 1516,
      "av": 1517,
      "football": 1518,
      "Ġumb": 1519,
      "ider": 1520,
      "Ġmap": 1521,
      "Ġoverlook": 1522,
      "Ġvegetables": 1523,
      "Ġshape": 1524,
      "Ġcorn": 1525,
      "Ġbowl": 1526,
      "ding": 1527,
      "Ġskate": 1528,
      "Ġtaking": 1529,
      "Ġorganis": 1530,
      "str": 1531,
      "iss": 1532,
      "ley": 1533,
      "ump": 1534,
      "Ġwalls": 1535,
      "Ġtext": 1536,
      "Ġwelcome": 1537,
      "Ġey": 1538,
      "ĠFood": 1539,
      "Ġskier": 1540,
      "Ġboats": 1541,
      "Ġeven": 1542,
      "Ġhanging": 1543,
      "Ġlocation": 1544,
      "Ġpasture": 1545,
      "Ġdining": 1546,
      "Ġbeautiful": 1547,
      "del": 1548,
      "rap": 1549,
      "ying": 1550,
      "lig": 1551,
      "Ġspend": 1552,
      "Ġsmile": 1553,
      "Ġmiddle": 1554,
      "Ġfestival": 1555,
      "Ġtalk": 1556,
      "Ġpen": 1557,
      "als": 1558,
      "Ġdaugh": 1559,
      "Ġste": 1560,
      "Ġval": 1561,
      "Ġdeliver": 1562,
      "Ġdaughter": 1563,
      "ey": 1564,
      "Ġturn": 1565,
      "cell": 1566,
      "Ġgiv": 1567,
      "Ġflight": 1568,
      "clud": 1569,
      "Ġide": 1570,
      "Ġisn": 1571,
      "houet": 1572,
      "terfly": 1573,
      "Ġpan": 1574,
      "urse": 1575,
      "Ġdist": 1576,
      "Ġsunny": 1577,
      "Ġharbor": 1578,
      "work": 1579,
      "rella": 1580,
      "cellent": 1581,
      "bit": 1582,
      "que": 1583,
      "Ġaction": 1584,
      "Ġinclud": 1585,
      "Ġrising": 1586,
      "Ġframe": 1587,
      "Ġbuil": 1588,
      "Ġexcellent": 1589,
      "fferent": 1590,
      "atoes": 1591,
      "Ġsession": 1592,
      "Ġwine": 1593,
      "Ġgive": 1594,
      "Ġpainting": 1595,
      "Ġoven": 1596,
      "Ġburn": 1597,
      "Ġdep": 1598,
      "cloud": 1599,
      "Ġmotorcycle": 1600,
      "commend": 1601,
      "ope": 1602,
      "ĠL": 1603,
      "uros": 1604,
      "Ġrecommend": 1605,
      "vest": 1606,
      "Ġkn": 1607,
      "Ġbasket": 1608,
      "Ġautumn": 1609,
      "Ġgaze": 1610,
      "Some": 1611,
      "ved": 1612,
      "Ġmist": 1613,
      "Ġmushroom": 1614,
      "Ġyellow": 1615,
      "Ġcheck": 1616,
      "Ġsits": 1617,
      "Ġspeci": 1618,
      "Ġsoldier": 1619,
      "tion": 1620,
      "Ġfun": 1621,
      "ise": 1622,
      "Ġsing": 1623,
      "Ġwithin": 1624,
      "Ġflock": 1625,
      "Ġmany": 1626,
      "Ġmeeting": 1627,
      "uggage": 1628,
      "Ġroof": 1629,
      "Ġnorth": 1630,
      "Ġluggage": 1631,
      "Ġmoss": 1632,
      "Ġdoctor": 1633,
      "Ġdifferent": 1634,
      "Ġsalad": 1635,
      "Taste": 1636,
      "ted": 1637,
      "Ġra": 1638,
      "Ġthem": 1639,
      "Ġmodel": 1640,
      "Ġfireplace": 1641,
      "Ġwooden": 1642,
      "struction": 1643,
      "Ġumbrella": 1644,
      "ect": 1645,
      "though": 1646,
      "Ġteacher": 1647,
      "Ġpri": 1648,
      "Ġrow": 1649,
      "Ġrain": 1650,
      "Ġwell": 1651,
      "Ġsurf": 1652,
      "Ġmenu": 1653,
      "act": 1654,
      "hild": 1655,
      "lo": 1656,
      "mo": 1657,
      "Ġ-": 1658,
      "Ġcook": 1659,
      "Ġfurn": 1660,
      "Ġpoll": 1661,
      "oored": 1662,
      "Ġbab": 1663,
      "Ġride": 1664,
      "Ġvari": 1665,
      "Ġhair": 1666,
      "Ġharvest": 1667,
      "Ġtowel": 1668,
      "Ġsuitable": 1669,
      "stud": 1670,
      "Ġeach": 1671,
      "Ġmy": 1672,
      "hor": 1673,
      "uter": 1674,
      "Ġkey": 1675,
      "Ġus": 1676,
      "Ġleaving": 1677,
      "Ġmedium": 1678,
      "Ġdonut": 1679,
      "Ġdishes": 1680,
      "Ġperform": 1681,
      "ligious": 1682,
      "Th": 1683,
      "Ġtun": 1684,
      "Ġbou": 1685,
      "hop": 1686,
      "ights": 1687,
      "Ġshelf": 1688,
      "clouds": 1689,
      "-Â£": 1690,
      "time": 1691,
      "arder": 1692,
      "Ġlab": 1693,
      "eeping": 1694,
      "ash": 1695,
      "Ġcarry": 1696,
      "Ġpink": 1697,
      "Ġmoor": 1698,
      "Ġcounter": 1699,
      "Ġski": 1700,
      "boarder": 1701,
      "Ġspring": 1702,
      "Ġeng": 1703,
      "Ġranging": 1704,
      "Ġlittle": 1705,
      "fire": 1706,
      "you": 1707,
      "Ġcr": 1708,
      "itat": 1709,
      "Ġmoored": 1710,
      "Ġrises": 1711,
      "Ġgame": 1712,
      "Ġdough": 1713,
      "abitat": 1714,
      "led": 1715,
      "per": 1716,
      "quet": 1717,
      "Ġhabitat": 1718,
      "ĠTheir": 1719,
      "Ġgen": 1720,
      "Ġdark": 1721,
      "Ġcont": 1722,
      "houette": 1723,
      "Ġbaby": 1724,
      "ave": 1725,
      "Ġro": 1726,
      "Ġbel": 1727,
      "Ġtrail": 1728,
      "ĠNot": 1729,
      "Ġhel": 1730,
      "Ġexperi": 1731,
      "Ġstain": 1732,
      "Ġworking": 1733,
      "Ġzebras": 1734,
      "Ġabout": 1735,
      "Ġevening": 1736,
      "Ġrecommended": 1737,
      "Ġfar": 1738,
      "Ġpool": 1739,
      "Ġsat": 1740,
      "Ġyear": 1741,
      "ĠPub": 1742,
      "umber": 1743,
      "Ġnect": 1744,
      "Ġbuildings": 1745,
      "Ġcollect": 1746,
      "Three": 1747,
      "ert": 1748,
      "Ġspee": 1749,
      "app": 1750,
      "Ġgold": 1751,
      "Ġdo": 1752,
      "Ġcarpet": 1753,
      "Ġarrives": 1754,
      "Ġdistance": 1755,
      "Ġkeyboard": 1756,
      "Ġnectar": 1757,
      "Ġspeech": 1758,
      "nel": 1759,
      "Ġfac": 1760,
      "Ġty": 1761,
      "Ġour": 1762,
      "arch": 1763,
      "Ġwear": 1764,
      "Ġbun": 1765,
      "Ġmak": 1766,
      "Ġallow": 1767,
      "Ġtoppings": 1768,
      "'re": 1769,
      "dog": 1770,
      "joy": 1771,
      "ĠRange": 1772,
      "ank": 1773,
      "Ġcre": 1774,
      "rity": 1775,
      "ins": 1776,
      "Ġlet": 1777,
      "Ġlog": 1778,
      "ural": 1779,
      "Ġbrid": 1780,
      "Ġonion": 1781,
      "irst": 1782,
      "Ġconstruction": 1783,
      "Ġvalley": 1784,
      "Ġgiven": 1785,
      "young": 1786,
      "dy": 1787,
      "mber": 1788,
      "range": 1789,
      "ung": 1790,
      "Ġshin": 1791,
      "Ġlady": 1792,
      "olog": 1793,
      "Ġdecorated": 1794,
      "Ġbouquet": 1795,
      "This": 1796,
      "read": 1797,
      "Ġtur": 1798,
      "Ġput": 1799,
      "iture": 1800,
      "Ġhi": 1801,
      "Ġbal": 1802,
      "ffic": 1803,
      "Ġsleeping": 1804,
      "resh": 1805,
      "Ġhowever": 1806,
      "Ġtunnel": 1807,
      "ef": 1808,
      "fish": 1809,
      "Ġround": 1810,
      "Ġbi": 1811,
      "Ġtoget": 1812,
      "Ġbutterfly": 1813,
      "Ġbread": 1814,
      "colate": 1815,
      "Ġbananas": 1816,
      "Ġfurniture": 1817,
      "students": 1818,
      "Ġtogether": 1819,
      "day": 1820,
      "Ġlive": 1821,
      "Ġeuros": 1822,
      "Ġwild": 1823,
      "Ġcoach": 1824,
      "ors": 1825,
      "ĠShop": 1826,
      "Ġtraining": 1827,
      "Ġjo": 1828,
      "Ġstudy": 1829,
      "Ġslope": 1830,
      "Ġpollen": 1831,
      "High": 1832,
      "male": 1833,
      "Ġfirst": 1834,
      "Ġtub": 1835,
      "Ġpar": 1836,
      "Ġla": 1837,
      "Ġbrown": 1838,
      "Ġchick": 1839,
      "Ġcons": 1840,
      "Ġwinter": 1841,
      "Ġwaiting": 1842,
      "flower": 1843,
      "Ġchocolate": 1844,
      "Ġhotdog": 1845,
      "Ġreasonable": 1846,
      "go": 1847,
      "Ġ,": 1848,
      "erman": 1849,
      "Ġsy": 1850,
      "Ġbes": 1851,
      "Ġinter": 1852,
      "raw": 1853,
      "Ġbull": 1854,
      "portrait": 1855,
      "Ġfishing": 1856,
      "Ġcomputer": 1857,
      "Ġdrink": 1858,
      "cts": 1859,
      "tourist": 1860,
      "ons": 1861,
      "alm": 1862,
      "Ġplan": 1863,
      "Ġstands": 1864,
      "Ġwheat": 1865,
      "Ġpray": 1866,
      "You": 1867,
      "itch": 1868,
      "Ġbring": 1869,
      "owers": 1870,
      "occer": 1871,
      "oun": 1872,
      "let": 1873,
      "uld": 1874,
      "Ġbuy": 1875,
      "assen": 1876,
      "Ġenjoy": 1877,
      "Ġstudents": 1878,
      "Ġwindows": 1879,
      "Ġseen": 1880,
      "Ġpatient": 1881,
      "Ġfriends": 1882,
      "Ġgets": 1883,
      "Ġtyp": 1884,
      "It": 1885,
      "Ġi": 1886,
      "rin": 1887,
      "Ġfoods": 1888,
      "Ġnumber": 1889,
      "Ġegg": 1890,
      "Ġready": 1891,
      "Ġtoy": 1892,
      "ards": 1893,
      "Ġlibr": 1894,
      "ermarket": 1895,
      "Ġsupermarket": 1896,
      "Ġeye": 1897,
      "Ġlibrary": 1898,
      "inal": 1899,
      "Ġpill": 1900,
      "Ġpric": 1901,
      "Ġroll": 1902,
      "Ġring": 1903,
      "oth": 1904,
      "Ġgri": 1905,
      "Ġgoat": 1906,
      "Ġcarrot": 1907,
      "cient": 1908,
      "Ġswim": 1909,
      "ological": 1910,
      "cur": 1911,
      "dium": 1912,
      "ior": 1913,
      "Ġeart": 1914,
      "Ġrela": 1915,
      "aring": 1916,
      "Ġhaving": 1917,
      "Ġcattle": 1918,
      "Ġelephants": 1919,
      "Ġapple": 1920,
      "cope": 1921,
      "Ġpaint": 1922,
      "Ġranges": 1923,
      "Ġidea": 1924,
      "Ġearth": 1925,
      "Ġrelax": 1926,
      "bs": 1927,
      "cu": 1928,
      "erving": 1929,
      "right": 1930,
      "Ġpier": 1931,
      "Ġnice": 1932,
      "Ġlights": 1933,
      "Ġanc": 1934,
      "Ġmus": 1935,
      "Ġstone": 1936,
      "Ġplain": 1937,
      "Ġbest": 1938,
      "Ġworker": 1939,
      "Ġfisherman": 1940,
      "play": 1941,
      "flowers": 1942,
      "Ġdonuts": 1943,
      "Ġchicken": 1944,
      "Ġbeside": 1945,
      "Ġpricing": 1946,
      "food": 1947,
      "sm": 1948,
      "Ġcab": 1949,
      "Ġpep": 1950,
      "Ġrace": 1951,
      "Ġrack": 1952,
      "Ġben": 1953,
      "Ġbig": 1954,
      "Ġgi": 1955,
      "Ġstate": 1956,
      "etail": 1957,
      "illage": 1958,
      "Ġcomes": 1959,
      "Ġstadium": 1960,
      "Ġseat": 1961,
      "Ġdrive": 1962,
      "useum": 1963,
      "boats": 1964,
      "Ġknown": 1965,
      "bu": 1966,
      "em": 1967,
      "fans": 1968,
      "Ġcand": 1969,
      "cess": 1970,
      "ings": 1971,
      "ilit": 1972,
      "aper": 1973,
      "list": 1974,
      "dern": 1975,
      "ĠWe": 1976,
      "Ġvillage": 1977,
      "Ġcosting": 1978,
      "monstr": 1979,
      "Ġchairs": 1980,
      "Ġcountryside": 1981,
      "Ġparty": 1982,
      "atory": 1983,
      "Ġsilhouette": 1984,
      "Ġamong": 1985,
      "hildren": 1986,
      "ten": 1987,
      "wh": 1988,
      "Ġfro": 1989,
      "Ġfight": 1990,
      "Ġtall": 1991,
      "Ġmic": 1992,
      "Ġmuseum": 1993,
      "ory": 1994,
      "Ġbud": 1995,
      "Ġneed": 1996,
      "Ġreflection": 1997,
      "Ġrocks": 1998,
      "Ġsofa": 1999,
      "At": 2000,
      "ax": 2001,
      "dition": 2002,
      "rant": 2003,
      "Ġill": 2004,
      "Ġevery": 2005,
      "Ġbend": 2006,
      "alf": 2007,
      "Ġright": 2008,
      "ighter": 2009,
      "Ġdock": 2010,
      "irt": 2011,
      "Ġtraffic": 2012,
      "ples": 2013,
      "Ġvine": 2014,
      "Ġlots": 2015,
      "Ġexam": 2016,
      "Ġlaying": 2017,
      "Ġwhole": 2018,
      "Ġplanet": 2019,
      "ountain": 2020,
      "assengers": 2021,
      "ilitary": 2022,
      "..": 2023,
      "be": 2024,
      "walk": 2025,
      "Ġcatch": 2026,
      "religious": 2027,
      "Ġab": 2028,
      "Ġnurse": 2029,
      "Ġhad": 2030,
      "Ġwarm": 2031,
      "Ġmag": 2032,
      "Ġreact": 2033,
      "Ġreef": 2034,
      "Ġprodu": 2035,
      "ably": 2036,
      "ĠYou": 2037,
      "Ġbranch": 2038,
      "Ġhillside": 2039,
      "Ġleads": 2040,
      "Ġresting": 2041,
      "Ġclimb": 2042,
      "Ġorganism": 2043,
      "Ġengine": 2044,
      "Ġsatis": 2045,
      "lthough": 2046,
      "rol": 2047,
      "Ġfair": 2048,
      "lymp": 2049,
      "cony": 2050,
      "Ġbur": 2051,
      "Ġreach": 2052,
      "ute": 2053,
      "Ġstall": 2054,
      "athlete": 2055,
      "Ġcloudy": 2056,
      "Ġcolors": 2057,
      "Ġshaped": 2058,
      "Ġpasta": 2059,
      "Ġfeatures": 2060,
      "Ġlabor": 2061,
      "Ġgener": 2062,
      "Ġbelow": 2063,
      "Ġbride": 2064,
      "lympic": 2065,
      "ner": 2066,
      "she": 2067,
      "Ġset": 2068,
      "Ġbunch": 2069,
      "Ġrep": 2070,
      "Ġyard": 2071,
      "umer": 2072,
      "ĠWith": 2073,
      "Ġplaying": 2074,
      "Ġcompet": 2075,
      "Ġjump": 2076,
      "oney": 2077,
      "Ġceiling": 2078,
      "Ġlean": 2079,
      "Ġfootballer": 2080,
      "Ġtomato": 2081,
      "Ġcrane": 2082,
      "ditional": 2083,
      "Ġlaboratory": 2084,
      "sh": 2085,
      "zon": 2086,
      "cent": 2087,
      "Ġbat": 2088,
      "Ġmust": 2089,
      "Ġeats": 2090,
      "rots": 2091,
      "Ġshade": 2092,
      "Ġsomeone": 2093,
      "Ġtakes": 2094,
      "Ġpassengers": 2095,
      "Ġsurrounded": 2096,
      "Ġpotato": 2097,
      "Ġappear": 2098,
      "Ġdoughn": 2099,
      "bb": 2100,
      "ues": 2101,
      "uff": 2102,
      "Ġcamp": 2103,
      "Ġru": 2104,
      "Ġsce": 2105,
      "Ġbak": 2106,
      "Ġbright": 2107,
      "Ġgu": 2108,
      "Ġspread": 2109,
      "Ġmounted": 2110,
      "Ġpassing": 2111,
      "Ġgreet": 2112,
      "Ġstream": 2113,
      "Ġholding": 2114,
      "mpty": 2115,
      "Ġappro": 2116,
      "Ġbalcony": 2117,
      "Ġsatisfa": 2118,
      "Pe": 2119,
      "cre": 2120,
      "che": 2121,
      "ched": 2122,
      "fall": 2123,
      "rance": 2124,
      "tub": 2125,
      "rient": 2126,
      "Ġsell": 2127,
      "Ġlong": 2128,
      "Ġcut": 2129,
      "Ġanother": 2130,
      "Ġmake": 2131,
      "Ġgate": 2132,
      "Ġdess": 2133,
      "Ġaveragely": 2134,
      "road": 2135,
      "Ġdemonstr": 2136,
      "Ġplayers": 2137,
      "Ġcondu": 2138,
      "anges": 2139,
      "Ġpost": 2140,
      "Ġperfor": 2141,
      "Ġexperience": 2142,
      "appy": 2143,
      "players": 2144,
      "fort": 2145,
      "ife": 2146,
      "ling": 2147,
      "sp": 2148,
      "Ġif": 2149,
      "rizon": 2150,
      "Ġav": 2151,
      "Ġass": 2152,
      "Ġwrap": 2153,
      "pect": 2154,
      "Ġmari": 2155,
      "Ġread": 2156,
      "child": 2157,
      "uest": 2158,
      "mander": 2159,
      "Ġlies": 2160,
      "Ġcanal": 2161,
      "Ġcarrots": 2162,
      "estri": 2163,
      "Ġcommander": 2164,
      "Ġoption": 2165,
      "Ġlocate": 2166,
      "Ġweb": 2167,
      "licop": 2168,
      "Ġpoorly": 2169,
      "Ġhorizon": 2170,
      "Ġprotect": 2171,
      "Ġbuilder": 2172,
      "cat": 2173,
      "case": 2174,
      "fi": 2175,
      "passengers": 2176,
      "scope": 2177,
      "any": 2178,
      "Ġcast": 2179,
      "Ġmin": 2180,
      "Ġmilitary": 2181,
      "andon": 2182,
      "herd": 2183,
      "Ġtrains": 2184,
      "planes": 2185,
      "Ġconne": 2186,
      "uitar": 2187,
      "Ġoper": 2188,
      "works": 2189,
      "Ġskateboarder": 2190,
      "Someone": 2191,
      "Ġhik": 2192,
      "Ġsatisfaction": 2193,
      "People": 2194,
      "He": 2195,
      "Sever": 2196,
      "brity": 2197,
      "hic": 2198,
      "iers": 2199,
      "nic": 2200,
      "Ġ25": 2201,
      "Ġcage": 2202,
      "Ġpad": 2203,
      "Ġsay": 2204,
      "veral": 2205,
      "Ġmade": 2206,
      "Ġrem": 2207,
      "reets": 2208,
      "Ġvan": 2209,
      "Ġliber": 2210,
      "Ġbathtub": 2211,
      "Ġcolour": 2212,
      "Ġelect": 2213,
      "Ġfirework": 2214,
      "Ġwave": 2215,
      "Ġentrance": 2216,
      "Ġreflected": 2217,
      "Ġcontainer": 2218,
      "Ġcorner": 2219,
      "Several": 2220,
      "Ġliberty": 2221,
      "cou": 2222,
      "ems": 2223,
      "ial": 2224,
      "tt": 2225,
      "ern": 2226,
      "Ġtide": 2227,
      "Ġpitch": 2228,
      "Ġrug": 2229,
      "Ġnet": 2230,
      "Ġempty": 2231,
      "Ġreg": 2232,
      "iles": 2233,
      "ould": 2234,
      "Ġguitar": 2235,
      "Ġchange": 2236,
      "Ġsunlight": 2237,
      "Ġheld": 2238,
      "Ġconcer": 2239,
      "Ġspeed": 2240,
      "Ġhorses": 2241,
      "Ġreceives": 2242,
      "tourists": 2243,
      "Ġabandon": 2244,
      "Ġmarina": 2245,
      "Che": 2246,
      "bee": 2247,
      "olympic": 2248,
      "sc": 2249,
      "und": 2250,
      "yd": 2251,
      "erry": 2252,
      "Ġfoll": 2253,
      "Ġfans": 2254,
      "ined": 2255,
      "Ġtro": 2256,
      "Ġtack": 2257,
      "Ġthough": 2258,
      "Ġwere": 2259,
      "Ġmat": 2260,
      "olfer": 2261,
      "Ġdam": 2262,
      "ager": 2263,
      "train": 2264,
      "oses": 2265,
      "Ġsmiling": 2266,
      "Ġje": 2267,
      "Ġaddress": 2268,
      "Ġleading": 2269,
      "Ġprem": 2270,
      "Ġprep": 2271,
      "Ġgoing": 2272,
      "Ġmonarch": 2273,
      "Ġreasonably": 2274,
      "Ġtomatoes": 2275,
      "Ġfarmer": 2276,
      "Ġjoint": 2277,
      "Italian": 2278,
      "Ġsetting": 2279,
      "Ġcompetition": 2280,
      "licopter": 2281,
      "Ġconcert": 2282,
      "By": 2283,
      "She": 2284,
      "Serving": 2285,
      "bi": 2286,
      "iver": 2287,
      "ience": 2288,
      "ram": 2289,
      "trees": 2290,
      "Ġcru": 2291,
      "ides": 2292,
      "Ġhyd": 2293,
      "Ġnearby": 2294,
      "Ġmain": 2295,
      "Ġknow": 2296,
      "abbit": 2297,
      "Ġprovide": 2298,
      "Ġspider": 2299,
      "udience": 2300,
      "close": 2301,
      "Ġcolorful": 2302,
      "Ġlocal": 2303,
      "Ġlanding": 2304,
      "Ġpulling": 2305,
      "Ġbuilt": 2306,
      "Ġconsider": 2307,
      "aut": 2308,
      "gy": 2309,
      "less": 2310,
      "nis": 2311,
      "oderate": 2312,
      "ture": 2313,
      "Ġfix": 2314,
      "Ġaudience": 2315,
      "Ġpic": 2316,
      "Ġrabbit": 2317,
      "Ġsco": 2318,
      "Ġwed": 2319,
      "Ġwould": 2320,
      "Ġbay": 2321,
      "people": 2322,
      "owever": 2323,
      "Ġdetail": 2324,
      "ĠHowever": 2325,
      "Ġlower": 2326,
      "Ġstri": 2327,
      "Ġitems": 2328,
      "Ġtraditional": 2329,
      "Ġexplo": 2330,
      "Ġcargo": 2331,
      "Ġcomm": 2332,
      "Ġstage": 2333,
      "Ġvegg": 2334,
      "Ġtowards": 2335,
      "Ġwelcom": 2336,
      "Ġpotatoes": 2337,
      "Ġdrinks": 2338,
      "Ġhelp": 2339,
      "biological": 2340,
      "Ġhydrant": 2341,
      "car": 2342,
      "two": 2343,
      "Ġfresh": 2344,
      "ines": 2345,
      "amer": 2346,
      "Ġrose": 2347,
      "Ġsee": 2348,
      "Ġshi": 2349,
      "Ġwon": 2350,
      "Ġmiss": 2351,
      "race": 2352,
      "ateg": 2353,
      "umin": 2354,
      "Ġket": 2355,
      "ety": 2356,
      "Ġshirt": 2357,
      "Ġstare": 2358,
      "Ġvehic": 2359,
      "Ġbooks": 2360,
      "Ġmeet": 2361,
      "Ġpoint": 2362,
      "Ġprotest": 2363,
      "Ġoverlooking": 2364,
      "Ġspecies": 2365,
      "Ġspecial": 2366,
      "Ġmakes": 2367,
      "field": 2368,
      "Cu": 2369,
      "French": 2370,
      "On": 2371,
      "Travellers": 2372,
      "Ġ'": 2373,
      "Ġcateg": 2374,
      "Ġaway": 2375,
      "stem": 2376,
      "Ġtri": 2377,
      "Ġorient": 2378,
      "Ġpalm": 2379,
      "ident": 2380,
      "earch": 2381,
      "Ġmay": 2382,
      "Ġcould": 2383,
      "uth": 2384,
      "orts": 2385,
      "Ġguest": 2386,
      "ĠHigh": 2387,
      "Ġchrist": 2388,
      "Ġsunflower": 2389,
      "Ġgrassy": 2390,
      "Ġwalks": 2391,
      "ailable": 2392,
      "Ġdogs": 2393,
      "cious": 2394,
      "Ġbase": 2395,
      "Ġdire": 2396,
      "Ġfeaturing": 2397,
      "Ġsciss": 2398,
      "Ġcliff": 2399,
      "Ġrais": 2400,
      "Ġcreate": 2401,
      "white": 2402,
      "Ġmustard": 2403,
      "Ġconduct": 2404,
      "Customer": 2405,
      "Ġcategory": 2406,
      "dge": 2407,
      "iere": 2408,
      "there": 2409,
      "ual": 2410,
      "anket": 2411,
      "Ġcool": 2412,
      "Ġfare": 2413,
      "Ġfries": 2414,
      "Ġtw": 2415,
      "Ġter": 2416,
      "Ġph": 2417,
      "Ġpush": 2418,
      "Ġroses": 2419,
      "Ġsqu": 2420,
      "ĠChildren": 2421,
      "Ġwre": 2422,
      "Ġmass": 2423,
      "Ġrecur": 2424,
      "Ġcour": 2425,
      "Ġribb": 2426,
      "ĠRated": 2427,
      "Ġchoo": 2428,
      "Ġhelicopter": 2429,
      "Ġshow": 2430,
      "Ġtopped": 2431,
      "Ġblanket": 2432,
      "Ġscreen": 2433,
      "Ġdelicious": 2434,
      "Ġgrill": 2435,
      "build": 2436,
      "Ġillumin": 2437,
      "Ġscene": 2438,
      "Ġdessert": 2439,
      "Ġavailable": 2440,
      "Ġconnect": 2441,
      "Ġpremiere": 2442,
      "dhi": 2443,
      "fighter": 2444,
      "ns": 2445,
      "Ġcir": 2446,
      "rite": 2447,
      "head": 2448,
      "Ġlid": 2449,
      "rain": 2450,
      "Ġonto": 2451,
      "Ġclear": 2452,
      "ational": 2453,
      "Ġoranges": 2454,
      "ister": 2455,
      "acht": 2456,
      "rowave": 2457,
      "Ġcelebration": 2458,
      "Ġwhen": 2459,
      "ermen": 2460,
      "Ġbarn": 2461,
      "Ġdelivers": 2462,
      "Ġvariety": 2463,
      "Ġallowed": 2464,
      "Ġbike": 2465,
      "Ġbench": 2466,
      "Ġcandle": 2467,
      "Ġfrost": 2468,
      "sheep": 2469,
      "Ġdoughnut": 2470,
      "Ġdamage": 2471,
      "Riverside": 2472,
      "clist": 2473,
      "io": 2474,
      "ral": 2475,
      "Ġes": 2476,
      "Ġlamb": 2477,
      "Ġpricey": 2478,
      "edestri": 2479,
      "hoscope": 2480,
      "Ġstet": 2481,
      "ular": 2482,
      "Ġflat": 2483,
      "Ġplates": 2484,
      "Ġvase": 2485,
      "Ġquite": 2486,
      "Ġfeeding": 2487,
      "Ġsurface": 2488,
      "Ġsurfboard": 2489,
      "Ġvarious": 2490,
      "Ġshine": 2491,
      "rink": 2492,
      "Ġpillow": 2493,
      "Ġcabin": 2494,
      "Ġpepper": 2495,
      "Ġmicrowave": 2496,
      "Ġregion": 2497,
      "Ġstethoscope": 2498,
      "Moderate": 2499,
      "ground": 2500,
      "mas": 2501,
      "ned": 2502,
      "uck": 2503,
      "Ġim": 2504,
      "ative": 2505,
      "Ġtoo": 2506,
      "Ġpay": 2507,
      "Ġpedestri": 2508,
      "Ġwife": 2509,
      "Ġint": 2510,
      "alt": 2511,
      "Ġmom": 2512,
      "Ġreac": 2513,
      "Ġcott": 2514,
      "Ġmouse": 2515,
      "Ġgray": 2516,
      "Ġarch": 2517,
      "Ġarrange": 2518,
      "Ġsprink": 2519,
      "Ġcomple": 2520,
      "Ġstair": 2521,
      "Ġblock": 2522,
      "Ġhills": 2523,
      "Ġspeak": 2524,
      "mbers": 2525,
      "Ġrailway": 2526,
      "Ġformation": 2527,
      "Ġinclude": 2528,
      "Ġcontin": 2529,
      "Ġterrace": 2530,
      "Ġwreath": 2531,
      "Ġribbon": 2532,
      "dhist": 2533,
      "English": 2534,
      "paper": 2535,
      "soccer": 2536,
      "wn": 2537,
      "Ġflies": 2538,
      "cend": 2539,
      "Ġpil": 2540,
      "Ġwat": 2541,
      "Ġany": 2542,
      "Ġgla": 2543,
      "Ġdine": 2544,
      "Ġplanes": 2545,
      "izzas": 2546,
      "Ġlift": 2547,
      "Ġarm": 2548,
      "phalt": 2549,
      "Ġfemale": 2550,
      "Ġseveral": 2551,
      "Ġmotion": 2552,
      "Ġapart": 2553,
      "Ġbank": 2554,
      "Ġholds": 2555,
      "Ġmedal": 2556,
      "Ġboxer": 2557,
      "Ġdepic": 2558,
      "Ġfunction": 2559,
      "Ġraise": 2560,
      "fireworks": 2561,
      "Ġtackle": 2562,
      "Come": 2563,
      "cie": 2564,
      "large": 2565,
      "me": 2566,
      "pers": 2567,
      "water": 2568,
      "Ġcare": 2569,
      "Ġtre": 2570,
      "Ġterm": 2571,
      "Ġtax": 2572,
      "Ġray": 2573,
      "Ġrainbow": 2574,
      "Ġsav": 2575,
      "Ġhalf": 2576,
      "Ġbill": 2577,
      "Ġret": 2578,
      "Ġshore": 2579,
      "Ġmodern": 2580,
      "Ġnest": 2581,
      "Ġshowing": 2582,
      "ause": 2583,
      "Ġspecie": 2584,
      "Ġwheel": 2585,
      "ffering": 2586,
      "Ġgear": 2587,
      "erial": 2588,
      "Ġtalking": 2589,
      "Ġsteam": 2590,
      "Highly": 2591,
      "Ġwedding": 2592,
      "hile": 2593,
      "happy": 2594,
      "Ġfoot": 2595,
      "Ġpizzas": 2596,
      "ars": 2597,
      "omen": 2598,
      "iding": 2599,
      "Ġedge": 2600,
      "urple": 2601,
      "edian": 2602,
      "lease": 2603,
      "ote": 2604,
      "Ġstr": 2605,
      "Ġchar": 2606,
      "Ġgrape": 2607,
      "Ġairplanes": 2608,
      "Ġlife": 2609,
      "Ġdeity": 2610,
      "Ġshare": 2611,
      "usk": 2612,
      "Ġfields": 2613,
      "Ġslow": 2614,
      "Ġstack": 2615,
      "Ġflowing": 2616,
      "Ġpeak": 2617,
      "Ġaccess": 2618,
      "Ġballoon": 2619,
      "Ġlisten": 2620,
      "Ġfloating": 2621,
      "Ġskateboard": 2622,
      "Ġeyes": 2623,
      "Ġsystem": 2624,
      "Ġtypes": 2625,
      "Ġanchor": 2626,
      "Ġmusic": 2627,
      "Ġvanity": 2628,
      "amera": 2629,
      "Rated": 2630,
      "how": 2631,
      "tree": 2632,
      "cele": 2633,
      "ames": 2634,
      "Ġpear": 2635,
      "ities": 2636,
      "Ġhoney": 2637,
      "Ġwest": 2638,
      "Ġant": 2639,
      "ately": 2640,
      "Ġstee": 2641,
      "ĠYes": 2642,
      "Ġboast": 2643,
      "Ġfirefighter": 2644,
      "Ġwaterfall": 2645,
      "Ġsoft": 2646,
      "coffee": 2647,
      "Ġtourists": 2648,
      "Ġpret": 2649,
      "Ġreflecting": 2650,
      "fishing": 2651,
      "Ġhiker": 2652,
      "Cheap": 2653,
      "Ġconsidered": 2654,
      "Ġpicnic": 2655,
      "Ġwelcomes": 2656,
      "Ġterminal": 2657,
      "Fast": 2658,
      "Family": 2659,
      "acon": 2660,
      "but": 2661,
      "ique": 2662,
      "ming": 2663,
      "mother": 2664,
      "Ġfur": 2665,
      "style": 2666,
      "Ġted": 2667,
      "Ġoli": 2668,
      "Ġnat": 2669,
      "Ġlear": 2670,
      "Ġlamp": 2671,
      "Ġemer": 2672,
      "Ġmix": 2673,
      "Ġyacht": 2674,
      "Ġhighway": 2675,
      "Ġdan": 2676,
      "Ġtoast": 2677,
      "ican": 2678,
      "akes": 2679,
      "Ġplaced": 2680,
      "Ġshows": 2681,
      "Ġparking": 2682,
      "cles": 2683,
      "Ġclocks": 2684,
      "Ġsection": 2685,
      "Ġbrow": 2686,
      "Ġapples": 2687,
      "cial": 2688,
      "Ġadds": 2689,
      "venient": 2690,
      "Ġsilver": 2691,
      "Ġgetting": 2692,
      "Ġsteak": 2693,
      "ashion": 2694,
      "Ġmaking": 2695,
      "Ġonions": 2696,
      "Ġturb": 2697,
      "Ġcastle": 2698,
      "Ġoriented": 2699,
      "Ġesc": 2700,
      "Ġcabinet": 2701,
      "Ġteddy": 2702,
      "Ġolives": 2703,
      "cause": 2704,
      "ele": 2705,
      "fight": 2706,
      "roup": 2707,
      "Ġcraw": 2708,
      "Ġtank": 2709,
      "Ġrally": 2710,
      "Ġrank": 2711,
      "Ġsway": 2712,
      "Ġsoup": 2713,
      "Ġsister": 2714,
      "itor": 2715,
      "Ġbrick": 2716,
      "Ġbacon": 2717,
      "alator": 2718,
      "Ġdoll": 2719,
      "ĠAlthough": 2720,
      "Ġcheaply": 2721,
      "Ġnote": 2722,
      "Ġteen": 2723,
      "Ġmember": 2724,
      "Ġcostumer": 2725,
      "Ġarriving": 2726,
      "Ġsnowboard": 2727,
      "Ġleg": 2728,
      "Ġcrossing": 2729,
      "Ġmeets": 2730,
      "Ġblooming": 2731,
      "sunrise": 2732,
      "Ġmonk": 2733,
      "Ġsupport": 2734,
      "Ġresort": 2735,
      "footballer": 2736,
      "quest": 2737,
      "Ġfacade": 2738,
      "Ġtypical": 2739,
      "cientist": 2740,
      "small": 2741,
      "Ġgift": 2742,
      "Ġapproach": 2743,
      "Ġvehicle": 2744,
      "Ġsquare": 2745,
      "Moderately": 2746,
      "Ġescalator": 2747,
      "Kid": 2748,
      "lder": 2749,
      "load": 2750,
      "ments": 2751,
      "oe": 2752,
      "wind": 2753,
      "zed": 2754,
      "att": 2755,
      "Ġcamera": 2756,
      "Ġten": 2757,
      "Ġpol": 2758,
      "Ġpop": 2759,
      "Ġsub": 2760,
      "Ġisol": 2761,
      "Ġhat": 2762,
      "Ġem": 2763,
      "Ġeast": 2764,
      "Ġwit": 2765,
      "Ġbir": 2766,
      "Ġbark": 2767,
      "Ġind": 2768,
      "hout": 2769,
      "Ġriding": 2770,
      "chup": 2771,
      "Ġdip": 2772,
      "Ġstraw": 2773,
      "Ġstuff": 2774,
      "Ġvol": 2775,
      "ĠNo": 2776,
      "Ġlily": 2777,
      "Ġneigh": 2778,
      "Ġdecent": 2779,
      "airplane": 2780,
      "Ġpasses": 2781,
      "Ġpatrol": 2782,
      "Ġleaf": 2783,
      "Ġshelves": 2784,
      "Ġcompany": 2785,
      "Ġorganisms": 2786,
      "Ġcarrying": 2787,
      "Ġskiers": 2788,
      "Ġlogo": 2789,
      "Ġselling": 2790,
      "Ġelectric": 2791,
      "Ġketchup": 2792,
      "Ġpedestrian": 2793,
      "Ġreacts": 2794,
      "Ġapartment": 2795,
      "ai": 2796,
      "ape": 2797,
      "mountain": 2798,
      "Ġferry": 2799,
      "Ġolive": 2800,
      "Ġpup": 2801,
      "Ġsoccer": 2802,
      "Ġhouse": 2803,
      "Ġwing": 2804,
      "Ġwag": 2805,
      "Ġmar": 2806,
      "Ġgot": 2807,
      "Ġpublic": 2808,
      "Ġranged": 2809,
      "Ġcheer": 2810,
      "Ġ...": 2811,
      "Ġtravell": 2812,
      "bile": 2813,
      "Ġview": 2814,
      "Ġbecause": 2815,
      "Ġcarve": 2816,
      "Ġstudying": 2817,
      "fect": 2818,
      "Ġfew": 2819,
      "Ġbrother": 2820,
      "Ġtablet": 2821,
      "Ġdinner": 2822,
      "Ġpaw": 2823,
      "Ġpract": 2824,
      "Ġincluding": 2825,
      "Ġmushrooms": 2826,
      "Ġstained": 2827,
      "Ġfairly": 2828,
      "scrap": 2829,
      "Ġexplode": 2830,
      "Customers": 2831,
      "Ġcottage": 2832,
      "Ġpretty": 2833,
      "veniently": 2834,
      "Offering": 2835,
      "Yes": 2836,
      "azing": 2837,
      "ges": 2838,
      "ige": 2839,
      "mit": 2840,
      "pan": 2841,
      "sold": 2842,
      "anna": 2843,
      "Ġfine": 2844,
      "Ġfather": 2845,
      "Ġfund": 2846,
      "stra": 2847,
      "statue": 2848,
      "Ġtit": 2849,
      "Ġoc": 2850,
      "Ġpos": 2851,
      "Ġpurple": 2852,
      "Ġhamb": 2853,
      "Ġhim": 2854,
      "Ġinj": 2855,
      "Ġreligious": 2856,
      "ĠFamily": 2857,
      "Ġgrown": 2858,
      "ĠAverage": 2859,
      "rop": 2860,
      "Ġkind": 2861,
      "Ġskies": 2862,
      "Ġsports": 2863,
      "Ġconfer": 2864,
      "Ġbody": 2865,
      "Ġmanager": 2866,
      "Ġalthough": 2867,
      "Ġsnowboarder": 2868,
      "Ġrocket": 2869,
      "Ġbedrooms": 2870,
      "Ġleft": 2871,
      "Ġbased": 2872,
      "Ġclimber": 2873,
      "Ġfalling": 2874,
      "Ġloaded": 2875,
      "Ġtexture": 2876,
      "Ġfacing": 2877,
      "fishermen": 2878,
      "Ġburning": 2879,
      "Ġguard": 2880,
      "Ġchoose": 2881,
      "building": 2882,
      "Ġtaxi": 2883,
      "Ġsavanna": 2884,
      "attoo": 2885,
      "Ġtennis": 2886,
      "Ġconference": 2887,
      "aves": 2888,
      "aerial": 2889,
      "cing": 2890,
      "hood": 2891,
      "keep": 2892,
      "ler": 2893,
      "Ġcater": 2894,
      "Ġfinal": 2895,
      "Ġfashion": 2896,
      "ining": 2897,
      "Ġahead": 2898,
      "Ġrac": 2899,
      "Ġsn": 2900,
      "Ġthese": 2901,
      "Ġlush": 2902,
      "Ġlunch": 2903,
      "Ġhide": 2904,
      "ĠIs": 2905,
      "Ġwomen": 2906,
      "Ġmet": 2907,
      "Ġrid": 2908,
      "Ġmost": 2909,
      "Ġyog": 2910,
      "ublic": 2911,
      "Ġchamp": 2912,
      "elf": 2913,
      "ĠThere": 2914,
      "mercial": 2915,
      "Ġuse": 2916,
      "Ġspot": 2917,
      "Ġfour": 2918,
      "Ġorbit": 2919,
      "Ġstares": 2920,
      "Ġperfect": 2921,
      "Ġpres": 2922,
      "Ġtaken": 2923,
      "Ġhands": 2924,
      "looking": 2925,
      "Ġloading": 2926,
      "Ġmotorcycles": 2927,
      "Ġawards": 2928,
      "Ġinterior": 2929,
      "Ġancho": 2930,
      "couple": 2931,
      "Ġdirection": 2932,
      "Ġraised": 2933,
      "Ġcircle": 2934,
      "Ġpilot": 2935,
      "Ġboasts": 2936,
      "Ġwithout": 2937,
      "Ġneighbor": 2938,
      "Ġtravelling": 2939,
      "Sm": 2940,
      "fts": 2941,
      "group": 2942,
      "hing": 2943,
      "prot": 2944,
      "pherd": 2945,
      "uch": 2946,
      "woman": 2947,
      "yclist": 2948,
      "atter": 2949,
      "Ġfry": 2950,
      "Ġfree": 2951,
      "Ġfountain": 2952,
      "hen": 2953,
      "Ġais": 2954,
      "Ġtattoo": 2955,
      "Ġobs": 2956,
      "Ġroot": 2957,
      "ituated": 2958,
      "ones": 2959,
      "Ġbag": 2960,
      "amic": 2961,
      "Ġreally": 2962,
      "hol": 2963,
      "stained": 2964,
      "Ġstor": 2965,
      "Ġstill": 2966,
      "Ġstreets": 2967,
      "icing": 2968,
      "Ġkit": 2969,
      "reek": 2970,
      "ages": 2971,
      "Ġskyscrap": 2972,
      "Ġbuying": 2973,
      "Ġbutter": 2974,
      "Ġexpl": 2975,
      "Ġshad": 2976,
      "Ġcomfort": 2977,
      "Ġelement": 2978,
      "Ġvisiting": 2979,
      "Ġhangar": 2980,
      "Ġcelebrating": 2981,
      "Ġcoral": 2982,
      "Ġmonitor": 2983,
      "Ġamazing": 2984,
      "Ġearly": 2985,
      "Ġincludes": 2986,
      "Ġdepart": 2987,
      "Ġpriv": 2988,
      "Ġexperiment": 2989,
      "Ġbudget": 2990,
      "Ġruin": 2991,
      "children": 2992,
      "Ġabandoned": 2993,
      "Ġspecializ": 2994,
      "Ġarchite": 2995,
      "celebrity": 2996,
      "butterfly": 2997,
      "fighters": 2998,
      "keeper": 2999,
      "Ġaisle": 3000,
      "Cl": 3001,
      "cast": 3002,
      "sil": 3003,
      "ys": 3004,
      "yard": 3005,
      "ĠU": 3006,
      "Ġflare": 3007,
      "riger": 3008,
      "ooring": 3009,
      "arter": 3010,
      "omet": 3011,
      "Ġhit": 3012,
      "Ġequ": 3013,
      "cond": 3014,
      "Ġband": 3015,
      "Ġboth": 3016,
      "Ġancient": 3017,
      "Ġshor": 3018,
      "chair": 3019,
      "apes": 3020,
      "Ġmos": 3021,
      "rent": 3022,
      "aster": 3023,
      "Ġdusk": 3024,
      "Ġstump": 3025,
      "irts": 3026,
      "iction": 3027,
      "many": 3028,
      "mance": 3029,
      "add": 3030,
      "Ġplenty": 3031,
      "Ġbeg": 3032,
      "Ġstarting": 3033,
      "Ġshri": 3034,
      "Ġador": 3035,
      "Ġwhat": 3036,
      "Ġfore": 3037,
      "Ġmembers": 3038,
      "Ġcouches": 3039,
      "Ġrunning": 3040,
      "Ġexhi": 3041,
      "Ġsnowy": 3042,
      "Ġreceive": 3043,
      "Ġquarter": 3044,
      "flock": 3045,
      "Ġblackboard": 3046,
      "Ġchoice": 3047,
      "Ġhole": 3048,
      "Ġsinger": 3049,
      "love": 3050,
      "Ġcollecting": 3051,
      "Ġeggs": 3052,
      "Ġpillows": 3053,
      "Ġmusician": 3054,
      "Ġproduce": 3055,
      "Ġbaked": 3056,
      "Ġperformance": 3057,
      "Ġmoment": 3058,
      "question": 3059,
      "Ġpupil": 3060,
      "Ġneighborhood": 3061,
      "Although": 3062,
      "Indian": 3063,
      "One": 3064,
      "eat": 3065,
      "ied": 3066,
      "kes": 3067,
      "lit": 3068,
      "mist": 3069,
      "ored": 3070,
      "some": 3071,
      "ually": 3072,
      "ref": 3073,
      "heart": 3074,
      "omes": 3075,
      "Ġlast": 3076,
      "vers": 3077,
      "Ġham": 3078,
      "Ġbake": 3079,
      "amilies": 3080,
      "Ġinstr": 3081,
      "Ġmark": 3082,
      "Ġmach": 3083,
      "Ġrel": 3084,
      "Ġcock": 3085,
      "Ġrip": 3086,
      "iled": 3087,
      "Ġthir": 3088,
      "Ġshould": 3089,
      "Ġshopping": 3090,
      "ott": 3091,
      "Ġgolfer": 3092,
      "Ġdance": 3093,
      "unity": 3094,
      "unately": 3095,
      "irls": 3096,
      "ney": 3097,
      "terior": 3098,
      "Ġclos": 3099,
      "merican": 3100,
      "ations": 3101,
      "Ġplays": 3102,
      "Ġcommercial": 3103,
      "Ġjack": 3104,
      "phy": 3105,
      "Ġsecu": 3106,
      "Ġrocky": 3107,
      "Ġquick": 3108,
      "Ġsouth": 3109,
      "Ġprey": 3110,
      "Ġsuitcase": 3111,
      "Ġrailroad": 3112,
      "Ġgives": 3113,
      "Ġtowels": 3114,
      "Ġcontrol": 3115,
      "Ġdoing": 3116,
      "Ġrepublic": 3117,
      "fortunately": 3118,
      "Ġtrophy": 3119,
      "Ġveggies": 3120,
      "Ġtwenty": 3121,
      "Ġilluminate": 3122,
      "Ġfurrow": 3123,
      "Ġchampion": 3124,
      "rigerator": 3125,
      "Ġinstrum": 3126,
      "Ġsecurity": 3127,
      "az": 3128,
      "dd": 3129,
      "long": 3130,
      "out": 3131,
      "pond": 3132,
      "vent": 3133,
      "wing": 3134,
      "Ġange": 3135,
      "Ġquestion": 3136,
      "Ġcities": 3137,
      "stand": 3138,
      "Ġtent": 3139,
      "Ġtea": 3140,
      "Ġsou": 3141,
      "Ġsum": 3142,
      "Ġsides": 3143,
      "Ġscientist": 3144,
      "Ġrates": 3145,
      "Ġlock": 3146,
      "Ġhug": 3147,
      "Ġhung": 3148,
      "Ġburger": 3149,
      "Ġinst": 3150,
      "hot": 3151,
      "Ġthing": 3152,
      "Ġgal": 3153,
      "Ġgown": 3154,
      "Ġatom": 3155,
      "Ġtrave": 3156,
      "Ġflooring": 3157,
      "Ġbeam": 3158,
      "Ġbees": 3159,
      "Ġasphalt": 3160,
      "Ġconveniently": 3161,
      "Ġcathed": 3162,
      "Ġcolle": 3163,
      "rug": 3164,
      "Ġthrow": 3165,
      "Ġstaff": 3166,
      "Ġflows": 3167,
      "Ġsecond": 3168,
      "Ġships": 3169,
      "Ġgrey": 3170,
      "Ġexit": 3171,
      "Ġperch": 3172,
      "Ġlayer": 3173,
      "Ġpainted": 3174,
      "Ġweather": 3175,
      "Ġunload": 3176,
      "Ġfruits": 3177,
      "Ġhost": 3178,
      "Ġcurtains": 3179,
      "Ġearned": 3180,
      "Ġdeliveries": 3181,
      "Ġturns": 3182,
      "ected": 3183,
      "Ġused": 3184,
      "Ġletter": 3185,
      "Ġdrinking": 3186,
      "Ġgoats": 3187,
      "Ġmagn": 3188,
      "Ġoperate": 3189,
      "Ġfollow": 3190,
      "Ġchristmas": 3191,
      "Ġdollars": 3192,
      "Ġanchored": 3193,
      "Ġexplore": 3194,
      "Ġshrimp": 3195,
      "Ġcathedral": 3196,
      "Low": 3197,
      "We": 3198,
      "ban": 3199,
      "cricket": 3200,
      "fr": 3201,
      "friend": 3202,
      "for": 3203,
      "gri": 3204,
      "golfer": 3205,
      "king": 3206,
      "kers": 3207,
      "mushroom": 3208,
      "obile": 3209,
      "pical": 3210,
      "wall": 3211,
      "Ġcle": 3212,
      "Ġfoc": 3213,
      "Ġfiction": 3214,
      "ried": 3215,
      "Ġtend": 3216,
      "Ġtag": 3217,
      "amless": 3218,
      "Ġrot": 3219,
      "eses": 3220,
      "Ġspl": 3221,
      "Ġsearch": 3222,
      "omobile": 3223,
      "Ġnational": 3224,
      "Ġext": 3225,
      "Ġwide": 3226,
      "Ġbit": 3227,
      "atell": 3228,
      "Ġgall": 3229,
      "Ġgirls": 3230,
      "Ġchalk": 3231,
      "Ġforce": 3232,
      "Ġflame": 3233,
      "Ġprocess": 3234,
      "ips": 3235,
      "Ġwallpaper": 3236,
      "ightly": 3237,
      "Ġcanoe": 3238,
      "Ġcarved": 3239,
      "Ġgrows": 3240,
      "Ġalco": 3241,
      "Ġblow": 3242,
      "Ġappla": 3243,
      "Ġrefrigerator": 3244,
      "Ġvisitor": 3245,
      "Ġcelebrity": 3246,
      "Ġwinning": 3247,
      "Ġdriving": 3248,
      "Ġwash": 3249,
      "Ġdressed": 3250,
      "Ġsurrounding": 3251,
      "Ġwatching": 3252,
      "Ġdoesn": 3253,
      "Ġstormy": 3254,
      "Ġservices": 3255,
      "intage": 3256,
      "Ġgenus": 3257,
      "Ġhelping": 3258,
      "Ġputting": 3259,
      "Ġicon": 3260,
      "Ġswimming": 3261,
      "Ġrelaxing": 3262,
      "Ġpeppers": 3263,
      "bees": 3264,
      "Ġmagaz": 3265,
      "Ġshift": 3266,
      "Ġscissor": 3267,
      "Ġpharmac": 3268,
      "Ġrecurring": 3269,
      "Ġcourt": 3270,
      "Ġwatches": 3271,
      "Ġsteeple": 3272,
      "Ġpopular": 3273,
      "Ġwagon": 3274,
      "soldiers": 3275,
      "Ġobser": 3276,
      "Ġmosque": 3277,
      "eatType": 3278,
      "little": 3279,
      "Ġmachine": 3280,
      "Chinese": 3281,
      "Look": 3282,
      "bud": 3283,
      "flying": 3284,
      "ired": 3285,
      "lamic": 3286,
      "men": 3287,
      "map": 3288,
      "mill": 3289,
      "no": 3290,
      "pain": 3291,
      "vis": 3292,
      "Ġcame": 3293,
      "Ġcra": 3294,
      "Ġcas": 3295,
      "Ġcricket": 3296,
      "Ġcyclist": 3297,
      "Ġfav": 3298,
      "ince": 3299,
      "Ġtook": 3300,
      "Ġtiles": 3301,
      "Ġoak": 3302,
      "Ġpian": 3303,
      "Ġpers": 3304,
      "oodles": 3305,
      "omot": 3306,
      "Ġled": 3307,
      "Ġcub": 3308,
      "urs": 3309,
      "Ġbad": 3310,
      "Ġmale": 3311,
      "Ġmural": 3312,
      "hose": 3313,
      "Ġrider": 3314,
      "Ġrestaurants": 3315,
      "leas": 3316,
      "Ġden": 3317,
      "Ġdeep": 3318,
      "ĠAs": 3319,
      "Ġsty": 3320,
      "Ġcheeses": 3321,
      "ador": 3322,
      "Ġplaces": 3323,
      "ĠNear": 3324,
      "Ġurin": 3325,
      "Ġjum": 3326,
      "Ġcaters": 3327,
      "Ġslightly": 3328,
      "rup": 3329,
      "acter": 3330,
      "Ġarrival": 3331,
      "Ġsidewalk": 3332,
      "color": 3333,
      "coach": 3334,
      "Ġbreaking": 3335,
      "Ġtrying": 3336,
      "Ġbeekeeper": 3337,
      "Ġlisting": 3338,
      "Ġentering": 3339,
      "avy": 3340,
      "Ġvalue": 3341,
      "Ġprior": 3342,
      "Ġparade": 3343,
      "Ġsyrup": 3344,
      "axy": 3345,
      "Ġposter": 3346,
      "Ġpreparing": 3347,
      "Ġcommunity": 3348,
      "Ġsprinkles": 3349,
      "Ġspeaks": 3350,
      "Ġcharacter": 3351,
      "Ġwestern": 3352,
      "Ġlearn": 3353,
      "Ġsubway": 3354,
      "Ġforeground": 3355,
      "Ġalcohol": 3356,
      "Ġapplaud": 3357,
      "Ġpiano": 3358,
      "Along": 3359,
      "Large": 3360,
      "aw": 3361,
      "doctor": 3362,
      "ext": 3363,
      "fession": 3364,
      "fresh": 3365,
      "gra": 3366,
      "low": 3367,
      "uge": 3368,
      "rib": 3369,
      "Ġtv": 3370,
      "Ġpour": 3371,
      "Ġpige": 3372,
      "oots": 3373,
      "Ġsave": 3374,
      "Ġlate": 3375,
      "Ġlion": 3376,
      "Ġhist": 3377,
      "Ġeagle": 3378,
      "uro": 3379,
      "Ġworth": 3380,
      "Ġwrite": 3381,
      "Ġbor": 3382,
      "Ġbone": 3383,
      "Ġmis": 3384,
      "Ġmult": 3385,
      "entist": 3386,
      "eet": 3387,
      "Ġyet": 3388,
      "levis": 3389,
      "ĠEuros": 3390,
      "astic": 3391,
      "Ġgolden": 3392,
      "Ġdad": 3393,
      "ĠWhile": 3394,
      "Ġtodd": 3395,
      "hern": 3396,
      "ĠKids": 3397,
      "Ġstart": 3398,
      "ured": 3399,
      "Ġoverall": 3400,
      "Ġdec": 3401,
      "uddle": 3402,
      "Ġshepherd": 3403,
      "Ġcars": 3404,
      "Ġsmiles": 3405,
      "Ġcollection": 3406,
      "Ġgreens": 3407,
      "Ġexpect": 3408,
      "Ġcelebrates": 3409,
      "Ġwines": 3410,
      "Ġbreaks": 3411,
      "Ġdesert": 3412,
      "ign": 3413,
      "sunlight": 3414,
      "Ġcontains": 3415,
      "Ġcontaining": 3416,
      "Ġdepot": 3417,
      "Ġturtle": 3418,
      "Ġlaunch": 3419,
      "Ġmicro": 3420,
      "Ġdocked": 3421,
      "Ġcampus": 3422,
      "Ġassort": 3423,
      "Ġwrapped": 3424,
      "Ġremote": 3425,
      "Ġveggie": 3426,
      "Ġscissors": 3427,
      "Ġtreat": 3428,
      "Ġturbine": 3429,
      "Ġrides": 3430,
      "Ġyoga": 3431,
      "Close": 3432,
      "silhouette": 3433,
      "Ġbegin": 3434,
      "Ġgalaxy": 3435,
      "atellite": 3436,
      "buddhist": 3437,
      "Ġtoddler": 3438,
      "Children": 3439,
      "brid": 3440,
      "black": 3441,
      "beaut": 3442,
      "can": 3443,
      "eli": 3444,
      "ection": 3445,
      "green": 3446,
      "hand": 3447,
      "iving": 3448,
      "pri": 3449,
      "ron": 3450,
      "sk": 3451,
      "site": 3452,
      "teacher": 3453,
      "ergy": 3454,
      "reight": 3455,
      "storm": 3456,
      "Ġtie": 3457,
      "Ġtiled": 3458,
      "Ġthose": 3459,
      "Ġsame": 3460,
      "its": 3461,
      "arrow": 3462,
      "Ġhard": 3463,
      "Ġhotel": 3464,
      "urning": 3465,
      "Ġwet": 3466,
      "Ġbree": 3467,
      "pell": 3468,
      "Ġcob": 3469,
      "uters": 3470,
      "Ġoutlet": 3471,
      "Ġgreets": 3472,
      "Ġtour": 3473,
      "Ġatt": 3474,
      "ĠOur": 3475,
      "Ġclot": 3476,
      "ĠKid": 3477,
      "Ġlooked": 3478,
      "Ġovercast": 3479,
      "Ġshown": 3480,
      "Ġascend": 3481,
      "Ġhomework": 3482,
      "ships": 3483,
      "aught": 3484,
      "opard": 3485,
      "uster": 3486,
      "tyard": 3487,
      "Ġperched": 3488,
      "Ġlocomot": 3489,
      "Ġclassic": 3490,
      "Ġtrough": 3491,
      "Ġrestroom": 3492,
      "venir": 3493,
      "Ġuniver": 3494,
      "Ġpulls": 3495,
      "Ġfancy": 3496,
      "Ġauthor": 3497,
      "Ġbeauty": 3498,
      "Ġentertain": 3499,
      "Ġrespond": 3500,
      "Ġroots": 3501,
      "Ġideas": 3502,
      "Ġframed": 3503,
      "Ġcookie": 3504,
      "Ġparach": 3505,
      "Ġprayer": 3506,
      "Ġleaning": 3507,
      "Ġbattle": 3508,
      "Ġappears": 3509,
      "Ġperforms": 3510,
      "Ġfollowing": 3511,
      "Ġcruise": 3512,
      "Ġchristian": 3513,
      "Ġcourtyard": 3514,
      "Ġstaircase": 3515,
      "Ġnatural": 3516,
      "Ġemerg": 3517,
      "Ġdancer": 3518,
      "Ġelectricity": 3519,
      "Ġposition": 3520,
      "Ġsavannah": 3521,
      "Small": 3522,
      "Ġshort": 3523,
      "Ġthird": 3524,
      "Ġtravels": 3525,
      "rugby": 3526,
      "Ġextend": 3527,
      "Ġperson": 3528,
      "Ġmissing": 3529,
      "levision": 3530,
      "Ġlocomotive": 3531,
      "'ll": 3532,
      "Not": 3533,
      "Situated": 3534,
      "den": 3535,
      "iet": 3536,
      "met": 3537,
      "nurse": 3538,
      "oss": 3539,
      "orite": 3540,
      "ware": 3541,
      "Ġcalf": 3542,
      "Ġcreek": 3543,
      "Ġfab": 3544,
      "rell": 3545,
      "Ġtast": 3546,
      "Ġtest": 3547,
      "Ġtail": 3548,
      "Ġpound": 3549,
      "Ġpunch": 3550,
      "Ġsim": 3551,
      "Ġsep": 3552,
      "arts": 3553,
      "Ġlad": 3554,
      "Ġcul": 3555,
      "Ġcute": 3556,
      "Ġhomes": 3557,
      "Ġhuge": 3558,
      "Ġbell": 3559,
      "Ġarena": 3560,
      "Ġcourse": 3561,
      "holic": 3562,
      "eek": 3563,
      "ĠRiver": 3564,
      "Ġgar": 3565,
      "Ġdue": 3566,
      "Ġtoday": 3567,
      "Ġstick": 3568,
      "ĠTh": 3569,
      "new": 3570,
      "earing": 3571,
      "Ġpropell": 3572,
      "Ġgrab": 3573,
      "Ġgradu": 3574,
      "Ġgrapes": 3575,
      "Ġcomedian": 3576,
      "aircraft": 3577,
      "anging": 3578,
      "phants": 3579,
      "female": 3580,
      "kets": 3581,
      "Ġalone": 3582,
      "Ġloaf": 3583,
      "ustry": 3584,
      "ific": 3585,
      "Ġsoar": 3586,
      "Ġopp": 3587,
      "cost": 3588,
      "Ġlovely": 3589,
      "Ġdescend": 3590,
      "Ġcontainers": 3591,
      "thing": 3592,
      "Ġusually": 3593,
      "Ġroam": 3594,
      "Ġlawn": 3595,
      "Ġinterest": 3596,
      "Ġinteract": 3597,
      "Ġgrind": 3598,
      "Ġgiving": 3599,
      "Ġcandles": 3600,
      "Ġbuddhist": 3601,
      "Ġburgers": 3602,
      "Ġgenerate": 3603,
      "Ġruins": 3604,
      "Ġdemonstration": 3605,
      "count": 3606,
      "Ġmatador": 3607,
      "Ġjeans": 3608,
      "Ġprepare": 3609,
      "Ġscore": 3610,
      "Ġglazed": 3611,
      "Ġstuffed": 3612,
      "protected": 3613,
      "Ġshadow": 3614,
      "Ġprivate": 3615,
      "Ġspecializes": 3616,
      "Ġarchitecture": 3617,
      "reflection": 3618,
      "Ġjacket": 3619,
      "Ġinstrument": 3620,
      "Ġsummit": 3621,
      "Ġgallery": 3622,
      "Ġchalkboard": 3623,
      "Looking": 3624,
      "Ġfavorite": 3625,
      "bride": 3626,
      "Ġbreeze": 3627,
      "Ġparachute": 3628,
      "rellas": 3629,
      "Child": 3630,
      "Many": 3631,
      "Wel": 3632,
      "away": 3633,
      "cru": 3634,
      "cup": 3635,
      "ds": 3636,
      "dark": 3637,
      "detail": 3638,
      "kirts": 3639,
      "lass": 3640,
      "nfortunately": 3641,
      "oric": 3642,
      "pens": 3643,
      "rom": 3644,
      "type": 3645,
      "anches": 3646,
      "atues": 3647,
      "Ġcrop": 3648,
      "Ġfin": 3649,
      "Ġfla": 3650,
      "amous": 3651,
      "Ġpet": 3652,
      "Ġpalace": 3653,
      "ishes": 3654,
      "ished": 3655,
      "Ġrust": 3656,
      "Ġnoodles": 3657,
      "Ġlone": 3658,
      "ĠChe": 3659,
      "urer": 3660,
      "Ġang": 3661,
      "Ġins": 3662,
      "alth": 3663,
      "ideo": 3664,
      "Ġthick": 3665,
      "Ġshops": 3666,
      "ases": 3667,
      "olar": 3668,
      "ume": 3669,
      "ĠAmerican": 3670,
      "allow": 3671,
      "rodu": 3672,
      "andeli": 3673,
      "ĠMe": 3674,
      "Ġbeans": 3675,
      "Ġgrav": 3676,
      "Ġusing": 3677,
      "Ġdeal": 3678,
      "Ġshed": 3679,
      "Ġjung": 3680,
      "Ġenergy": 3681,
      "Ġcatholic": 3682,
      "Ġtelevision": 3683,
      "Ġslide": 3684,
      "Ġslog": 3685,
      "Ġworks": 3686,
      "Ġbloss": 3687,
      "Ġvisitors": 3688,
      "Ġlevel": 3689,
      "Ġquiet": 3690,
      "ternoon": 3691,
      "Ġbears": 3692,
      "comedian": 3693,
      "Ġenters": 3694,
      "Ġafternoon": 3695,
      "decor": 3696,
      "Ġheading": 3697,
      "Ġcurve": 3698,
      "Ġswan": 3699,
      "Ġoutskirts": 3700,
      "ritten": 3701,
      "Ġopened": 3702,
      "Ġgathered": 3703,
      "Ġfoggy": 3704,
      "struct": 3705,
      "Ġresearch": 3706,
      "Ġumbrellas": 3707,
      "Ġperforming": 3708,
      "firefighters": 3709,
      "Ġshines": 3710,
      "Ġhotdogs": 3711,
      "Ġfighting": 3712,
      "Ġvineyard": 3713,
      "Ġreaching": 3714,
      "Ġrepair": 3715,
      "crete": 3716,
      "chen": 3717,
      "Ġdemonstrator": 3718,
      "Ġreading": 3719,
      "autumn": 3720,
      "Ġmission": 3721,
      "Ġconductor": 3722,
      "Ġdepicting": 3723,
      "Ġreturn": 3724,
      "Ġfootage": 3725,
      "Ġsoftware": 3726,
      "Ġapproaching": 3727,
      "Ġembra": 3728,
      "Ġbirth": 3729,
      "panning": 3730,
      "Ġoccur": 3731,
      "Ġpresident": 3732,
      "Ġkitchen": 3733,
      "Ġexhibit": 3734,
      "Ġclosed": 3735,
      "standing": 3736,
      "Ġsouvenir": 3737,
      "front": 3738,
      "Ġmagazine": 3739,
      "Ġobserve": 3740,
      "Ġhistoric": 3741,
      "beautiful": 3742,
      "country": 3743,
      "Welcome": 3744,
      "Ġblossom": 3745,
      "Four": 3746,
      "bal": 3747,
      "cident": 3748,
      "gull": 3749,
      "girl": 3750,
      "iri": 3751,
      "iation": 3752,
      "pite": 3753,
      "rons": 3754,
      "shot": 3755,
      "wild": 3756,
      "ward": 3757,
      "waves": 3758,
      "Ġcla": 3759,
      "Ġaver": 3760,
      "Ġact": 3761,
      "Ġaim": 3762,
      "Ġox": 3763,
      "Ġoil": 3764,
      "ament": 3765,
      "Ġpress": 3766,
      "Ġsug": 3767,
      "Ġsatellite": 3768,
      "Ġnarrow": 3769,
      "cept": 3770,
      "urgers": 3771,
      "Ġbro": 3772,
      "Ġanime": 3773,
      "Ġmall": 3774,
      "Ġmess": 3775,
      "Ġmel": 3776,
      "Ġmaster": 3777,
      "Ġrelish": 3778,
      "illa": 3779,
      "Ġthink": 3780,
      "Ġthings": 3781,
      "organ": 3782,
      "ociation": 3783,
      "Ġdra": 3784,
      "Ġdome": 3785,
      "Ġservers": 3786,
      "Ġchim": 3787,
      "Ġkar": 3788,
      "Ġkill": 3789,
      "Ġcluster": 3790,
      "ulp": 3791,
      "Ġgravel": 3792,
      "Ġsited": 3793,
      "Ġwhist": 3794,
      "ought": 3795,
      "box": 3796,
      "Ġhealth": 3797,
      "Ġdeer": 3798,
      "used": 3799,
      "Ġconcrete": 3800,
      "Ġwinds": 3801,
      "Ġwindmill": 3802,
      "Ġorn": 3803,
      "Ġworkers": 3804,
      "Ġsecre": 3805,
      "Ġarrived": 3806,
      "Ġvisited": 3807,
      "Ġexterior": 3808,
      "Ġbanks": 3809,
      "monarch": 3810,
      "Ġwins": 3811,
      "Ġspacecraft": 3812,
      "Ġlays": 3813,
      "Ġattract": 3814,
      "Ġrests": 3815,
      "Ġdiscu": 3816,
      "Ġsleeps": 3817,
      "places": 3818,
      "Ġlisted": 3819,
      "Ġpraying": 3820,
      "ligion": 3821,
      "Ġideal": 3822,
      "Ġpaintings": 3823,
      "Ġsingle": 3824,
      "Ġcranes": 3825,
      "Ġbelt": 3826,
      "Ġbiological": 3827,
      "Ġrolling": 3828,
      "Ġexample": 3829,
      "Ġbatter": 3830,
      "uffy": 3831,
      "Ġassociation": 3832,
      "Ġprotected": 3833,
      "Ġsays": 3834,
      "Ġtropical": 3835,
      "Ġshifts": 3836,
      "Ġpushing": 3837,
      "Ġdamaged": 3838,
      "Ġpepperon": 3839,
      "Ġintrodu": 3840,
      "Ġdepict": 3841,
      "Ġcrawl": 3842,
      "Ġtypically": 3843,
      "Ġisolated": 3844,
      "Ġskyscraper": 3845,
      "ĠUnfortunately": 3846,
      "mushrooms": 3847,
      "ĠAsian": 3848,
      "Ġpropeller": 3849,
      "Ġgravy": 3850,
      "Ġjungle": 3851,
      "Ġdiscuss": 3852,
      "Ġintroduce": 3853,
      ".,": 3854,
      "00": 3855,
      "City": 3856,
      "While": 3857,
      "ault": 3858,
      "bl": 3859,
      "blue": 3860,
      "cute": 3861,
      "een": 3862,
      "eath": 3863,
      "emb": 3864,
      "gue": 3865,
      "high": 3866,
      "lone": 3867,
      "my": 3868,
      "tail": 3869,
      "visit": 3870,
      "with": 3871,
      "where": 3872,
      "yl": 3873,
      "ym": 3874,
      "zes": 3875,
      "Ġ4": 3876,
      "ander": 3877,
      "Ġcel": 3878,
      "Ġfighter": 3879,
      "riting": 3880,
      "stre": 3881,
      "cen": 3882,
      "Ġolder": 3883,
      "Ġpou": 3884,
      "Ġsure": 3885,
      "Ġsomet": 3886,
      "ged": 3887,
      "Ġislamic": 3888,
      "Ġnow": 3889,
      "idden": 3890,
      "Ġhappy": 3891,
      "Ġhiding": 3892,
      "Ġeuro": 3893,
      "urban": 3894,
      "Ġwent": 3895,
      "Ġweld": 3896,
      "Ġwearing": 3897,
      "Ġwander": 3898,
      "Ġbol": 3899,
      "Ġbite": 3900,
      "Ġreve": 3901,
      "ilt": 3902,
      "Ġshoul": 3903,
      "ĠFamilies": 3904,
      "Ġmoves": 3905,
      "lea": 3906,
      "velist": 3907,
      "Ġgun": 3908,
      "Ġdead": 3909,
      "Ġtoss": 3910,
      "Ġtoile": 3911,
      "Ġsto": 3912,
      "Ġster": 3913,
      "icy": 3914,
      "Ġnotes": 3915,
      "aking": 3916,
      "agram": 3917,
      "cturer": 3918,
      "ooked": 3919,
      "Ġplow": 3920,
      "Ġvideo": 3921,
      "athroom": 3922,
      "Ġuses": 3923,
      "Ġarms": 3924,
      "Ġsunflowers": 3925,
      "Ġneat": 3926,
      "Ġnets": 3927,
      "Ġspill": 3928,
      "Ġask": 3929,
      "Ġconf": 3930,
      "Ġsmell": 3931,
      "ways": 3932,
      "Ġseagull": 3933,
      "aches": 3934,
      "Ġstaring": 3935,
      "achts": 3936,
      "Ġseaf": 3937,
      "Ġselection": 3938,
      "ristmas": 3939,
      "Ġbrand": 3940,
      "Ġcovering": 3941,
      "Ġpatio": 3942,
      "Ġages": 3943,
      "Ġbaskets": 3944,
      "Ġdiver": 3945,
      "Ġwaiter": 3946,
      "Ġpatterns": 3947,
      "Ġcurb": 3948,
      "Ġsculp": 3949,
      "Ġunc": 3950,
      "Ġunique": 3951,
      "Ġboxes": 3952,
      "Ġstrugg": 3953,
      "Ġboys": 3954,
      "Ġpieces": 3955,
      "Ġwhose": 3956,
      "Ġsilence": 3957,
      "Ġstopped": 3958,
      "Ġsalmon": 3959,
      "Ġorganisation": 3960,
      "Ġtheme": 3961,
      "Ġthemed": 3962,
      "Ġrainy": 3963,
      "moving": 3964,
      "Ġpollin": 3965,
      "Ġharvested": 3966,
      "Ġbuns": 3967,
      "Ġhike": 3968,
      "Ġconsumer": 3969,
      "smoke": 3970,
      "Ġbeneath": 3971,
      "tennis": 3972,
      "Ġguy": 3973,
      "Ġoptions": 3974,
      "ramatic": 3975,
      "Ġcrust": 3976,
      "Ġfrosted": 3977,
      "Ġarranged": 3978,
      "Ġpears": 3979,
      "Ġantique": 3980,
      "Ġisolate": 3981,
      "Ġstrawber": 3982,
      "Ġpractice": 3983,
      "Ġpracticing": 3984,
      "stract": 3985,
      "Ġtitle": 3986,
      "Ġhamburger": 3987,
      "Ġracer": 3988,
      "Ġadorn": 3989,
      "Ġangel": 3990,
      "Ġmagnif": 3991,
      "colorful": 3992,
      "sky": 3993,
      "Ġsepar": 3994,
      "cruise": 3995,
      "pension": 3996,
      "Ġflav": 3997,
      "Ġangle": 3998,
      "Ġchimney": 3999,
      "Ġcelery": 4000,
      "Ġsomething": 4001,
      "Ġshoulder": 4002,
      "Ġtoilets": 4003,
      "Ġsculpture": 4004,
      "As": 4005,
      "Next": 4006,
      "Sk": 4007,
      "city": 4008,
      "fla": 4009,
      "iger": 4010,
      "kid": 4011,
      "made": 4012,
      "od": 4013,
      "off": 4014,
      "oak": 4015,
      "pro": 4016,
      "part": 4017,
      "pink": 4018,
      "rock": 4019,
      "ther": 4020,
      "Ġurban": 4021,
      "Ġcell": 4022,
      "Ġcalm": 4023,
      "Ġfrench": 4024,
      "Ġfreight": 4025,
      "Ġfamous": 4026,
      "ris": 4027,
      "rising": 4028,
      "Ġastr": 4029,
      "Ġtel": 4030,
      "Ġtug": 4031,
      "ening": 4032,
      "ency": 4033,
      "Ġown": 4034,
      "amond": 4035,
      "Ġpari": 4036,
      "Ġpump": 4037,
      "Ġpaper": 4038,
      "escope": 4039,
      "Ġsend": 4040,
      "Ġsiz": 4041,
      "Ġnut": 4042,
      "Ġnoodle": 4043,
      "Ġcuc": 4044,
      "Ġhugg": 4045,
      "ears": 4046,
      "Ġwar": 4047,
      "Ġwil": 4048,
      "Ġweek": 4049,
      "Ġwriting": 4050,
      "Ġbra": 4051,
      "Ġintern": 4052,
      "Ġmont": 4053,
      "Ġrelease": 4054,
      "Ġreleas": 4055,
      "hole": 4056,
      "eel": 4057,
      "apt": 4058,
      "Ġmov": 4059,
      "asphalt": 4060,
      "rents": 4061,
      "ola": 4062,
      "Ġgoes": 4063,
      "Ġgym": 4064,
      "Ġdate": 4065,
      "Ġduck": 4066,
      "Ġdentist": 4067,
      "ĠHas": 4068,
      "Ġlowly": 4069,
      "unches": 4070,
      "Ġstore": 4071,
      "Ġstones": 4072,
      "ĠSt": 4073,
      "Ġchandeli": 4074,
      "Ġnovelist": 4075,
      "Ġkne": 4076,
      "Ġkick": 4077,
      "Ġitem": 4078,
      "Ġclub": 4079,
      "hikers": 4080,
      "ades": 4081,
      "Ġplatter": 4082,
      "ploy": 4083,
      "Ġvi": 4084,
      "Ġvs": 4085,
      "Ġvintage": 4086,
      "Ġvilla": 4087,
      "Ġvault": 4088,
      "ĠNorth": 4089,
      "Ġarrow": 4090,
      "Ġdeck": 4091,
      "Ġspent": 4092,
      "Ġspoon": 4093,
      "Ġshark": 4094,
      "Ġshoot": 4095
    },
    "merges": [
      [
        "Ġ",
        "="
      ],
      [
        "Ġ",
        ";"
      ],
      [
        "a",
        "n"
      ],
      [
        "e",
        "r"
      ],
      [
        "a",
        "t"
      ],
      [
        "Ġ",
        "c"
      ],
      [
        "Ġ",
        "f"
      ],
      [
        "r",
        "i"
      ],
      [
        "i",
        "n"
      ],
      [
        "r",
        "e"
      ],
      [
        "h",
        "e"
      ],
      [
        "Ġ",
        "a"
      ],
      [
        "s",
        "t"
      ],
      [
        "Ġ",
        "t"
      ],
      [
        "c",
        "e"
      ],
      [
        "e",
        "n"
      ],
      [
        "Ġ",
        "o"
      ],
      [
        "a",
        "m"
      ],
      [
        "Ġ",
        "p"
      ],
      [
        "l",
        "y"
      ],
      [
        "o",
        "o"
      ],
      [
        "in",
        "g"
      ],
      [
        "i",
        "s"
      ],
      [
        "Ġ",
        "|"
      ],
      [
        "oo",
        "d"
      ],
      [
        "Ġ",
        "r"
      ],
      [
        "e",
        "s"
      ],
      [
        "Ġ",
        "s"
      ],
      [
        "g",
        "e"
      ],
      [
        "Ġf",
        "ood"
      ],
      [
        "i",
        "t"
      ],
      [
        "a",
        "r"
      ],
      [
        "T",
        "he"
      ],
      [
        "Ġ",
        "is"
      ],
      [
        "o",
        "m"
      ],
      [
        "Ġ",
        "n"
      ],
      [
        "o",
        "n"
      ],
      [
        "Ġr",
        "at"
      ],
      [
        "Ġt",
        "he"
      ],
      [
        "Ġ",
        "l"
      ],
      [
        "i",
        "d"
      ],
      [
        "Ġo",
        "f"
      ],
      [
        "ri",
        "ce"
      ],
      [
        "en",
        "d"
      ],
      [
        "v",
        "er"
      ],
      [
        "Ġc",
        "u"
      ],
      [
        "Ġrat",
        "ing"
      ],
      [
        "Ġp",
        "rice"
      ],
      [
        "t",
        "s"
      ],
      [
        "am",
        "e"
      ],
      [
        "ri",
        "end"
      ],
      [
        "riend",
        "ly"
      ],
      [
        "st",
        "om"
      ],
      [
        "Ġ",
        "h"
      ],
      [
        "stom",
        "er"
      ],
      [
        "Ġcu",
        "stomer"
      ],
      [
        "n",
        "ame"
      ],
      [
        "Ġ",
        "The"
      ],
      [
        "Ġ",
        "C"
      ],
      [
        "Ġ",
        "I"
      ],
      [
        "Ġ",
        "e"
      ],
      [
        "e",
        "ar"
      ],
      [
        "c",
        "on"
      ],
      [
        "ce",
        "p"
      ],
      [
        "con",
        "cep"
      ],
      [
        "concep",
        "ts"
      ],
      [
        "an",
        "ge"
      ],
      [
        "u",
        "r"
      ],
      [
        "Ġ",
        "w"
      ],
      [
        "Ġ",
        "b"
      ],
      [
        "p",
        "e"
      ],
      [
        "Ġn",
        "ear"
      ],
      [
        "o",
        "w"
      ],
      [
        "Ġ",
        "an"
      ],
      [
        "am",
        "i"
      ],
      [
        "Ġf",
        "ami"
      ],
      [
        "e",
        "d"
      ],
      [
        "Ġfami",
        "ly"
      ],
      [
        "Ġa",
        "re"
      ],
      [
        "Ġ",
        "in"
      ],
      [
        "a",
        "l"
      ],
      [
        "Ġ",
        "m"
      ],
      [
        "Ġe",
        "at"
      ],
      [
        "Ġ",
        "5"
      ],
      [
        "id",
        "e"
      ],
      [
        "en",
        "t"
      ],
      [
        "Ġ",
        "re"
      ],
      [
        "y",
        "pe"
      ],
      [
        "T",
        "ype"
      ],
      [
        "Ġc",
        "o"
      ],
      [
        "Ġeat",
        "Type"
      ],
      [
        "h",
        "o"
      ],
      [
        "Ġ",
        "ri"
      ],
      [
        "Ġare",
        "a"
      ],
      [
        "u",
        "t"
      ],
      [
        "s",
        "ide"
      ],
      [
        "ver",
        "side"
      ],
      [
        "i",
        "l"
      ],
      [
        "f",
        "f"
      ],
      [
        "st",
        "a"
      ],
      [
        "e",
        "e"
      ],
      [
        "R",
        "ange"
      ],
      [
        "Ġri",
        "verside"
      ],
      [
        "an",
        "t"
      ],
      [
        "Ġprice",
        "Range"
      ],
      [
        "Ġan",
        "d"
      ],
      [
        "Ġ",
        "B"
      ],
      [
        "Ġt",
        "h"
      ],
      [
        "sta",
        "ur"
      ],
      [
        "Ġre",
        "staur"
      ],
      [
        "Ġrestaur",
        "ant"
      ],
      [
        "ĠI",
        "t"
      ],
      [
        "Ġo",
        "ut"
      ],
      [
        "Ġs",
        "ho"
      ],
      [
        "g",
        "h"
      ],
      [
        "c",
        "h"
      ],
      [
        "Ġ",
        "F"
      ],
      [
        "ff",
        "ee"
      ],
      [
        "Ġco",
        "ffee"
      ],
      [
        "i",
        "an"
      ],
      [
        "Ġsho",
        "p"
      ],
      [
        "it",
        "y"
      ],
      [
        "o",
        "r"
      ],
      [
        "F",
        "riendly"
      ],
      [
        "Ġfamily",
        "Friendly"
      ],
      [
        "a",
        "p"
      ],
      [
        "Ġc",
        "ity"
      ],
      [
        "i",
        "gh"
      ],
      [
        "Ġm",
        "o"
      ],
      [
        "o",
        "c"
      ],
      [
        "r",
        "a"
      ],
      [
        "Ġ",
        "R"
      ],
      [
        "Â",
        "£"
      ],
      [
        "o",
        "u"
      ],
      [
        "Ġc",
        "ent"
      ],
      [
        "Ġ",
        "y"
      ],
      [
        "Ġ",
        "Â£"
      ],
      [
        "es",
        "e"
      ],
      [
        "Ġh",
        "igh"
      ],
      [
        "l",
        "e"
      ],
      [
        "Ġcent",
        "re"
      ],
      [
        "a",
        "s"
      ],
      [
        "it",
        "h"
      ],
      [
        "v",
        "e"
      ],
      [
        "Ġw",
        "ith"
      ],
      [
        "Ġy",
        "es"
      ],
      [
        "n",
        "d"
      ],
      [
        "at",
        "ed"
      ],
      [
        "Ġf",
        "riendly"
      ],
      [
        "Ġ",
        "E"
      ],
      [
        "o",
        "t"
      ],
      [
        "Ġ",
        "P"
      ],
      [
        "re",
        "n"
      ],
      [
        "at",
        "e"
      ],
      [
        "o",
        "l"
      ],
      [
        "oc",
        "ated"
      ],
      [
        "a",
        "st"
      ],
      [
        "Ġ",
        "g"
      ],
      [
        "Ġth",
        "an"
      ],
      [
        "Ġ",
        "d"
      ],
      [
        "u",
        "b"
      ],
      [
        "2",
        "0"
      ],
      [
        "l",
        "i"
      ],
      [
        "a",
        "ge"
      ],
      [
        "Ġp",
        "ub"
      ],
      [
        "Ġh",
        "as"
      ],
      [
        "u",
        "m"
      ],
      [
        "Ġl",
        "ocated"
      ],
      [
        "Ġo",
        "n"
      ],
      [
        "Ġs",
        "er"
      ],
      [
        "er",
        "s"
      ],
      [
        "d",
        "er"
      ],
      [
        "Ġ",
        "A"
      ],
      [
        "ver",
        "age"
      ],
      [
        "Ġ",
        "W"
      ],
      [
        "Ġa",
        "verage"
      ],
      [
        "il",
        "d"
      ],
      [
        "l",
        "a"
      ],
      [
        "Ġ",
        "H"
      ],
      [
        "nd",
        "ian"
      ],
      [
        "n",
        "g"
      ],
      [
        "al",
        "l"
      ],
      [
        "Ġl",
        "ow"
      ],
      [
        "ĠI",
        "ndian"
      ],
      [
        "Ġser",
        "v"
      ],
      [
        "al",
        "ian"
      ],
      [
        "i",
        "ce"
      ],
      [
        "ĠIt",
        "alian"
      ],
      [
        "u",
        "n"
      ],
      [
        "ow",
        "n"
      ],
      [
        "Ġr",
        "ange"
      ],
      [
        "an",
        "ese"
      ],
      [
        "ap",
        "anese"
      ],
      [
        "J",
        "apanese"
      ],
      [
        "der",
        "ate"
      ],
      [
        "Ġt",
        "o"
      ],
      [
        "is",
        "h"
      ],
      [
        "Ġmo",
        "derate"
      ],
      [
        "Ġ",
        "Japanese"
      ],
      [
        "Ġ",
        "st"
      ],
      [
        "Ġc",
        "he"
      ],
      [
        "ren",
        "ch"
      ],
      [
        "ĠF",
        "rench"
      ],
      [
        "o",
        "at"
      ],
      [
        "a",
        "f"
      ],
      [
        "Ġ",
        "G"
      ],
      [
        "Ã",
        "©"
      ],
      [
        "af",
        "Ã©"
      ],
      [
        "ĠC",
        "afÃ©"
      ],
      [
        "Ġ",
        "S"
      ],
      [
        "Ġche",
        "ap"
      ],
      [
        "Ġ",
        "at"
      ],
      [
        "a",
        "y"
      ],
      [
        "Ġc",
        "h"
      ],
      [
        "l",
        "ish"
      ],
      [
        "es",
        "s"
      ],
      [
        "e",
        "l"
      ],
      [
        "Ġ",
        "T"
      ],
      [
        "h",
        "in"
      ],
      [
        "Ġ",
        "3"
      ],
      [
        "i",
        "r"
      ],
      [
        "Ġserv",
        "es"
      ],
      [
        "ri",
        "d"
      ],
      [
        "Ġ",
        "1"
      ],
      [
        "ng",
        "lish"
      ],
      [
        "at",
        "er"
      ],
      [
        "ĠE",
        "nglish"
      ],
      [
        "Ġn",
        "o"
      ],
      [
        "Ġth",
        "at"
      ],
      [
        "r",
        "o"
      ],
      [
        "Ġl",
        "ess"
      ],
      [
        "rid",
        "ge"
      ],
      [
        "hin",
        "ese"
      ],
      [
        "ĠC",
        "hinese"
      ],
      [
        "ĠB",
        "oat"
      ],
      [
        "ĠR",
        "ice"
      ],
      [
        "s",
        "e"
      ],
      [
        "u",
        "e"
      ],
      [
        "Ġb",
        "y"
      ],
      [
        "i",
        "c"
      ],
      [
        "ĠF",
        "ast"
      ],
      [
        "s",
        "s"
      ],
      [
        "r",
        "own"
      ],
      [
        "Ġ",
        "k"
      ],
      [
        "ol",
        "d"
      ],
      [
        "an",
        "d"
      ],
      [
        "m",
        "an"
      ],
      [
        "am",
        "b"
      ],
      [
        "Ġch",
        "ild"
      ],
      [
        "ĠC",
        "amb"
      ],
      [
        "ĠCamb",
        "ridge"
      ],
      [
        "Ġ",
        "it"
      ],
      [
        "a",
        "in"
      ],
      [
        "Ġmo",
        "re"
      ],
      [
        "h",
        "er"
      ],
      [
        "Ġ",
        "."
      ],
      [
        "Ġn",
        "ot"
      ],
      [
        "e",
        "t"
      ],
      [
        "3",
        "0"
      ],
      [
        "ater",
        "man"
      ],
      [
        "ĠW",
        "aterman"
      ],
      [
        "oo",
        "m"
      ],
      [
        "or",
        "t"
      ],
      [
        "Ġt",
        "ra"
      ],
      [
        "Ġf",
        "or"
      ],
      [
        "n",
        "e"
      ],
      [
        "Ġk",
        "id"
      ],
      [
        "x",
        "p"
      ],
      [
        "2",
        "5"
      ],
      [
        "t",
        "er"
      ],
      [
        "f",
        "riendly"
      ],
      [
        "a",
        "k"
      ],
      [
        "m",
        "ent"
      ],
      [
        "r",
        "y"
      ],
      [
        "i",
        "on"
      ],
      [
        "t",
        "o"
      ],
      [
        "e",
        "a"
      ],
      [
        "old",
        "en"
      ],
      [
        "ĠG",
        "olden"
      ],
      [
        "re",
        "e"
      ],
      [
        "l",
        "l"
      ],
      [
        "li",
        "es"
      ],
      [
        "l",
        "ue"
      ],
      [
        "ĠA",
        "r"
      ],
      [
        "Ġp",
        "la"
      ],
      [
        "Ġ",
        "O"
      ],
      [
        "Ġc",
        "l"
      ],
      [
        "ĠT",
        "w"
      ],
      [
        "Ġ",
        "M"
      ],
      [
        "ĠB",
        "ar"
      ],
      [
        "a",
        "g"
      ],
      [
        "Ġprice",
        "d"
      ],
      [
        "Ġ",
        "V"
      ],
      [
        "b",
        "il"
      ],
      [
        "it",
        "z"
      ],
      [
        "itz",
        "bil"
      ],
      [
        "itzbil",
        "lies"
      ],
      [
        "Ġrat",
        "ed"
      ],
      [
        "h",
        "i"
      ],
      [
        "re",
        "st"
      ],
      [
        "il",
        "l"
      ],
      [
        "c",
        "t"
      ],
      [
        "Ġc",
        "all"
      ],
      [
        "i",
        "x"
      ],
      [
        "her",
        "e"
      ],
      [
        "z",
        "a"
      ],
      [
        "a",
        "d"
      ],
      [
        "Ġcall",
        "ed"
      ],
      [
        "t",
        "ra"
      ],
      [
        "i",
        "z"
      ],
      [
        "Ġof",
        "f"
      ],
      [
        "re",
        "ss"
      ],
      [
        "ag",
        "le"
      ],
      [
        "u",
        "l"
      ],
      [
        "c",
        "k"
      ],
      [
        "rown",
        "s"
      ],
      [
        "ĠE",
        "agle"
      ],
      [
        "Ġf",
        "ast"
      ],
      [
        "l",
        "and"
      ],
      [
        "id",
        "ay"
      ],
      [
        "ol",
        "iday"
      ],
      [
        "Ġf",
        "l"
      ],
      [
        "m",
        "s"
      ],
      [
        "ge",
        "t"
      ],
      [
        "ur",
        "ry"
      ],
      [
        "ĠC",
        "urry"
      ],
      [
        "li",
        "ment"
      ],
      [
        "liment",
        "um"
      ],
      [
        "d",
        "a"
      ],
      [
        "Ġs",
        "k"
      ],
      [
        "i",
        "ve"
      ],
      [
        "oo",
        "k"
      ],
      [
        "ĠI",
        "n"
      ],
      [
        "ĠB",
        "lue"
      ],
      [
        "xp",
        "ress"
      ],
      [
        "ĠH",
        "oliday"
      ],
      [
        "ĠIn",
        "n"
      ],
      [
        "ĠE",
        "xpress"
      ],
      [
        "Ġp",
        "ro"
      ],
      [
        "tra",
        "da"
      ],
      [
        "ĠR",
        "ou"
      ],
      [
        "ĠRou",
        "ge"
      ],
      [
        "ĠP",
        "ort"
      ],
      [
        "ĠAr",
        "ms"
      ],
      [
        "ĠPort",
        "land"
      ],
      [
        "om",
        "e"
      ],
      [
        "g",
        "er"
      ],
      [
        "r",
        "oom"
      ],
      [
        "l",
        "ers"
      ],
      [
        "rest",
        "lers"
      ],
      [
        "ĠW",
        "restlers"
      ],
      [
        "Ġchild",
        "ren"
      ],
      [
        "en",
        "ix"
      ],
      [
        "ho",
        "enix"
      ],
      [
        "ĠP",
        "hoenix"
      ],
      [
        "a",
        "ri"
      ],
      [
        "a",
        "b"
      ],
      [
        "ou",
        "nd"
      ],
      [
        "T",
        "here"
      ],
      [
        "Ġp",
        "l"
      ],
      [
        "Ġtra",
        "in"
      ],
      [
        "Ġf",
        "r"
      ],
      [
        "ot",
        "to"
      ],
      [
        "Ġpla",
        "ce"
      ],
      [
        "ĠF",
        "itzbillies"
      ],
      [
        "p",
        "l"
      ],
      [
        "ou",
        "se"
      ],
      [
        "in",
        "e"
      ],
      [
        "ĠH",
        "ouse"
      ],
      [
        "i",
        "m"
      ],
      [
        "o",
        "ch"
      ],
      [
        "Ġpro",
        "v"
      ],
      [
        "y",
        "ne"
      ],
      [
        "L",
        "och"
      ],
      [
        "ĠF",
        "yne"
      ],
      [
        "Ġ",
        "v"
      ],
      [
        "a",
        "ce"
      ],
      [
        "un",
        "ter"
      ],
      [
        "Ġb",
        "e"
      ],
      [
        "Ġprice",
        "s"
      ],
      [
        "Ġprov",
        "id"
      ],
      [
        "Ġ",
        "N"
      ],
      [
        "ar",
        "k"
      ],
      [
        "ar",
        "d"
      ],
      [
        "Ġ",
        "K"
      ],
      [
        "Ġg",
        "ra"
      ],
      [
        "ĠB",
        "rowns"
      ],
      [
        "m",
        "er"
      ],
      [
        "ur",
        "ger"
      ],
      [
        "ow",
        "er"
      ],
      [
        "Ġt",
        "ree"
      ],
      [
        "ĠP",
        "unter"
      ],
      [
        "Ġa",
        "ir"
      ],
      [
        "oc",
        "um"
      ],
      [
        "i",
        "p"
      ],
      [
        "b",
        "ow"
      ],
      [
        "Ġsk",
        "y"
      ],
      [
        "ain",
        "bow"
      ],
      [
        "ĠS",
        "p"
      ],
      [
        "ĠK",
        "ing"
      ],
      [
        "ot",
        "el"
      ],
      [
        "Ġ",
        "Y"
      ],
      [
        "ĠSp",
        "ice"
      ],
      [
        "ĠB",
        "urger"
      ],
      [
        "Ġb",
        "u"
      ],
      [
        "pe",
        "e"
      ],
      [
        "ĠP",
        "la"
      ],
      [
        "ĠPla",
        "za"
      ],
      [
        "at",
        "h"
      ],
      [
        "ĠH",
        "otel"
      ],
      [
        "ari",
        "an"
      ],
      [
        "ĠC",
        "rown"
      ],
      [
        "ĠA",
        "limentum"
      ],
      [
        "get",
        "arian"
      ],
      [
        "ĠV",
        "e"
      ],
      [
        "ĠVe",
        "getarian"
      ],
      [
        "Ġoff",
        "ers"
      ],
      [
        "ĠR",
        "ainbow"
      ],
      [
        "Ġb",
        "ut"
      ],
      [
        "ent",
        "y"
      ],
      [
        "li",
        "ve"
      ],
      [
        "ro",
        "ve"
      ],
      [
        "ood",
        "le"
      ],
      [
        "Ġf",
        "i"
      ],
      [
        "an",
        "e"
      ],
      [
        "ĠO",
        "live"
      ],
      [
        "ĠG",
        "rove"
      ],
      [
        "ĠS",
        "trada"
      ],
      [
        "ak",
        "e"
      ],
      [
        "ĠN",
        "oodle"
      ],
      [
        "ip",
        "pee"
      ],
      [
        "ĠY",
        "ippee"
      ],
      [
        "ou",
        "d"
      ],
      [
        "ĠTw",
        "o"
      ],
      [
        "ĠTw",
        "enty"
      ],
      [
        "ĠCrown",
        "e"
      ],
      [
        "om",
        "i"
      ],
      [
        "oc",
        "k"
      ],
      [
        "um",
        "mer"
      ],
      [
        "Ġst",
        "ar"
      ],
      [
        "Ġr",
        "oom"
      ],
      [
        "Ġ",
        "u"
      ],
      [
        "ra",
        "ff"
      ],
      [
        "ĠO",
        "ne"
      ],
      [
        "i",
        "raff"
      ],
      [
        "as",
        "s"
      ],
      [
        "ul",
        "ts"
      ],
      [
        "l",
        "s"
      ],
      [
        "iz",
        "z"
      ],
      [
        "ĠA",
        "ll"
      ],
      [
        "un",
        "t"
      ],
      [
        "Ġserv",
        "ing"
      ],
      [
        "ĠC",
        "otto"
      ],
      [
        "w",
        "ood"
      ],
      [
        "ri",
        "ng"
      ],
      [
        "in",
        "d"
      ],
      [
        "Ġl",
        "ook"
      ],
      [
        "Z",
        "izz"
      ],
      [
        "Ġl",
        "i"
      ],
      [
        "ild",
        "wood"
      ],
      [
        "Zizz",
        "i"
      ],
      [
        "Ġb",
        "ath"
      ],
      [
        "id",
        "s"
      ],
      [
        "Ġcl",
        "oud"
      ],
      [
        "Ġg",
        "r"
      ],
      [
        "Ġ",
        "Loch"
      ],
      [
        "Ġa",
        "r"
      ],
      [
        "re",
        "en"
      ],
      [
        "Ġs",
        "un"
      ],
      [
        "Ġw",
        "all"
      ],
      [
        "Ġs",
        "it"
      ],
      [
        "i",
        "verside"
      ],
      [
        "Ġfr",
        "om"
      ],
      [
        "i",
        "a"
      ],
      [
        "en",
        "s"
      ],
      [
        "Ġw",
        "hi"
      ],
      [
        "p",
        "le"
      ],
      [
        "ou",
        "gh"
      ],
      [
        "ids",
        "ummer"
      ],
      [
        "iraff",
        "e"
      ],
      [
        "b",
        "o"
      ],
      [
        "Ġmoderate",
        "ly"
      ],
      [
        "is",
        "ine"
      ],
      [
        "a",
        "ults"
      ],
      [
        "ĠV",
        "aults"
      ],
      [
        "Ġwhi",
        "ch"
      ],
      [
        "ĠS",
        "ic"
      ],
      [
        "ĠSic",
        "il"
      ],
      [
        "ĠSicil",
        "ia"
      ],
      [
        "an",
        "ch"
      ],
      [
        "ĠR",
        "iverside"
      ],
      [
        "Ġl",
        "ea"
      ],
      [
        "at",
        "ion"
      ],
      [
        "Ġ",
        "he"
      ],
      [
        "ĠM",
        "ill"
      ],
      [
        "Ġe",
        "xp"
      ],
      [
        "ens",
        "ive"
      ],
      [
        "Ġn",
        "e"
      ],
      [
        "u",
        "re"
      ],
      [
        "Ġbath",
        "room"
      ],
      [
        "Ġo",
        "ver"
      ],
      [
        "Ġkid",
        "s"
      ],
      [
        "la",
        "re"
      ],
      [
        "Ġd",
        "e"
      ],
      [
        "Ġs",
        "p"
      ],
      [
        "Ġh",
        "a"
      ],
      [
        "Ġs",
        "h"
      ],
      [
        "Ġb",
        "oat"
      ],
      [
        "ĠC",
        "ocum"
      ],
      [
        "o",
        "g"
      ],
      [
        "Ġrating",
        "s"
      ],
      [
        "Ġw",
        "or"
      ],
      [
        "ĠR",
        "anch"
      ],
      [
        "'",
        "s"
      ],
      [
        "Ġprovid",
        "es"
      ],
      [
        "at",
        "ch"
      ],
      [
        "al",
        "k"
      ],
      [
        "igh",
        "t"
      ],
      [
        "u",
        "d"
      ],
      [
        "ĠH",
        "all"
      ],
      [
        "ĠC",
        "lare"
      ],
      [
        "Ġbu",
        "ild"
      ],
      [
        "Ġy",
        "ou"
      ],
      [
        "er",
        "e"
      ],
      [
        "Ġd",
        "ay"
      ],
      [
        "own",
        "s"
      ],
      [
        "l",
        "owns"
      ],
      [
        "v",
        "ing"
      ],
      [
        "Ġs",
        "he"
      ],
      [
        "Ġp",
        "ark"
      ],
      [
        "al",
        "ace"
      ],
      [
        "ab",
        "le"
      ],
      [
        "u",
        "s"
      ],
      [
        "Ġa",
        "s"
      ],
      [
        "ĠAr",
        "omi"
      ],
      [
        "L",
        "ocated"
      ],
      [
        "Ġc",
        "an"
      ],
      [
        "ĠP",
        "alace"
      ],
      [
        "ĠC",
        "u"
      ],
      [
        "o",
        "s"
      ],
      [
        "Ġpla",
        "y"
      ],
      [
        "el",
        "d"
      ],
      [
        "Ġc",
        "on"
      ],
      [
        "hi",
        "p"
      ],
      [
        "ĠW",
        "ildwood"
      ],
      [
        "ct",
        "ion"
      ],
      [
        "Ġmo",
        "unt"
      ],
      [
        "Ġc",
        "ar"
      ],
      [
        "Ġ",
        "Zizzi"
      ],
      [
        "z",
        "e"
      ],
      [
        "Ġpl",
        "ate"
      ],
      [
        "Ġa",
        "d"
      ],
      [
        "ar",
        "t"
      ],
      [
        "Ġgra",
        "ss"
      ],
      [
        "ĠThe",
        "y"
      ],
      [
        "iz",
        "za"
      ],
      [
        "Ġs",
        "m"
      ],
      [
        "Ġw",
        "h"
      ],
      [
        "Ġbuild",
        "ing"
      ],
      [
        "e",
        "st"
      ],
      [
        "Ġn",
        "ame"
      ],
      [
        "it",
        "e"
      ],
      [
        "Ġp",
        "izza"
      ],
      [
        "Ġexp",
        "ensive"
      ],
      [
        "Ġfi",
        "eld"
      ],
      [
        "u",
        "ring"
      ],
      [
        "e",
        "p"
      ],
      [
        "t",
        "he"
      ],
      [
        "ĠM",
        "idsummer"
      ],
      [
        "Ġ",
        "D"
      ],
      [
        "Ġc",
        "om"
      ],
      [
        "Ġfl",
        "ower"
      ],
      [
        "Ġ",
        "j"
      ],
      [
        "Ġha",
        "ve"
      ],
      [
        "um",
        "pl"
      ],
      [
        "ĠT",
        "ree"
      ],
      [
        "ĠD",
        "umpl"
      ],
      [
        "ĠDumpl",
        "ing"
      ],
      [
        "Ġw",
        "ind"
      ],
      [
        "Ġhigh",
        "ly"
      ],
      [
        "el",
        "ls"
      ],
      [
        "Ġ",
        "en"
      ],
      [
        "Ġmount",
        "ain"
      ],
      [
        "F",
        "itzbillies"
      ],
      [
        "t",
        "ing"
      ],
      [
        "Ġd",
        "uring"
      ],
      [
        "Ġw",
        "alk"
      ],
      [
        "Ġc",
        "at"
      ],
      [
        "Ġname",
        "d"
      ],
      [
        "a",
        "ir"
      ],
      [
        "w",
        "o"
      ],
      [
        "Ġst",
        "and"
      ],
      [
        "p",
        "ort"
      ],
      [
        "ri",
        "ck"
      ],
      [
        "ic",
        "ian"
      ],
      [
        "Ġgr",
        "ow"
      ],
      [
        "an",
        "g"
      ],
      [
        "x",
        "t"
      ],
      [
        "ak",
        "ers"
      ],
      [
        "Ġm",
        "atch"
      ],
      [
        "ea",
        "ch"
      ],
      [
        "ĠM",
        "an"
      ],
      [
        "Ġf",
        "o"
      ],
      [
        "ĠC",
        "lowns"
      ],
      [
        "pl",
        "ane"
      ],
      [
        "ĠB",
        "akers"
      ],
      [
        "Ġb",
        "o"
      ],
      [
        "Ġo",
        "r"
      ],
      [
        "Ġh",
        "er"
      ],
      [
        "Ġt",
        "e"
      ],
      [
        "Ġm",
        "e"
      ],
      [
        "I",
        "n"
      ],
      [
        "ol",
        "it"
      ],
      [
        "Ġit",
        "s"
      ],
      [
        "Ġto",
        "p"
      ],
      [
        "ĠI",
        "ts"
      ],
      [
        "w",
        "ay"
      ],
      [
        "Ġcent",
        "er"
      ],
      [
        "olit",
        "ician"
      ],
      [
        "rick",
        "et"
      ],
      [
        "B",
        "rowns"
      ],
      [
        "i",
        "e"
      ],
      [
        "Ġs",
        "ea"
      ],
      [
        "Ġcustomer",
        "s"
      ],
      [
        "Ġplay",
        "er"
      ],
      [
        "i",
        "v"
      ],
      [
        "Ġco",
        "l"
      ],
      [
        "Ġth",
        "ere"
      ],
      [
        "Ġh",
        "is"
      ],
      [
        "Ġri",
        "ver"
      ],
      [
        "il",
        "e"
      ],
      [
        "Ġair",
        "plane"
      ],
      [
        "t",
        "e"
      ],
      [
        "Ġh",
        "ome"
      ],
      [
        "Ġm",
        "an"
      ],
      [
        "o",
        "ad"
      ],
      [
        "Ġl",
        "ake"
      ],
      [
        "Ġb",
        "ed"
      ],
      [
        "Ġtra",
        "ck"
      ],
      [
        "N",
        "ear"
      ],
      [
        "ĠS",
        "or"
      ],
      [
        "Ġu",
        "p"
      ],
      [
        "ricket",
        "ers"
      ],
      [
        "p",
        "h"
      ],
      [
        "ĠC",
        "ricketers"
      ],
      [
        "ren",
        "to"
      ],
      [
        "Ġshe",
        "ep"
      ],
      [
        "ĠSor",
        "rento"
      ],
      [
        "Ġfo",
        "rest"
      ],
      [
        "Ġe",
        "le"
      ],
      [
        "i",
        "b"
      ],
      [
        "A",
        "limentum"
      ],
      [
        "Ġthe",
        "ir"
      ],
      [
        "on",
        "g"
      ],
      [
        "c",
        "l"
      ],
      [
        "Ġp",
        "ass"
      ],
      [
        "Ġco",
        "u"
      ],
      [
        "Ġb",
        "ridge"
      ],
      [
        "o",
        "se"
      ],
      [
        "h",
        "is"
      ],
      [
        "i",
        "st"
      ],
      [
        "Ġ",
        "20"
      ],
      [
        "l",
        "d"
      ],
      [
        "Ġst",
        "ud"
      ],
      [
        "a",
        "j"
      ],
      [
        "f",
        "e"
      ],
      [
        "ĠCu",
        "isine"
      ],
      [
        "k",
        "e"
      ],
      [
        "im",
        "b"
      ],
      [
        "Ġcu",
        "isine"
      ],
      [
        "Ġair",
        "port"
      ],
      [
        "ra",
        "z"
      ],
      [
        "Ġprovid",
        "ing"
      ],
      [
        "Ġs",
        "l"
      ],
      [
        "Ġd",
        "own"
      ],
      [
        "ĠR",
        "aj"
      ],
      [
        "ĠRaj",
        "a"
      ],
      [
        "ib",
        "imb"
      ],
      [
        "ibimb",
        "ap"
      ],
      [
        "r",
        "u"
      ],
      [
        "ĠG",
        "iraffe"
      ],
      [
        "a",
        "c"
      ],
      [
        "on",
        "e"
      ],
      [
        "raz",
        "il"
      ],
      [
        "p",
        "rice"
      ],
      [
        "ĠB",
        "razil"
      ],
      [
        "ĠG",
        "reen"
      ],
      [
        "Ġcl",
        "ock"
      ],
      [
        "Ġco",
        "st"
      ],
      [
        "Ġwh",
        "ite"
      ],
      [
        "Ġth",
        "r"
      ],
      [
        "Ġ",
        "sta"
      ],
      [
        "Ġa",
        "l"
      ],
      [
        "Ġb",
        "each"
      ],
      [
        "Ġoff",
        "er"
      ],
      [
        "Ġpl",
        "ane"
      ],
      [
        "n",
        "ing"
      ],
      [
        "re",
        "es"
      ],
      [
        "Ġwind",
        "ow"
      ],
      [
        "Ġfi",
        "re"
      ],
      [
        "Ġne",
        "xt"
      ],
      [
        "Ġst",
        "ation"
      ],
      [
        "Ġfl",
        "ow"
      ],
      [
        "u",
        "it"
      ],
      [
        "Ġr",
        "un"
      ],
      [
        "v",
        "es"
      ],
      [
        "ve",
        "l"
      ],
      [
        "A",
        "n"
      ],
      [
        "S",
        "trada"
      ],
      [
        "q",
        "u"
      ],
      [
        "price",
        "d"
      ],
      [
        "a",
        "ch"
      ],
      [
        "o",
        "ur"
      ],
      [
        "ar",
        "m"
      ],
      [
        "Ġf",
        "e"
      ],
      [
        "ar",
        "ge"
      ],
      [
        "Ġwor",
        "k"
      ],
      [
        "Ġs",
        "e"
      ],
      [
        "Ġth",
        "is"
      ],
      [
        "t",
        "ain"
      ],
      [
        "ri",
        "st"
      ],
      [
        "ĠP",
        "l"
      ],
      [
        "Ġser",
        "ve"
      ],
      [
        "Ġs",
        "ome"
      ],
      [
        "Ġw",
        "ater"
      ],
      [
        "ĠPl",
        "ough"
      ],
      [
        "Ġf",
        "ly"
      ],
      [
        "Ġh",
        "ar"
      ],
      [
        "C",
        "ocum"
      ],
      [
        "Ġmo",
        "t"
      ],
      [
        "ast",
        "e"
      ],
      [
        "ĠC",
        "ity"
      ],
      [
        "b",
        "r"
      ],
      [
        "C",
        "otto"
      ],
      [
        "b",
        "ra"
      ],
      [
        "oo",
        "r"
      ],
      [
        "Ġthr",
        "ough"
      ],
      [
        "T",
        "wo"
      ],
      [
        "Ġb",
        "r"
      ],
      [
        "at",
        "ic"
      ],
      [
        "nd",
        "er"
      ],
      [
        "p",
        "ing"
      ],
      [
        "s",
        "hip"
      ],
      [
        "Ġt",
        "rees"
      ],
      [
        "oo",
        "t"
      ],
      [
        "Ġele",
        "ph"
      ],
      [
        "Ġe",
        "v"
      ],
      [
        "Ġ",
        "ve"
      ],
      [
        "Ġc",
        "e"
      ],
      [
        "el",
        "l"
      ],
      [
        "f",
        "t"
      ],
      [
        "Ġb",
        "l"
      ],
      [
        "Ġu",
        "nder"
      ],
      [
        "a",
        "u"
      ],
      [
        "Ġt",
        "able"
      ],
      [
        "Ġb",
        "lue"
      ],
      [
        "n",
        "ow"
      ],
      [
        "Ġcloud",
        "s"
      ],
      [
        "d",
        "ri"
      ],
      [
        "Ġl",
        "o"
      ],
      [
        "Ġl",
        "ight"
      ],
      [
        "Ġg",
        "ard"
      ],
      [
        "Ġon",
        "e"
      ],
      [
        "ze",
        "bra"
      ],
      [
        "ur",
        "n"
      ],
      [
        "Ġlook",
        "ing"
      ],
      [
        "u",
        "ll"
      ],
      [
        "is",
        "it"
      ],
      [
        "Ġ",
        "zebra"
      ],
      [
        "at",
        "ing"
      ],
      [
        "Ġp",
        "olitician"
      ],
      [
        "Ġs",
        "hip"
      ],
      [
        "a",
        "il"
      ],
      [
        "il",
        "et"
      ],
      [
        "Ġtra",
        "vel"
      ],
      [
        "B",
        "lue"
      ],
      [
        "ĠA",
        "dri"
      ],
      [
        "Ġto",
        "ilet"
      ],
      [
        "Ġgard",
        "en"
      ],
      [
        "ĠAdri",
        "atic"
      ],
      [
        "Ġco",
        "ver"
      ],
      [
        "F",
        "or"
      ],
      [
        "Ġg",
        "re"
      ],
      [
        "Ġg",
        "iraffe"
      ],
      [
        "Ġa",
        "p"
      ],
      [
        "Ġb",
        "re"
      ],
      [
        "al",
        "e"
      ],
      [
        "Ġf",
        "ive"
      ],
      [
        "Ġp",
        "at"
      ],
      [
        "Ġthe",
        "y"
      ],
      [
        "Ġd",
        "og"
      ],
      [
        "os",
        "p"
      ],
      [
        "Ġn",
        "on"
      ],
      [
        "im",
        "e"
      ],
      [
        "Ġr",
        "oad"
      ],
      [
        "ro",
        "ss"
      ],
      [
        "ver",
        "y"
      ],
      [
        "Ġar",
        "ri"
      ],
      [
        "Ġche",
        "ese"
      ],
      [
        "v",
        "al"
      ],
      [
        "Ġin",
        "to"
      ],
      [
        "Ġt",
        "ower"
      ],
      [
        "ls",
        "o"
      ],
      [
        "c",
        "or"
      ],
      [
        "Ġf",
        "ound"
      ],
      [
        "Ġre",
        "f"
      ],
      [
        "Ġg",
        "reen"
      ],
      [
        "Ġcl",
        "ose"
      ],
      [
        "Ġa",
        "bo"
      ],
      [
        "ve",
        "ll"
      ],
      [
        "A",
        "r"
      ],
      [
        "Ġl",
        "arge"
      ],
      [
        "ĠB",
        "ells"
      ],
      [
        "ĠS",
        "ix"
      ],
      [
        "Ġv",
        "isit"
      ],
      [
        "Ar",
        "omi"
      ],
      [
        "Ġt",
        "ake"
      ],
      [
        "Ġoffer",
        "ing"
      ],
      [
        "o",
        "p"
      ],
      [
        "Ġw",
        "a"
      ],
      [
        "Ġa",
        "lso"
      ],
      [
        "ou",
        "rist"
      ],
      [
        "Ġs",
        "ur"
      ],
      [
        "ĠB",
        "ibimbap"
      ],
      [
        "Ġe",
        "x"
      ],
      [
        "sta",
        "b"
      ],
      [
        "ir",
        "on"
      ],
      [
        "Ġsm",
        "all"
      ],
      [
        "stab",
        "lish"
      ],
      [
        "Ġe",
        "stablish"
      ],
      [
        "i",
        "er"
      ],
      [
        "u",
        "st"
      ],
      [
        "ou",
        "s"
      ],
      [
        "Ġg",
        "ood"
      ],
      [
        "he",
        "s"
      ],
      [
        "Ġar",
        "ound"
      ],
      [
        "Ġh",
        "ang"
      ],
      [
        "or",
        "m"
      ],
      [
        "Ġp",
        "ort"
      ],
      [
        "Ġs",
        "ide"
      ],
      [
        "Ġeleph",
        "ant"
      ],
      [
        "c",
        "ol"
      ],
      [
        "Ġs",
        "now"
      ],
      [
        "t",
        "y"
      ],
      [
        "v",
        "iron"
      ],
      [
        "om",
        "an"
      ],
      [
        "Ġce",
        "le"
      ],
      [
        "c",
        "i"
      ],
      [
        "Ġestablish",
        "ment"
      ],
      [
        "le",
        "ct"
      ],
      [
        "Ġen",
        "viron"
      ],
      [
        "re",
        "d"
      ],
      [
        "Ġp",
        "er"
      ],
      [
        "Ġco",
        "unt"
      ],
      [
        "b",
        "all"
      ],
      [
        "Ġb",
        "an"
      ],
      [
        "Ġenviron",
        "ment"
      ],
      [
        "Ġr",
        "ock"
      ],
      [
        "ul",
        "t"
      ],
      [
        "Ġal",
        "ong"
      ],
      [
        "ound",
        "s"
      ],
      [
        "Ġstar",
        "s"
      ],
      [
        "ĠCu",
        "stomer"
      ],
      [
        "Ġbed",
        "room"
      ],
      [
        "Ġflow",
        "ers"
      ],
      [
        "ri",
        "se"
      ],
      [
        "u",
        "ts"
      ],
      [
        "oo",
        "n"
      ],
      [
        "Ġs",
        "ells"
      ],
      [
        "ee",
        "fe"
      ],
      [
        "ĠB",
        "eefe"
      ],
      [
        "ra",
        "vell"
      ],
      [
        "ĠR",
        "est"
      ],
      [
        "ravell",
        "ers"
      ],
      [
        "le",
        "te"
      ],
      [
        "Ġl",
        "e"
      ],
      [
        "Ġon",
        "ly"
      ],
      [
        "ĠT",
        "aste"
      ],
      [
        "l",
        "es"
      ],
      [
        "g",
        "g"
      ],
      [
        "o",
        "ple"
      ],
      [
        "Ġwor",
        "ship"
      ],
      [
        "Ġme",
        "al"
      ],
      [
        "ĠBeefe",
        "ater"
      ],
      [
        "Ġv",
        "en"
      ],
      [
        "Ġde",
        "cor"
      ],
      [
        "Ġad",
        "d"
      ],
      [
        "i",
        "f"
      ],
      [
        "ĠA",
        "val"
      ],
      [
        "ĠAval",
        "on"
      ],
      [
        "r",
        "ow"
      ],
      [
        "Ġre",
        "ce"
      ],
      [
        "W",
        "ildwood"
      ],
      [
        "Ġ",
        "qu"
      ],
      [
        "Ġcol",
        "or"
      ],
      [
        "o",
        "es"
      ],
      [
        "y",
        "le"
      ],
      [
        "oo",
        "l"
      ],
      [
        "Ġs",
        "o"
      ],
      [
        "Ġven",
        "ue"
      ],
      [
        "Ġo",
        "p"
      ],
      [
        "ol",
        "l"
      ],
      [
        "Ġst",
        "re"
      ],
      [
        "Ġf",
        "ish"
      ],
      [
        "Ġm",
        "id"
      ],
      [
        "Ġrun",
        "way"
      ],
      [
        "Ġcele",
        "br"
      ],
      [
        "Ġf",
        "ill"
      ],
      [
        "Ġh",
        "ill"
      ],
      [
        "im",
        "age"
      ],
      [
        "m",
        "on"
      ],
      [
        "Ġh",
        "old"
      ],
      [
        "M",
        "idsummer"
      ],
      [
        "t",
        "le"
      ],
      [
        "b",
        "er"
      ],
      [
        "Ġf",
        "ind"
      ],
      [
        "Ġch",
        "air"
      ],
      [
        "ĠT",
        "his"
      ],
      [
        "Ġcount",
        "ry"
      ],
      [
        "Ġw",
        "in"
      ],
      [
        "Ġri",
        "se"
      ],
      [
        "ark",
        "et"
      ],
      [
        "Ġlea",
        "d"
      ],
      [
        "Ġp",
        "ounds"
      ],
      [
        "Ġs",
        "pe"
      ],
      [
        "Ġl",
        "ap"
      ],
      [
        "Ġhe",
        "art"
      ],
      [
        "Ġcou",
        "ple"
      ],
      [
        "Ġsho",
        "t"
      ],
      [
        "bo",
        "ard"
      ],
      [
        "c",
        "o"
      ],
      [
        "Ġl",
        "oc"
      ],
      [
        "an",
        "s"
      ],
      [
        "Ġd",
        "ri"
      ],
      [
        "Ġ3",
        "0"
      ],
      [
        "Ġa",
        "ll"
      ],
      [
        "Ġsp",
        "ace"
      ],
      [
        "Ġh",
        "or"
      ],
      [
        "ter",
        "n"
      ],
      [
        "oot",
        "ball"
      ],
      [
        "en",
        "ts"
      ],
      [
        "Ġstud",
        "ent"
      ],
      [
        "a",
        "re"
      ],
      [
        "u",
        "p"
      ],
      [
        "Ġsun",
        "rise"
      ],
      [
        "r",
        "ot"
      ],
      [
        "Ġp",
        "e"
      ],
      [
        "Ġb",
        "ear"
      ],
      [
        "Ġy",
        "our"
      ],
      [
        "Ġve",
        "get"
      ],
      [
        "Ġbre",
        "ak"
      ],
      [
        "Ġev",
        "ent"
      ],
      [
        "Ġ",
        "very"
      ],
      [
        "er",
        "y"
      ],
      [
        "at",
        "ue"
      ],
      [
        "W",
        "ith"
      ],
      [
        "Ġa",
        "g"
      ],
      [
        "ĠT",
        "ravellers"
      ],
      [
        "Ġgre",
        "at"
      ],
      [
        "w",
        "e"
      ],
      [
        "Ġst",
        "yle"
      ],
      [
        "ie",
        "w"
      ],
      [
        "on",
        "d"
      ],
      [
        "ee",
        "p"
      ],
      [
        "i",
        "es"
      ],
      [
        "Ġt",
        "ourist"
      ],
      [
        "Ġpark",
        "ed"
      ],
      [
        "p",
        "la"
      ],
      [
        "Ġa",
        "c"
      ],
      [
        "Ġl",
        "ay"
      ],
      [
        "on",
        "t"
      ],
      [
        "or",
        "ning"
      ],
      [
        "Ġher",
        "d"
      ],
      [
        "Ġ",
        "z"
      ],
      [
        "Ġw",
        "as"
      ],
      [
        "pe",
        "d"
      ],
      [
        "Ġat",
        "h"
      ],
      [
        "us",
        "h"
      ],
      [
        "c",
        "om"
      ],
      [
        "Ġth",
        "ree"
      ],
      [
        "Ġabo",
        "ve"
      ],
      [
        "Ġban",
        "an"
      ],
      [
        "Ġ",
        "image"
      ],
      [
        "Ġw",
        "oman"
      ],
      [
        "Ġb",
        "as"
      ],
      [
        "Ġd",
        "i"
      ],
      [
        "Ġlo",
        "ve"
      ],
      [
        "Ġb",
        "et"
      ],
      [
        "Ġre",
        "d"
      ],
      [
        "Ġcl",
        "ass"
      ],
      [
        "Ġte",
        "am"
      ],
      [
        "Ġ",
        "ent"
      ],
      [
        "Ġo",
        "ld"
      ],
      [
        "ic",
        "k"
      ],
      [
        "Ġlea",
        "ve"
      ],
      [
        "Ġm",
        "orning"
      ],
      [
        "Ġath",
        "lete"
      ],
      [
        "Ġa",
        "f"
      ],
      [
        "Ġt",
        "ry"
      ],
      [
        "Ġt",
        "ime"
      ],
      [
        "Ġrece",
        "iv"
      ],
      [
        "Ġp",
        "re"
      ],
      [
        "Ġt",
        "own"
      ],
      [
        "ra",
        "it"
      ],
      [
        "Ġag",
        "ain"
      ],
      [
        "at",
        "her"
      ],
      [
        "Ġeat",
        "ing"
      ],
      [
        "Ġt",
        "r"
      ],
      [
        "Ġwa",
        "it"
      ],
      [
        "Ġc",
        "ome"
      ],
      [
        "an",
        "ce"
      ],
      [
        "Ġp",
        "ast"
      ],
      [
        "Ġl",
        "and"
      ],
      [
        "m",
        "osp"
      ],
      [
        "ou",
        "p"
      ],
      [
        "we",
        "en"
      ],
      [
        "mosp",
        "here"
      ],
      [
        "Ġt",
        "ak"
      ],
      [
        "Ġfami",
        "lies"
      ],
      [
        "Ġad",
        "ult"
      ],
      [
        "d",
        "e"
      ],
      [
        "ĠC",
        "ent"
      ],
      [
        "Ġst",
        "atue"
      ],
      [
        "Ġpass",
        "en"
      ],
      [
        "Ġbet",
        "ween"
      ],
      [
        "Ġagain",
        "st"
      ],
      [
        "ĠCent",
        "re"
      ],
      [
        "r",
        "ound"
      ],
      [
        "Ġre",
        "v"
      ],
      [
        "Ġco",
        "ast"
      ],
      [
        "Ġd",
        "ish"
      ],
      [
        "Ġat",
        "mosphere"
      ],
      [
        "Ġz",
        "oo"
      ],
      [
        "f",
        "l"
      ],
      [
        "Ġg",
        "l"
      ],
      [
        "Ġat",
        "tra"
      ],
      [
        "z",
        "ing"
      ],
      [
        "Ġp",
        "ain"
      ],
      [
        "Ġp",
        "art"
      ],
      [
        "ic",
        "al"
      ],
      [
        "ad",
        "e"
      ],
      [
        "Ġpat",
        "tern"
      ],
      [
        "Ġstre",
        "et"
      ],
      [
        "Ġf",
        "riend"
      ],
      [
        "Ġd",
        "es"
      ],
      [
        "Ġhe",
        "ad"
      ],
      [
        "c",
        "y"
      ],
      [
        "Ġgrow",
        "ing"
      ],
      [
        "I",
        "f"
      ],
      [
        "p",
        "olitician"
      ],
      [
        "s",
        "ing"
      ],
      [
        "Ġt",
        "ow"
      ],
      [
        "Ġo",
        "t"
      ],
      [
        "Ġw",
        "ay"
      ],
      [
        "Ġw",
        "ill"
      ],
      [
        "Ġb",
        "ook"
      ],
      [
        "Ġaf",
        "ter"
      ],
      [
        "a",
        "ck"
      ],
      [
        "Ġcu",
        "r"
      ],
      [
        "Ġre",
        "st"
      ],
      [
        "ea",
        "d"
      ],
      [
        "C",
        "lowns"
      ],
      [
        "s",
        "es"
      ],
      [
        "Ġis",
        "land"
      ],
      [
        "Ġg",
        "o"
      ],
      [
        "la",
        "ck"
      ],
      [
        "ue",
        "t"
      ],
      [
        "u",
        "ated"
      ],
      [
        "ami",
        "ly"
      ],
      [
        "Ġref",
        "lect"
      ],
      [
        "Ġrev",
        "iew"
      ],
      [
        "ar",
        "y"
      ],
      [
        "Ġl",
        "ot"
      ],
      [
        "Ġsh",
        "a"
      ],
      [
        "v",
        "en"
      ],
      [
        "Ġs",
        "ale"
      ],
      [
        "Ġw",
        "ood"
      ],
      [
        "'",
        "t"
      ],
      [
        "b",
        "le"
      ],
      [
        "Ġli",
        "e"
      ],
      [
        "Ġw",
        "e"
      ],
      [
        "Ġgra",
        "ze"
      ],
      [
        "o",
        "re"
      ],
      [
        "Ġc",
        "ross"
      ],
      [
        "Ġm",
        "ed"
      ],
      [
        "Ġfe",
        "at"
      ],
      [
        "Ġs",
        "c"
      ],
      [
        "Ġm",
        "arket"
      ],
      [
        "ĠF",
        "riendly"
      ],
      [
        "ir",
        "l"
      ],
      [
        "Ġli",
        "ving"
      ],
      [
        "e",
        "ver"
      ],
      [
        "Ġsit",
        "e"
      ],
      [
        "ur",
        "ch"
      ],
      [
        "Ġmo",
        "ve"
      ],
      [
        "ct",
        "ure"
      ],
      [
        "Ġm",
        "ee"
      ],
      [
        "Ġwh",
        "ile"
      ],
      [
        "Ġmot",
        "her"
      ],
      [
        "Ġhor",
        "se"
      ],
      [
        "bo",
        "ur"
      ],
      [
        "Ġ",
        "un"
      ],
      [
        "Ġs",
        "w"
      ],
      [
        "Ġh",
        "oliday"
      ],
      [
        "Ġbo",
        "x"
      ],
      [
        "Ġattra",
        "ction"
      ],
      [
        "k",
        "s"
      ],
      [
        "Ġserv",
        "ed"
      ],
      [
        "Ġfr",
        "ont"
      ],
      [
        "Ġcou",
        "ch"
      ],
      [
        "Ġd",
        "on"
      ],
      [
        "Ġfr",
        "uit"
      ],
      [
        "Ġot",
        "her"
      ],
      [
        "Ġ",
        "Located"
      ],
      [
        "ri",
        "c"
      ],
      [
        "en",
        "ce"
      ],
      [
        "Ġs",
        "us"
      ],
      [
        "xp",
        "ensive"
      ],
      [
        "Ġbe",
        "ing"
      ],
      [
        "Ġbr",
        "oc"
      ],
      [
        "i",
        "um"
      ],
      [
        "Ġb",
        "ee"
      ],
      [
        "ĠP",
        "rice"
      ],
      [
        "Ġlea",
        "der"
      ],
      [
        "Ġhar",
        "bour"
      ],
      [
        "col",
        "i"
      ],
      [
        "Ġbroc",
        "coli"
      ],
      [
        "at",
        "or"
      ],
      [
        "Ġo",
        "uts"
      ],
      [
        "Ġst",
        "ru"
      ],
      [
        "Ġpe",
        "ople"
      ],
      [
        "o",
        "ke"
      ],
      [
        "u",
        "gh"
      ],
      [
        "Ġm",
        "oon"
      ],
      [
        "c",
        "ra"
      ],
      [
        "Ġf",
        "ace"
      ],
      [
        "Ġh",
        "and"
      ],
      [
        "ĠR",
        "ating"
      ],
      [
        "Ġtrack",
        "s"
      ],
      [
        "arm",
        "ac"
      ],
      [
        "c",
        "er"
      ],
      [
        "d",
        "u"
      ],
      [
        "Ġch",
        "urch"
      ],
      [
        "Ġb",
        "lack"
      ],
      [
        "Ġd",
        "in"
      ],
      [
        "cra",
        "ft"
      ],
      [
        "Ġt",
        "wo"
      ],
      [
        "Ġcu",
        "p"
      ],
      [
        "ly",
        "ing"
      ],
      [
        "Ġr",
        "ang"
      ],
      [
        "Ġco",
        "r"
      ],
      [
        "li",
        "c"
      ],
      [
        "Ġgra",
        "zing"
      ],
      [
        "Ġwalk",
        "ing"
      ],
      [
        "Ġarri",
        "ve"
      ],
      [
        "Ġreceiv",
        "ed"
      ],
      [
        "Ġp",
        "ull"
      ],
      [
        "ho",
        "ugh"
      ],
      [
        "Ġmo",
        "ving"
      ],
      [
        "ri",
        "t"
      ],
      [
        "Ġm",
        "ead"
      ],
      [
        "Ġgr",
        "ound"
      ],
      [
        "Ġtop",
        "ping"
      ],
      [
        "Ġcelebr",
        "ate"
      ],
      [
        "Ġmead",
        "ow"
      ],
      [
        "Ġw",
        "el"
      ],
      [
        "m",
        "b"
      ],
      [
        "w",
        "or"
      ],
      [
        "Ġs",
        "uit"
      ],
      [
        "Ġw",
        "he"
      ],
      [
        "Ġd",
        "is"
      ],
      [
        "Ġd",
        "ress"
      ],
      [
        "Ġsit",
        "uated"
      ],
      [
        "Ġsus",
        "hi"
      ],
      [
        "Ġb",
        "all"
      ],
      [
        "Ġgl",
        "ass"
      ],
      [
        "g",
        "ers"
      ],
      [
        "m",
        "p"
      ],
      [
        "Ġt",
        "ype"
      ],
      [
        "Ġne",
        "w"
      ],
      [
        "Ġsh",
        "ower"
      ],
      [
        "Ġmot",
        "or"
      ],
      [
        "i",
        "g"
      ],
      [
        "Ġc",
        "li"
      ],
      [
        "as",
        "e"
      ],
      [
        "Ġstand",
        "ing"
      ],
      [
        "Ġme",
        "at"
      ],
      [
        "Ġsur",
        "round"
      ],
      [
        "ĠCustomer",
        "s"
      ],
      [
        "er",
        "m"
      ],
      [
        "to",
        "p"
      ],
      [
        "ea",
        "ut"
      ],
      [
        "ad",
        "y"
      ],
      [
        "Ġde",
        "li"
      ],
      [
        "Ġbl",
        "oom"
      ],
      [
        "e",
        "xpensive"
      ],
      [
        "l",
        "ook"
      ],
      [
        "Ġin",
        "expensive"
      ],
      [
        "Ġmountain",
        "s"
      ],
      [
        "Ġstru",
        "cture"
      ],
      [
        "st",
        "ar"
      ],
      [
        "Ġp",
        "o"
      ],
      [
        "Ġp",
        "ot"
      ],
      [
        "Ġb",
        "ow"
      ],
      [
        "ie",
        "ce"
      ],
      [
        "Ġclass",
        "room"
      ],
      [
        "Ġouts",
        "ide"
      ],
      [
        "re",
        "s"
      ],
      [
        "Ġw",
        "atch"
      ],
      [
        "Ġm",
        "en"
      ],
      [
        "ot",
        "her"
      ],
      [
        "Ġor",
        "ange"
      ],
      [
        "Ġfill",
        "ed"
      ],
      [
        "Ġreview",
        "s"
      ],
      [
        "g",
        "an"
      ],
      [
        "Ġf",
        "all"
      ],
      [
        "it",
        "ion"
      ],
      [
        "pe",
        "t"
      ],
      [
        "gh",
        "t"
      ],
      [
        "Ġf",
        "an"
      ],
      [
        "Ġa",
        "ut"
      ],
      [
        "Ġp",
        "ond"
      ],
      [
        "Ġr",
        "ail"
      ],
      [
        "Ġcover",
        "ed"
      ],
      [
        "ff",
        "er"
      ],
      [
        "Ġbo",
        "y"
      ],
      [
        "Ġcost",
        "s"
      ],
      [
        "Ġper",
        "f"
      ],
      [
        "c",
        "le"
      ],
      [
        "k",
        "et"
      ],
      [
        "al",
        "ly"
      ],
      [
        "Ġd",
        "oes"
      ],
      [
        "Ġst",
        "orm"
      ],
      [
        "d",
        "le"
      ],
      [
        "s",
        "un"
      ],
      [
        "Ġa",
        "w"
      ],
      [
        "Ġp",
        "iece"
      ],
      [
        "un",
        "ch"
      ],
      [
        "Ġj",
        "et"
      ],
      [
        "Ġpassen",
        "ger"
      ],
      [
        "Ġp",
        "a"
      ],
      [
        "Ġg",
        "irl"
      ],
      [
        "hin",
        "d"
      ],
      [
        "Ġbe",
        "hind"
      ],
      [
        "Ġbanan",
        "a"
      ],
      [
        "b",
        "or"
      ],
      [
        "i",
        "re"
      ],
      [
        "Ġw",
        "here"
      ],
      [
        "Ġshe",
        "l"
      ],
      [
        "ort",
        "h"
      ],
      [
        "Ġar",
        "t"
      ],
      [
        "u",
        "g"
      ],
      [
        "Ġt",
        "armac"
      ],
      [
        "Ġp",
        "air"
      ],
      [
        "Ġs",
        "au"
      ],
      [
        "Ġeat",
        "ery"
      ],
      [
        "Ġbe",
        "en"
      ],
      [
        "Ġli",
        "ke"
      ],
      [
        "Ġap",
        "p"
      ],
      [
        "in",
        "k"
      ],
      [
        "Ġt",
        "ile"
      ],
      [
        "Ġl",
        "oad"
      ],
      [
        "Ġte",
        "m"
      ],
      [
        "Ġw",
        "ho"
      ],
      [
        "al",
        "ity"
      ],
      [
        "Ġm",
        "on"
      ],
      [
        "Ġserv",
        "ice"
      ],
      [
        "Ġ",
        "ge"
      ],
      [
        "am",
        "p"
      ],
      [
        "Ġs",
        "il"
      ],
      [
        "Ġgr",
        "oup"
      ],
      [
        "Ġcon",
        "tain"
      ],
      [
        "Ġport",
        "rait"
      ],
      [
        "Ġmeal",
        "s"
      ],
      [
        "Ġfeat",
        "ure"
      ],
      [
        "t",
        "h"
      ],
      [
        "Ġp",
        "oor"
      ],
      [
        "Ġh",
        "ow"
      ],
      [
        "ir",
        "r"
      ],
      [
        "Ġfe",
        "ed"
      ],
      [
        "Ġdecor",
        "ate"
      ],
      [
        "Ġmotor",
        "cy"
      ],
      [
        "G",
        "reen"
      ],
      [
        "c",
        "hes"
      ],
      [
        "Ġ",
        "lying"
      ],
      [
        "Ġb",
        "ar"
      ],
      [
        "iraff",
        "es"
      ],
      [
        "Ġad",
        "ults"
      ],
      [
        "Ġj",
        "ust"
      ],
      [
        "rit",
        "ish"
      ],
      [
        "at",
        "es"
      ],
      [
        "ĠB",
        "ritish"
      ],
      [
        "Ġtra",
        "y"
      ],
      [
        "Ġsit",
        "ting"
      ],
      [
        "irr",
        "or"
      ],
      [
        "c",
        "ome"
      ],
      [
        "an",
        "ts"
      ],
      [
        "Ġh",
        "ay"
      ],
      [
        "Ġm",
        "irror"
      ],
      [
        "il",
        "ing"
      ],
      [
        "Ġsl",
        "eep"
      ],
      [
        "row",
        "d"
      ],
      [
        "n",
        "t"
      ],
      [
        "Ġf",
        "ootball"
      ],
      [
        "in",
        "t"
      ],
      [
        "Ġs",
        "ummer"
      ],
      [
        "Ġb",
        "eaut"
      ],
      [
        "um",
        "n"
      ],
      [
        "G",
        "iraffe"
      ],
      [
        "Ġc",
        "ho"
      ],
      [
        "Ġrat",
        "e"
      ],
      [
        "Ġh",
        "o"
      ],
      [
        "ow",
        "s"
      ],
      [
        "um",
        "b"
      ],
      [
        "ab",
        "les"
      ],
      [
        "if",
        "ul"
      ],
      [
        "B",
        "ibimbap"
      ],
      [
        "n",
        "y"
      ],
      [
        "er",
        "i"
      ],
      [
        "Ġc",
        "ere"
      ],
      [
        "ri",
        "es"
      ],
      [
        "Ġa",
        "ff"
      ],
      [
        "Ġh",
        "ot"
      ],
      [
        "un",
        "k"
      ],
      [
        "Ġcom",
        "p"
      ],
      [
        "Ġqu",
        "ality"
      ],
      [
        "pla",
        "ce"
      ],
      [
        "Ġcur",
        "tain"
      ],
      [
        "f",
        "a"
      ],
      [
        "f",
        "ast"
      ],
      [
        "r",
        "ated"
      ],
      [
        "Ġc",
        "rowd"
      ],
      [
        "as",
        "on"
      ],
      [
        "Ġli",
        "st"
      ],
      [
        "Ġbo",
        "ard"
      ],
      [
        "Ġfly",
        "ing"
      ],
      [
        "Ġlap",
        "top"
      ],
      [
        "Ġsau",
        "ce"
      ],
      [
        "Ġtem",
        "ple"
      ],
      [
        "Ġ",
        "get"
      ],
      [
        "Ġa",
        "m"
      ],
      [
        "Ġre",
        "ason"
      ],
      [
        "Ġair",
        "craft"
      ],
      [
        "Ġcom",
        "ing"
      ],
      [
        "Ġor",
        "gan"
      ],
      [
        "cl",
        "os"
      ],
      [
        "Ġop",
        "en"
      ],
      [
        "he",
        "d"
      ],
      [
        "Ġthe",
        "n"
      ],
      [
        "Ġfl",
        "oor"
      ],
      [
        "Ġen",
        "clos"
      ],
      [
        "iv",
        "al"
      ],
      [
        "Ġaff",
        "or"
      ],
      [
        "f",
        "amily"
      ],
      [
        "Ġf",
        "arm"
      ],
      [
        "Ġp",
        "ra"
      ],
      [
        "Ġs",
        "ch"
      ],
      [
        "Ġs",
        "up"
      ],
      [
        "Ġg",
        "ather"
      ],
      [
        "Ġg",
        "iraffes"
      ],
      [
        "Ġac",
        "ross"
      ],
      [
        "Ġaffor",
        "da"
      ],
      [
        "Ġc",
        "ake"
      ],
      [
        "Ġf",
        "og"
      ],
      [
        "Ġf",
        "ull"
      ],
      [
        "Ġp",
        "rot"
      ],
      [
        "it",
        "al"
      ],
      [
        "Ġe",
        "ar"
      ],
      [
        "Ġst",
        "op"
      ],
      [
        "ess",
        "ion"
      ],
      [
        "ush",
        "room"
      ],
      [
        "Ġent",
        "er"
      ],
      [
        "Ġafforda",
        "ble"
      ],
      [
        "an",
        "es"
      ],
      [
        "Ġin",
        "side"
      ],
      [
        "Ġtravel",
        "ing"
      ],
      [
        "mon",
        "y"
      ],
      [
        "Ġveget",
        "able"
      ],
      [
        "Ġtr",
        "unk"
      ],
      [
        "Ġsch",
        "ool"
      ],
      [
        "f",
        "er"
      ],
      [
        "f",
        "ore"
      ],
      [
        "st",
        "ru"
      ],
      [
        "Ġre",
        "s"
      ],
      [
        "le",
        "ction"
      ],
      [
        "Ġfor",
        "m"
      ],
      [
        "Ġdri",
        "n"
      ],
      [
        "Ġdes",
        "k"
      ],
      [
        "Ġcere",
        "mony"
      ],
      [
        "n",
        "a"
      ],
      [
        "u",
        "se"
      ],
      [
        "u",
        "gg"
      ],
      [
        "at",
        "o"
      ],
      [
        "Ġenclos",
        "ure"
      ],
      [
        "b",
        "oat"
      ],
      [
        "t",
        "or"
      ],
      [
        "Ġr",
        "oo"
      ],
      [
        "Ġs",
        "old"
      ],
      [
        "Ġg",
        "a"
      ],
      [
        "ter",
        "f"
      ],
      [
        "Ġbe",
        "fore"
      ],
      [
        "Ġwor",
        "ld"
      ],
      [
        "Ġlap",
        "se"
      ],
      [
        "i",
        "ous"
      ],
      [
        "o",
        "y"
      ],
      [
        "Ġh",
        "osp"
      ],
      [
        "oc",
        "tor"
      ],
      [
        "Ġhigh",
        "er"
      ],
      [
        "Ġsm",
        "oke"
      ],
      [
        "com",
        "m"
      ],
      [
        "Ġhosp",
        "ital"
      ],
      [
        "Ġ",
        "end"
      ],
      [
        "re",
        "l"
      ],
      [
        "Ġs",
        "al"
      ],
      [
        "Ġw",
        "ant"
      ],
      [
        "Ġlook",
        "s"
      ],
      [
        "ell",
        "ow"
      ],
      [
        "au",
        "gh"
      ],
      [
        "b",
        "y"
      ],
      [
        "l",
        "ight"
      ],
      [
        "Ġt",
        "om"
      ],
      [
        "ow",
        "ing"
      ],
      [
        "Ġlea",
        "ves"
      ],
      [
        "est",
        "ival"
      ],
      [
        "each",
        "er"
      ],
      [
        "ĠPrice",
        "s"
      ],
      [
        "f",
        "ul"
      ],
      [
        "i",
        "ent"
      ],
      [
        "t",
        "his"
      ],
      [
        "Ġl",
        "it"
      ],
      [
        "Ġfl",
        "oat"
      ],
      [
        "Ġyou",
        "ng"
      ],
      [
        "Ġbreak",
        "fast"
      ],
      [
        "Ġaw",
        "ard"
      ],
      [
        "a",
        "v"
      ],
      [
        "f",
        "ootball"
      ],
      [
        "Ġ",
        "umb"
      ],
      [
        "id",
        "er"
      ],
      [
        "Ġm",
        "ap"
      ],
      [
        "Ġover",
        "look"
      ],
      [
        "Ġveget",
        "ables"
      ],
      [
        "Ġsha",
        "pe"
      ],
      [
        "Ġcor",
        "n"
      ],
      [
        "Ġbow",
        "l"
      ],
      [
        "d",
        "ing"
      ],
      [
        "Ġsk",
        "ate"
      ],
      [
        "Ġtak",
        "ing"
      ],
      [
        "Ġorgan",
        "is"
      ],
      [
        "st",
        "r"
      ],
      [
        "is",
        "s"
      ],
      [
        "le",
        "y"
      ],
      [
        "um",
        "p"
      ],
      [
        "Ġwall",
        "s"
      ],
      [
        "Ġte",
        "xt"
      ],
      [
        "Ġwel",
        "come"
      ],
      [
        "Ġe",
        "y"
      ],
      [
        "ĠF",
        "ood"
      ],
      [
        "Ġsk",
        "ier"
      ],
      [
        "Ġboat",
        "s"
      ],
      [
        "Ġev",
        "en"
      ],
      [
        "Ġhang",
        "ing"
      ],
      [
        "Ġloc",
        "ation"
      ],
      [
        "Ġpast",
        "ure"
      ],
      [
        "Ġdin",
        "ing"
      ],
      [
        "Ġbeaut",
        "iful"
      ],
      [
        "d",
        "el"
      ],
      [
        "r",
        "ap"
      ],
      [
        "y",
        "ing"
      ],
      [
        "li",
        "g"
      ],
      [
        "Ġsp",
        "end"
      ],
      [
        "Ġsm",
        "ile"
      ],
      [
        "Ġmid",
        "dle"
      ],
      [
        "Ġf",
        "estival"
      ],
      [
        "Ġt",
        "alk"
      ],
      [
        "Ġp",
        "en"
      ],
      [
        "al",
        "s"
      ],
      [
        "Ġd",
        "augh"
      ],
      [
        "Ġst",
        "e"
      ],
      [
        "Ġv",
        "al"
      ],
      [
        "Ġdeli",
        "ver"
      ],
      [
        "Ġdaugh",
        "ter"
      ],
      [
        "e",
        "y"
      ],
      [
        "Ġt",
        "urn"
      ],
      [
        "ce",
        "ll"
      ],
      [
        "Ġg",
        "iv"
      ],
      [
        "Ġfl",
        "ight"
      ],
      [
        "cl",
        "ud"
      ],
      [
        "Ġ",
        "ide"
      ],
      [
        "Ġis",
        "n"
      ],
      [
        "ho",
        "uet"
      ],
      [
        "terf",
        "ly"
      ],
      [
        "Ġp",
        "an"
      ],
      [
        "ur",
        "se"
      ],
      [
        "Ġd",
        "ist"
      ],
      [
        "Ġsun",
        "ny"
      ],
      [
        "Ġhar",
        "bor"
      ],
      [
        "wor",
        "k"
      ],
      [
        "rel",
        "la"
      ],
      [
        "cell",
        "ent"
      ],
      [
        "b",
        "it"
      ],
      [
        "q",
        "ue"
      ],
      [
        "Ġa",
        "ction"
      ],
      [
        "Ġin",
        "clud"
      ],
      [
        "Ġri",
        "sing"
      ],
      [
        "Ġfr",
        "ame"
      ],
      [
        "Ġbu",
        "il"
      ],
      [
        "Ġex",
        "cellent"
      ],
      [
        "ffer",
        "ent"
      ],
      [
        "at",
        "oes"
      ],
      [
        "Ġs",
        "ession"
      ],
      [
        "Ġw",
        "ine"
      ],
      [
        "Ġg",
        "ive"
      ],
      [
        "Ġpain",
        "ting"
      ],
      [
        "Ġo",
        "ven"
      ],
      [
        "Ġb",
        "urn"
      ],
      [
        "Ġde",
        "p"
      ],
      [
        "cl",
        "oud"
      ],
      [
        "Ġmotorcy",
        "cle"
      ],
      [
        "comm",
        "end"
      ],
      [
        "o",
        "pe"
      ],
      [
        "Ġ",
        "L"
      ],
      [
        "ur",
        "os"
      ],
      [
        "Ġre",
        "commend"
      ],
      [
        "ve",
        "st"
      ],
      [
        "Ġk",
        "n"
      ],
      [
        "Ġbas",
        "ket"
      ],
      [
        "Ġaut",
        "umn"
      ],
      [
        "Ġga",
        "ze"
      ],
      [
        "S",
        "ome"
      ],
      [
        "v",
        "ed"
      ],
      [
        "Ġm",
        "ist"
      ],
      [
        "Ġm",
        "ushroom"
      ],
      [
        "Ġy",
        "ellow"
      ],
      [
        "Ġche",
        "ck"
      ],
      [
        "Ġsit",
        "s"
      ],
      [
        "Ġspe",
        "ci"
      ],
      [
        "Ġsold",
        "ier"
      ],
      [
        "t",
        "ion"
      ],
      [
        "Ġf",
        "un"
      ],
      [
        "is",
        "e"
      ],
      [
        "Ġs",
        "ing"
      ],
      [
        "Ġwith",
        "in"
      ],
      [
        "Ġfl",
        "ock"
      ],
      [
        "Ġman",
        "y"
      ],
      [
        "Ġmee",
        "ting"
      ],
      [
        "ugg",
        "age"
      ],
      [
        "Ġroo",
        "f"
      ],
      [
        "Ġn",
        "orth"
      ],
      [
        "Ġl",
        "uggage"
      ],
      [
        "Ġmo",
        "ss"
      ],
      [
        "Ġd",
        "octor"
      ],
      [
        "Ġdi",
        "fferent"
      ],
      [
        "Ġsal",
        "ad"
      ],
      [
        "T",
        "aste"
      ],
      [
        "t",
        "ed"
      ],
      [
        "Ġr",
        "a"
      ],
      [
        "Ġthe",
        "m"
      ],
      [
        "Ġmo",
        "del"
      ],
      [
        "Ġfire",
        "place"
      ],
      [
        "Ġwood",
        "en"
      ],
      [
        "stru",
        "ction"
      ],
      [
        "Ġumb",
        "rella"
      ],
      [
        "e",
        "ct"
      ],
      [
        "t",
        "hough"
      ],
      [
        "Ġt",
        "eacher"
      ],
      [
        "Ġp",
        "ri"
      ],
      [
        "Ġr",
        "ow"
      ],
      [
        "Ġr",
        "ain"
      ],
      [
        "Ġw",
        "ell"
      ],
      [
        "Ġsur",
        "f"
      ],
      [
        "Ġmen",
        "u"
      ],
      [
        "a",
        "ct"
      ],
      [
        "h",
        "ild"
      ],
      [
        "l",
        "o"
      ],
      [
        "m",
        "o"
      ],
      [
        "Ġ",
        "-"
      ],
      [
        "Ġc",
        "ook"
      ],
      [
        "Ġf",
        "urn"
      ],
      [
        "Ġp",
        "oll"
      ],
      [
        "oo",
        "red"
      ],
      [
        "Ġb",
        "ab"
      ],
      [
        "Ġri",
        "de"
      ],
      [
        "Ġv",
        "ari"
      ],
      [
        "Ġha",
        "ir"
      ],
      [
        "Ġhar",
        "vest"
      ],
      [
        "Ġtow",
        "el"
      ],
      [
        "Ġsuit",
        "able"
      ],
      [
        "st",
        "ud"
      ],
      [
        "Ġe",
        "ach"
      ],
      [
        "Ġm",
        "y"
      ],
      [
        "ho",
        "r"
      ],
      [
        "ut",
        "er"
      ],
      [
        "Ġk",
        "ey"
      ],
      [
        "Ġu",
        "s"
      ],
      [
        "Ġlea",
        "ving"
      ],
      [
        "Ġmed",
        "ium"
      ],
      [
        "Ġdon",
        "ut"
      ],
      [
        "Ġdis",
        "hes"
      ],
      [
        "Ġperf",
        "orm"
      ],
      [
        "lig",
        "ious"
      ],
      [
        "T",
        "h"
      ],
      [
        "Ġt",
        "un"
      ],
      [
        "Ġb",
        "ou"
      ],
      [
        "ho",
        "p"
      ],
      [
        "igh",
        "ts"
      ],
      [
        "Ġshel",
        "f"
      ],
      [
        "cloud",
        "s"
      ],
      [
        "-",
        "Â£"
      ],
      [
        "t",
        "ime"
      ],
      [
        "ar",
        "der"
      ],
      [
        "Ġl",
        "ab"
      ],
      [
        "ee",
        "ping"
      ],
      [
        "as",
        "h"
      ],
      [
        "Ġcar",
        "ry"
      ],
      [
        "Ġp",
        "ink"
      ],
      [
        "Ġm",
        "oor"
      ],
      [
        "Ġco",
        "unter"
      ],
      [
        "Ġsk",
        "i"
      ],
      [
        "bo",
        "arder"
      ],
      [
        "Ġsp",
        "ring"
      ],
      [
        "Ġen",
        "g"
      ],
      [
        "Ġrang",
        "ing"
      ],
      [
        "Ġlit",
        "tle"
      ],
      [
        "f",
        "ire"
      ],
      [
        "y",
        "ou"
      ],
      [
        "Ġc",
        "r"
      ],
      [
        "it",
        "at"
      ],
      [
        "Ġm",
        "oored"
      ],
      [
        "Ġri",
        "ses"
      ],
      [
        "Ġg",
        "ame"
      ],
      [
        "Ġd",
        "ough"
      ],
      [
        "ab",
        "itat"
      ],
      [
        "l",
        "ed"
      ],
      [
        "p",
        "er"
      ],
      [
        "q",
        "uet"
      ],
      [
        "Ġh",
        "abitat"
      ],
      [
        "ĠThe",
        "ir"
      ],
      [
        "Ġg",
        "en"
      ],
      [
        "Ġd",
        "ark"
      ],
      [
        "Ġcon",
        "t"
      ],
      [
        "houet",
        "te"
      ],
      [
        "Ġbab",
        "y"
      ],
      [
        "a",
        "ve"
      ],
      [
        "Ġr",
        "o"
      ],
      [
        "Ġb",
        "el"
      ],
      [
        "Ġtra",
        "il"
      ],
      [
        "ĠN",
        "ot"
      ],
      [
        "Ġhe",
        "l"
      ],
      [
        "Ġexp",
        "eri"
      ],
      [
        "Ġsta",
        "in"
      ],
      [
        "Ġwork",
        "ing"
      ],
      [
        "Ġzebra",
        "s"
      ],
      [
        "Ġabo",
        "ut"
      ],
      [
        "Ġeven",
        "ing"
      ],
      [
        "Ġrecommend",
        "ed"
      ],
      [
        "Ġf",
        "ar"
      ],
      [
        "Ġp",
        "ool"
      ],
      [
        "Ġs",
        "at"
      ],
      [
        "Ġy",
        "ear"
      ],
      [
        "ĠP",
        "ub"
      ],
      [
        "um",
        "ber"
      ],
      [
        "Ġne",
        "ct"
      ],
      [
        "Ġbuilding",
        "s"
      ],
      [
        "Ġcol",
        "lect"
      ],
      [
        "Th",
        "ree"
      ],
      [
        "er",
        "t"
      ],
      [
        "Ġs",
        "pee"
      ],
      [
        "ap",
        "p"
      ],
      [
        "Ġg",
        "old"
      ],
      [
        "Ġd",
        "o"
      ],
      [
        "Ġcar",
        "pet"
      ],
      [
        "Ġarri",
        "ves"
      ],
      [
        "Ġdist",
        "ance"
      ],
      [
        "Ġkey",
        "board"
      ],
      [
        "Ġnect",
        "ar"
      ],
      [
        "Ġspee",
        "ch"
      ],
      [
        "n",
        "el"
      ],
      [
        "Ġf",
        "ac"
      ],
      [
        "Ġt",
        "y"
      ],
      [
        "Ġo",
        "ur"
      ],
      [
        "ar",
        "ch"
      ],
      [
        "Ġw",
        "ear"
      ],
      [
        "Ġb",
        "un"
      ],
      [
        "Ġm",
        "ak"
      ],
      [
        "Ġall",
        "ow"
      ],
      [
        "Ġtopping",
        "s"
      ],
      [
        "'",
        "re"
      ],
      [
        "d",
        "og"
      ],
      [
        "j",
        "oy"
      ],
      [
        "Ġ",
        "Range"
      ],
      [
        "an",
        "k"
      ],
      [
        "Ġc",
        "re"
      ],
      [
        "ri",
        "ty"
      ],
      [
        "in",
        "s"
      ],
      [
        "Ġl",
        "et"
      ],
      [
        "Ġl",
        "og"
      ],
      [
        "ur",
        "al"
      ],
      [
        "Ġb",
        "rid"
      ],
      [
        "Ġon",
        "ion"
      ],
      [
        "ir",
        "st"
      ],
      [
        "Ġcon",
        "struction"
      ],
      [
        "Ġval",
        "ley"
      ],
      [
        "Ġgiv",
        "en"
      ],
      [
        "you",
        "ng"
      ],
      [
        "d",
        "y"
      ],
      [
        "m",
        "ber"
      ],
      [
        "r",
        "ange"
      ],
      [
        "u",
        "ng"
      ],
      [
        "Ġs",
        "hin"
      ],
      [
        "Ġl",
        "ady"
      ],
      [
        "ol",
        "og"
      ],
      [
        "Ġdecor",
        "ated"
      ],
      [
        "Ġbou",
        "quet"
      ],
      [
        "T",
        "his"
      ],
      [
        "re",
        "ad"
      ],
      [
        "Ġt",
        "ur"
      ],
      [
        "Ġp",
        "ut"
      ],
      [
        "it",
        "ure"
      ],
      [
        "Ġh",
        "i"
      ],
      [
        "Ġb",
        "al"
      ],
      [
        "ff",
        "ic"
      ],
      [
        "Ġsl",
        "eeping"
      ],
      [
        "res",
        "h"
      ],
      [
        "Ġhow",
        "ever"
      ],
      [
        "Ġtun",
        "nel"
      ],
      [
        "e",
        "f"
      ],
      [
        "f",
        "ish"
      ],
      [
        "Ġr",
        "ound"
      ],
      [
        "Ġb",
        "i"
      ],
      [
        "Ġto",
        "get"
      ],
      [
        "Ġbut",
        "terfly"
      ],
      [
        "Ġbre",
        "ad"
      ],
      [
        "col",
        "ate"
      ],
      [
        "Ġbanan",
        "as"
      ],
      [
        "Ġfurn",
        "iture"
      ],
      [
        "stud",
        "ents"
      ],
      [
        "Ġtoget",
        "her"
      ],
      [
        "d",
        "ay"
      ],
      [
        "Ġl",
        "ive"
      ],
      [
        "Ġe",
        "uros"
      ],
      [
        "Ġw",
        "ild"
      ],
      [
        "Ġco",
        "ach"
      ],
      [
        "or",
        "s"
      ],
      [
        "ĠS",
        "hop"
      ],
      [
        "Ġtrain",
        "ing"
      ],
      [
        "Ġj",
        "o"
      ],
      [
        "Ġstud",
        "y"
      ],
      [
        "Ġsl",
        "ope"
      ],
      [
        "Ġpoll",
        "en"
      ],
      [
        "H",
        "igh"
      ],
      [
        "m",
        "ale"
      ],
      [
        "Ġf",
        "irst"
      ],
      [
        "Ġt",
        "ub"
      ],
      [
        "Ġp",
        "ar"
      ],
      [
        "Ġl",
        "a"
      ],
      [
        "Ġb",
        "rown"
      ],
      [
        "Ġch",
        "ick"
      ],
      [
        "Ġcon",
        "s"
      ],
      [
        "Ġwin",
        "ter"
      ],
      [
        "Ġwait",
        "ing"
      ],
      [
        "fl",
        "ower"
      ],
      [
        "Ġcho",
        "colate"
      ],
      [
        "Ġhot",
        "dog"
      ],
      [
        "Ġreason",
        "able"
      ],
      [
        "g",
        "o"
      ],
      [
        "Ġ",
        ","
      ],
      [
        "er",
        "man"
      ],
      [
        "Ġs",
        "y"
      ],
      [
        "Ġb",
        "es"
      ],
      [
        "Ġin",
        "ter"
      ],
      [
        "ra",
        "w"
      ],
      [
        "Ġbu",
        "ll"
      ],
      [
        "port",
        "rait"
      ],
      [
        "Ġfish",
        "ing"
      ],
      [
        "Ġcomp",
        "uter"
      ],
      [
        "Ġdrin",
        "k"
      ],
      [
        "c",
        "ts"
      ],
      [
        "t",
        "ourist"
      ],
      [
        "on",
        "s"
      ],
      [
        "al",
        "m"
      ],
      [
        "Ġpl",
        "an"
      ],
      [
        "Ġstand",
        "s"
      ],
      [
        "Ġwhe",
        "at"
      ],
      [
        "Ġpra",
        "y"
      ],
      [
        "Y",
        "ou"
      ],
      [
        "it",
        "ch"
      ],
      [
        "Ġb",
        "ring"
      ],
      [
        "ow",
        "ers"
      ],
      [
        "oc",
        "cer"
      ],
      [
        "ou",
        "n"
      ],
      [
        "le",
        "t"
      ],
      [
        "ul",
        "d"
      ],
      [
        "Ġbu",
        "y"
      ],
      [
        "ass",
        "en"
      ],
      [
        "Ġen",
        "joy"
      ],
      [
        "Ġstud",
        "ents"
      ],
      [
        "Ġwindow",
        "s"
      ],
      [
        "Ġse",
        "en"
      ],
      [
        "Ġpat",
        "ient"
      ],
      [
        "Ġfriend",
        "s"
      ],
      [
        "Ġge",
        "ts"
      ],
      [
        "Ġty",
        "p"
      ],
      [
        "I",
        "t"
      ],
      [
        "Ġ",
        "i"
      ],
      [
        "ri",
        "n"
      ],
      [
        "Ġfood",
        "s"
      ],
      [
        "Ġn",
        "umber"
      ],
      [
        "Ġe",
        "gg"
      ],
      [
        "Ġre",
        "ady"
      ],
      [
        "Ġto",
        "y"
      ],
      [
        "ard",
        "s"
      ],
      [
        "Ġli",
        "br"
      ],
      [
        "erm",
        "arket"
      ],
      [
        "Ġsup",
        "ermarket"
      ],
      [
        "Ġey",
        "e"
      ],
      [
        "Ġlibr",
        "ary"
      ],
      [
        "in",
        "al"
      ],
      [
        "Ġp",
        "ill"
      ],
      [
        "Ġp",
        "ric"
      ],
      [
        "Ġr",
        "oll"
      ],
      [
        "Ġri",
        "ng"
      ],
      [
        "ot",
        "h"
      ],
      [
        "Ġg",
        "ri"
      ],
      [
        "Ġg",
        "oat"
      ],
      [
        "Ġcar",
        "rot"
      ],
      [
        "ci",
        "ent"
      ],
      [
        "Ġsw",
        "im"
      ],
      [
        "olog",
        "ical"
      ],
      [
        "c",
        "ur"
      ],
      [
        "d",
        "ium"
      ],
      [
        "i",
        "or"
      ],
      [
        "Ġe",
        "art"
      ],
      [
        "Ġre",
        "la"
      ],
      [
        "ari",
        "ng"
      ],
      [
        "Ġha",
        "ving"
      ],
      [
        "Ġcat",
        "tle"
      ],
      [
        "Ġeleph",
        "ants"
      ],
      [
        "Ġap",
        "ple"
      ],
      [
        "co",
        "pe"
      ],
      [
        "Ġpain",
        "t"
      ],
      [
        "Ġrang",
        "es"
      ],
      [
        "Ġide",
        "a"
      ],
      [
        "Ġeart",
        "h"
      ],
      [
        "Ġrela",
        "x"
      ],
      [
        "b",
        "s"
      ],
      [
        "c",
        "u"
      ],
      [
        "er",
        "ving"
      ],
      [
        "ri",
        "ght"
      ],
      [
        "Ġp",
        "ier"
      ],
      [
        "Ġn",
        "ice"
      ],
      [
        "Ġl",
        "ights"
      ],
      [
        "Ġan",
        "c"
      ],
      [
        "Ġm",
        "us"
      ],
      [
        "Ġst",
        "one"
      ],
      [
        "Ġpla",
        "in"
      ],
      [
        "Ġbe",
        "st"
      ],
      [
        "Ġwork",
        "er"
      ],
      [
        "Ġfish",
        "erman"
      ],
      [
        "pla",
        "y"
      ],
      [
        "fl",
        "owers"
      ],
      [
        "Ġdon",
        "uts"
      ],
      [
        "Ġchick",
        "en"
      ],
      [
        "Ġbes",
        "ide"
      ],
      [
        "Ġpric",
        "ing"
      ],
      [
        "f",
        "ood"
      ],
      [
        "s",
        "m"
      ],
      [
        "Ġc",
        "ab"
      ],
      [
        "Ġp",
        "ep"
      ],
      [
        "Ġr",
        "ace"
      ],
      [
        "Ġr",
        "ack"
      ],
      [
        "Ġb",
        "en"
      ],
      [
        "Ġb",
        "ig"
      ],
      [
        "Ġg",
        "i"
      ],
      [
        "Ġst",
        "ate"
      ],
      [
        "et",
        "ail"
      ],
      [
        "ill",
        "age"
      ],
      [
        "Ġcom",
        "es"
      ],
      [
        "Ġsta",
        "dium"
      ],
      [
        "Ġse",
        "at"
      ],
      [
        "Ġdri",
        "ve"
      ],
      [
        "use",
        "um"
      ],
      [
        "boat",
        "s"
      ],
      [
        "Ġkn",
        "own"
      ],
      [
        "b",
        "u"
      ],
      [
        "e",
        "m"
      ],
      [
        "f",
        "ans"
      ],
      [
        "Ġc",
        "and"
      ],
      [
        "ce",
        "ss"
      ],
      [
        "ing",
        "s"
      ],
      [
        "il",
        "it"
      ],
      [
        "ap",
        "er"
      ],
      [
        "li",
        "st"
      ],
      [
        "der",
        "n"
      ],
      [
        "ĠW",
        "e"
      ],
      [
        "Ġv",
        "illage"
      ],
      [
        "Ġcost",
        "ing"
      ],
      [
        "mon",
        "str"
      ],
      [
        "Ġchair",
        "s"
      ],
      [
        "Ġcountry",
        "side"
      ],
      [
        "Ġpart",
        "y"
      ],
      [
        "ator",
        "y"
      ],
      [
        "Ġsil",
        "houette"
      ],
      [
        "Ġam",
        "ong"
      ],
      [
        "hild",
        "ren"
      ],
      [
        "t",
        "en"
      ],
      [
        "w",
        "h"
      ],
      [
        "Ġf",
        "ro"
      ],
      [
        "Ġf",
        "ight"
      ],
      [
        "Ġt",
        "all"
      ],
      [
        "Ġm",
        "ic"
      ],
      [
        "Ġm",
        "useum"
      ],
      [
        "or",
        "y"
      ],
      [
        "Ġbu",
        "d"
      ],
      [
        "Ġne",
        "ed"
      ],
      [
        "Ġref",
        "lection"
      ],
      [
        "Ġrock",
        "s"
      ],
      [
        "Ġso",
        "fa"
      ],
      [
        "A",
        "t"
      ],
      [
        "a",
        "x"
      ],
      [
        "d",
        "ition"
      ],
      [
        "r",
        "ant"
      ],
      [
        "Ġ",
        "ill"
      ],
      [
        "Ġe",
        "very"
      ],
      [
        "Ġb",
        "end"
      ],
      [
        "al",
        "f"
      ],
      [
        "Ġri",
        "ght"
      ],
      [
        "igh",
        "ter"
      ],
      [
        "Ġd",
        "ock"
      ],
      [
        "ir",
        "t"
      ],
      [
        "Ġtra",
        "ffic"
      ],
      [
        "pl",
        "es"
      ],
      [
        "Ġv",
        "ine"
      ],
      [
        "Ġlo",
        "ts"
      ],
      [
        "Ġex",
        "am"
      ],
      [
        "Ġlay",
        "ing"
      ],
      [
        "Ġwho",
        "le"
      ],
      [
        "Ġplan",
        "et"
      ],
      [
        "oun",
        "tain"
      ],
      [
        "assen",
        "gers"
      ],
      [
        "ilit",
        "ary"
      ],
      [
        ".",
        "."
      ],
      [
        "b",
        "e"
      ],
      [
        "w",
        "alk"
      ],
      [
        "Ġc",
        "atch"
      ],
      [
        "re",
        "ligious"
      ],
      [
        "Ġa",
        "b"
      ],
      [
        "Ġn",
        "urse"
      ],
      [
        "Ġh",
        "ad"
      ],
      [
        "Ġw",
        "arm"
      ],
      [
        "Ġm",
        "ag"
      ],
      [
        "Ġre",
        "act"
      ],
      [
        "Ġre",
        "ef"
      ],
      [
        "Ġpro",
        "du"
      ],
      [
        "ab",
        "ly"
      ],
      [
        "ĠY",
        "ou"
      ],
      [
        "Ġbr",
        "anch"
      ],
      [
        "Ġhill",
        "side"
      ],
      [
        "Ġlead",
        "s"
      ],
      [
        "Ġrest",
        "ing"
      ],
      [
        "Ġcli",
        "mb"
      ],
      [
        "Ġorganis",
        "m"
      ],
      [
        "Ġeng",
        "ine"
      ],
      [
        "Ġsat",
        "is"
      ],
      [
        "l",
        "though"
      ],
      [
        "r",
        "ol"
      ],
      [
        "Ġf",
        "air"
      ],
      [
        "ly",
        "mp"
      ],
      [
        "con",
        "y"
      ],
      [
        "Ġb",
        "ur"
      ],
      [
        "Ġre",
        "ach"
      ],
      [
        "ut",
        "e"
      ],
      [
        "Ġst",
        "all"
      ],
      [
        "ath",
        "lete"
      ],
      [
        "Ġcloud",
        "y"
      ],
      [
        "Ġcolor",
        "s"
      ],
      [
        "Ġsha",
        "ped"
      ],
      [
        "Ġpa",
        "sta"
      ],
      [
        "Ġfeature",
        "s"
      ],
      [
        "Ġlab",
        "or"
      ],
      [
        "Ġgen",
        "er"
      ],
      [
        "Ġbel",
        "ow"
      ],
      [
        "Ġbrid",
        "e"
      ],
      [
        "lymp",
        "ic"
      ],
      [
        "n",
        "er"
      ],
      [
        "s",
        "he"
      ],
      [
        "Ġs",
        "et"
      ],
      [
        "Ġb",
        "unch"
      ],
      [
        "Ġre",
        "p"
      ],
      [
        "Ġy",
        "ard"
      ],
      [
        "um",
        "er"
      ],
      [
        "ĠW",
        "ith"
      ],
      [
        "Ġplay",
        "ing"
      ],
      [
        "Ġcom",
        "pet"
      ],
      [
        "Ġj",
        "ump"
      ],
      [
        "one",
        "y"
      ],
      [
        "Ġce",
        "iling"
      ],
      [
        "Ġle",
        "an"
      ],
      [
        "Ġfootball",
        "er"
      ],
      [
        "Ġtom",
        "ato"
      ],
      [
        "Ġcr",
        "ane"
      ],
      [
        "dition",
        "al"
      ],
      [
        "Ġlabor",
        "atory"
      ],
      [
        "s",
        "h"
      ],
      [
        "z",
        "on"
      ],
      [
        "ce",
        "nt"
      ],
      [
        "Ġb",
        "at"
      ],
      [
        "Ġm",
        "ust"
      ],
      [
        "Ġeat",
        "s"
      ],
      [
        "ro",
        "ts"
      ],
      [
        "Ġsh",
        "ade"
      ],
      [
        "Ġsome",
        "one"
      ],
      [
        "Ġtak",
        "es"
      ],
      [
        "Ġpassen",
        "gers"
      ],
      [
        "Ġsurround",
        "ed"
      ],
      [
        "Ġpot",
        "ato"
      ],
      [
        "Ġapp",
        "ear"
      ],
      [
        "Ġdough",
        "n"
      ],
      [
        "b",
        "b"
      ],
      [
        "u",
        "es"
      ],
      [
        "u",
        "ff"
      ],
      [
        "Ġc",
        "amp"
      ],
      [
        "Ġr",
        "u"
      ],
      [
        "Ġs",
        "ce"
      ],
      [
        "Ġb",
        "ak"
      ],
      [
        "Ġb",
        "right"
      ],
      [
        "Ġg",
        "u"
      ],
      [
        "Ġsp",
        "read"
      ],
      [
        "Ġmount",
        "ed"
      ],
      [
        "Ġpass",
        "ing"
      ],
      [
        "Ġgre",
        "et"
      ],
      [
        "Ġstre",
        "am"
      ],
      [
        "Ġhold",
        "ing"
      ],
      [
        "mp",
        "ty"
      ],
      [
        "Ġapp",
        "ro"
      ],
      [
        "Ġbal",
        "cony"
      ],
      [
        "Ġsatis",
        "fa"
      ],
      [
        "P",
        "e"
      ],
      [
        "c",
        "re"
      ],
      [
        "c",
        "he"
      ],
      [
        "c",
        "hed"
      ],
      [
        "f",
        "all"
      ],
      [
        "r",
        "ance"
      ],
      [
        "t",
        "ub"
      ],
      [
        "ri",
        "ent"
      ],
      [
        "Ġs",
        "ell"
      ],
      [
        "Ġl",
        "ong"
      ],
      [
        "Ġcu",
        "t"
      ],
      [
        "Ġan",
        "other"
      ],
      [
        "Ġm",
        "ake"
      ],
      [
        "Ġg",
        "ate"
      ],
      [
        "Ġd",
        "ess"
      ],
      [
        "Ġaverage",
        "ly"
      ],
      [
        "ro",
        "ad"
      ],
      [
        "Ġde",
        "monstr"
      ],
      [
        "Ġplay",
        "ers"
      ],
      [
        "Ġcon",
        "du"
      ],
      [
        "ang",
        "es"
      ],
      [
        "Ġpo",
        "st"
      ],
      [
        "Ġperf",
        "or"
      ],
      [
        "Ġexperi",
        "ence"
      ],
      [
        "app",
        "y"
      ],
      [
        "play",
        "ers"
      ],
      [
        "f",
        "ort"
      ],
      [
        "i",
        "fe"
      ],
      [
        "l",
        "ing"
      ],
      [
        "s",
        "p"
      ],
      [
        "Ġ",
        "if"
      ],
      [
        "ri",
        "zon"
      ],
      [
        "Ġa",
        "v"
      ],
      [
        "Ġa",
        "ss"
      ],
      [
        "Ġw",
        "rap"
      ],
      [
        "pe",
        "ct"
      ],
      [
        "Ġm",
        "ari"
      ],
      [
        "Ġre",
        "ad"
      ],
      [
        "ch",
        "ild"
      ],
      [
        "ue",
        "st"
      ],
      [
        "man",
        "der"
      ],
      [
        "Ġli",
        "es"
      ],
      [
        "Ġcan",
        "al"
      ],
      [
        "Ġcar",
        "rots"
      ],
      [
        "est",
        "ri"
      ],
      [
        "Ġcom",
        "mander"
      ],
      [
        "Ġop",
        "tion"
      ],
      [
        "Ġloc",
        "ate"
      ],
      [
        "Ġwe",
        "b"
      ],
      [
        "lic",
        "op"
      ],
      [
        "Ġpoor",
        "ly"
      ],
      [
        "Ġho",
        "rizon"
      ],
      [
        "Ġprot",
        "ect"
      ],
      [
        "Ġbuil",
        "der"
      ],
      [
        "c",
        "at"
      ],
      [
        "c",
        "ase"
      ],
      [
        "f",
        "i"
      ],
      [
        "p",
        "assengers"
      ],
      [
        "s",
        "cope"
      ],
      [
        "an",
        "y"
      ],
      [
        "Ġc",
        "ast"
      ],
      [
        "Ġm",
        "in"
      ],
      [
        "Ġm",
        "ilitary"
      ],
      [
        "and",
        "on"
      ],
      [
        "her",
        "d"
      ],
      [
        "Ġtrain",
        "s"
      ],
      [
        "pl",
        "anes"
      ],
      [
        "Ġcon",
        "ne"
      ],
      [
        "uit",
        "ar"
      ],
      [
        "Ġop",
        "er"
      ],
      [
        "wor",
        "ks"
      ],
      [
        "Ġskate",
        "boarder"
      ],
      [
        "Some",
        "one"
      ],
      [
        "Ġhi",
        "k"
      ],
      [
        "Ġsatisfa",
        "ction"
      ],
      [
        "Pe",
        "ople"
      ],
      [
        "H",
        "e"
      ],
      [
        "S",
        "ever"
      ],
      [
        "b",
        "rity"
      ],
      [
        "h",
        "ic"
      ],
      [
        "i",
        "ers"
      ],
      [
        "n",
        "ic"
      ],
      [
        "Ġ",
        "25"
      ],
      [
        "Ġc",
        "age"
      ],
      [
        "Ġp",
        "ad"
      ],
      [
        "Ġs",
        "ay"
      ],
      [
        "ver",
        "al"
      ],
      [
        "Ġm",
        "ade"
      ],
      [
        "Ġre",
        "m"
      ],
      [
        "ree",
        "ts"
      ],
      [
        "Ġv",
        "an"
      ],
      [
        "Ġli",
        "ber"
      ],
      [
        "Ġbath",
        "tub"
      ],
      [
        "Ġcol",
        "our"
      ],
      [
        "Ġele",
        "ct"
      ],
      [
        "Ġfire",
        "work"
      ],
      [
        "Ġwa",
        "ve"
      ],
      [
        "Ġent",
        "rance"
      ],
      [
        "Ġreflect",
        "ed"
      ],
      [
        "Ġcontain",
        "er"
      ],
      [
        "Ġcorn",
        "er"
      ],
      [
        "Sever",
        "al"
      ],
      [
        "Ġliber",
        "ty"
      ],
      [
        "c",
        "ou"
      ],
      [
        "e",
        "ms"
      ],
      [
        "i",
        "al"
      ],
      [
        "t",
        "t"
      ],
      [
        "er",
        "n"
      ],
      [
        "Ġt",
        "ide"
      ],
      [
        "Ġp",
        "itch"
      ],
      [
        "Ġr",
        "ug"
      ],
      [
        "Ġn",
        "et"
      ],
      [
        "Ġe",
        "mpty"
      ],
      [
        "Ġre",
        "g"
      ],
      [
        "il",
        "es"
      ],
      [
        "ou",
        "ld"
      ],
      [
        "Ġg",
        "uitar"
      ],
      [
        "Ġch",
        "ange"
      ],
      [
        "Ġsun",
        "light"
      ],
      [
        "Ġhe",
        "ld"
      ],
      [
        "Ġcon",
        "cer"
      ],
      [
        "Ġspe",
        "ed"
      ],
      [
        "Ġhor",
        "ses"
      ],
      [
        "Ġreceiv",
        "es"
      ],
      [
        "tourist",
        "s"
      ],
      [
        "Ġab",
        "andon"
      ],
      [
        "Ġmari",
        "na"
      ],
      [
        "C",
        "he"
      ],
      [
        "b",
        "ee"
      ],
      [
        "o",
        "lympic"
      ],
      [
        "s",
        "c"
      ],
      [
        "u",
        "nd"
      ],
      [
        "y",
        "d"
      ],
      [
        "er",
        "ry"
      ],
      [
        "Ġf",
        "oll"
      ],
      [
        "Ġf",
        "ans"
      ],
      [
        "in",
        "ed"
      ],
      [
        "Ġt",
        "ro"
      ],
      [
        "Ġt",
        "ack"
      ],
      [
        "Ġt",
        "hough"
      ],
      [
        "Ġw",
        "ere"
      ],
      [
        "Ġm",
        "at"
      ],
      [
        "ol",
        "fer"
      ],
      [
        "Ġd",
        "am"
      ],
      [
        "ag",
        "er"
      ],
      [
        "tra",
        "in"
      ],
      [
        "os",
        "es"
      ],
      [
        "Ġsm",
        "iling"
      ],
      [
        "Ġj",
        "e"
      ],
      [
        "Ġadd",
        "ress"
      ],
      [
        "Ġlead",
        "ing"
      ],
      [
        "Ġpre",
        "m"
      ],
      [
        "Ġpre",
        "p"
      ],
      [
        "Ġgo",
        "ing"
      ],
      [
        "Ġmon",
        "arch"
      ],
      [
        "Ġreason",
        "ably"
      ],
      [
        "Ġtom",
        "atoes"
      ],
      [
        "Ġfar",
        "mer"
      ],
      [
        "Ġjo",
        "int"
      ],
      [
        "It",
        "alian"
      ],
      [
        "Ġset",
        "ting"
      ],
      [
        "Ġcompet",
        "ition"
      ],
      [
        "licop",
        "ter"
      ],
      [
        "Ġconcer",
        "t"
      ],
      [
        "B",
        "y"
      ],
      [
        "S",
        "he"
      ],
      [
        "S",
        "erving"
      ],
      [
        "b",
        "i"
      ],
      [
        "i",
        "ver"
      ],
      [
        "i",
        "ence"
      ],
      [
        "r",
        "am"
      ],
      [
        "t",
        "rees"
      ],
      [
        "Ġc",
        "ru"
      ],
      [
        "id",
        "es"
      ],
      [
        "Ġh",
        "yd"
      ],
      [
        "Ġnear",
        "by"
      ],
      [
        "Ġm",
        "ain"
      ],
      [
        "Ġk",
        "now"
      ],
      [
        "ab",
        "bit"
      ],
      [
        "Ġprov",
        "ide"
      ],
      [
        "Ġsp",
        "ider"
      ],
      [
        "ud",
        "ience"
      ],
      [
        "cl",
        "ose"
      ],
      [
        "Ġcolor",
        "ful"
      ],
      [
        "Ġloc",
        "al"
      ],
      [
        "Ġland",
        "ing"
      ],
      [
        "Ġpull",
        "ing"
      ],
      [
        "Ġbuil",
        "t"
      ],
      [
        "Ġcons",
        "ider"
      ],
      [
        "a",
        "ut"
      ],
      [
        "g",
        "y"
      ],
      [
        "l",
        "ess"
      ],
      [
        "n",
        "is"
      ],
      [
        "o",
        "derate"
      ],
      [
        "t",
        "ure"
      ],
      [
        "Ġf",
        "ix"
      ],
      [
        "Ġa",
        "udience"
      ],
      [
        "Ġp",
        "ic"
      ],
      [
        "Ġr",
        "abbit"
      ],
      [
        "Ġs",
        "co"
      ],
      [
        "Ġw",
        "ed"
      ],
      [
        "Ġw",
        "ould"
      ],
      [
        "Ġb",
        "ay"
      ],
      [
        "pe",
        "ople"
      ],
      [
        "ow",
        "ever"
      ],
      [
        "Ġd",
        "etail"
      ],
      [
        "ĠH",
        "owever"
      ],
      [
        "Ġlow",
        "er"
      ],
      [
        "Ġst",
        "ri"
      ],
      [
        "Ġit",
        "ems"
      ],
      [
        "Ġtra",
        "ditional"
      ],
      [
        "Ġexp",
        "lo"
      ],
      [
        "Ġcar",
        "go"
      ],
      [
        "Ġcom",
        "m"
      ],
      [
        "Ġsta",
        "ge"
      ],
      [
        "Ġve",
        "gg"
      ],
      [
        "Ġtow",
        "ards"
      ],
      [
        "Ġwel",
        "com"
      ],
      [
        "Ġpot",
        "atoes"
      ],
      [
        "Ġdrin",
        "ks"
      ],
      [
        "Ġhel",
        "p"
      ],
      [
        "bi",
        "ological"
      ],
      [
        "Ġhyd",
        "rant"
      ],
      [
        "c",
        "ar"
      ],
      [
        "t",
        "wo"
      ],
      [
        "Ġf",
        "resh"
      ],
      [
        "in",
        "es"
      ],
      [
        "am",
        "er"
      ],
      [
        "Ġr",
        "ose"
      ],
      [
        "Ġs",
        "ee"
      ],
      [
        "Ġs",
        "hi"
      ],
      [
        "Ġw",
        "on"
      ],
      [
        "Ġm",
        "iss"
      ],
      [
        "ra",
        "ce"
      ],
      [
        "ate",
        "g"
      ],
      [
        "um",
        "in"
      ],
      [
        "Ġk",
        "et"
      ],
      [
        "et",
        "y"
      ],
      [
        "Ġsh",
        "irt"
      ],
      [
        "Ġsta",
        "re"
      ],
      [
        "Ġve",
        "hic"
      ],
      [
        "Ġbook",
        "s"
      ],
      [
        "Ġmee",
        "t"
      ],
      [
        "Ġpo",
        "int"
      ],
      [
        "Ġprot",
        "est"
      ],
      [
        "Ġoverlook",
        "ing"
      ],
      [
        "Ġspeci",
        "es"
      ],
      [
        "Ġspeci",
        "al"
      ],
      [
        "Ġmak",
        "es"
      ],
      [
        "fi",
        "eld"
      ],
      [
        "C",
        "u"
      ],
      [
        "F",
        "rench"
      ],
      [
        "O",
        "n"
      ],
      [
        "T",
        "ravellers"
      ],
      [
        "Ġ",
        "'"
      ],
      [
        "Ġc",
        "ateg"
      ],
      [
        "Ġa",
        "way"
      ],
      [
        "st",
        "em"
      ],
      [
        "Ġt",
        "ri"
      ],
      [
        "Ġo",
        "rient"
      ],
      [
        "Ġp",
        "alm"
      ],
      [
        "id",
        "ent"
      ],
      [
        "ear",
        "ch"
      ],
      [
        "Ġm",
        "ay"
      ],
      [
        "Ġco",
        "uld"
      ],
      [
        "ut",
        "h"
      ],
      [
        "or",
        "ts"
      ],
      [
        "Ġg",
        "uest"
      ],
      [
        "ĠH",
        "igh"
      ],
      [
        "Ġch",
        "rist"
      ],
      [
        "Ġsun",
        "flower"
      ],
      [
        "Ġgrass",
        "y"
      ],
      [
        "Ġwalk",
        "s"
      ],
      [
        "ail",
        "able"
      ],
      [
        "Ġdog",
        "s"
      ],
      [
        "ci",
        "ous"
      ],
      [
        "Ġbas",
        "e"
      ],
      [
        "Ġdi",
        "re"
      ],
      [
        "Ġfeat",
        "uring"
      ],
      [
        "Ġsc",
        "iss"
      ],
      [
        "Ġcli",
        "ff"
      ],
      [
        "Ġra",
        "is"
      ],
      [
        "Ġcre",
        "ate"
      ],
      [
        "wh",
        "ite"
      ],
      [
        "Ġmust",
        "ard"
      ],
      [
        "Ġcondu",
        "ct"
      ],
      [
        "Cu",
        "stomer"
      ],
      [
        "Ġcateg",
        "ory"
      ],
      [
        "d",
        "ge"
      ],
      [
        "i",
        "ere"
      ],
      [
        "t",
        "here"
      ],
      [
        "u",
        "al"
      ],
      [
        "an",
        "ket"
      ],
      [
        "Ġc",
        "ool"
      ],
      [
        "Ġf",
        "are"
      ],
      [
        "Ġf",
        "ries"
      ],
      [
        "Ġt",
        "w"
      ],
      [
        "Ġt",
        "er"
      ],
      [
        "Ġp",
        "h"
      ],
      [
        "Ġp",
        "ush"
      ],
      [
        "Ġr",
        "oses"
      ],
      [
        "Ġs",
        "qu"
      ],
      [
        "ĠC",
        "hildren"
      ],
      [
        "Ġw",
        "re"
      ],
      [
        "Ġm",
        "ass"
      ],
      [
        "Ġre",
        "cur"
      ],
      [
        "Ġco",
        "ur"
      ],
      [
        "Ġri",
        "bb"
      ],
      [
        "ĠR",
        "ated"
      ],
      [
        "Ġch",
        "oo"
      ],
      [
        "Ġhe",
        "licopter"
      ],
      [
        "Ġsh",
        "ow"
      ],
      [
        "Ġtop",
        "ped"
      ],
      [
        "Ġbl",
        "anket"
      ],
      [
        "Ġsc",
        "reen"
      ],
      [
        "Ġdeli",
        "cious"
      ],
      [
        "Ġgri",
        "ll"
      ],
      [
        "bu",
        "ild"
      ],
      [
        "Ġill",
        "umin"
      ],
      [
        "Ġsce",
        "ne"
      ],
      [
        "Ġdess",
        "ert"
      ],
      [
        "Ġav",
        "ailable"
      ],
      [
        "Ġconne",
        "ct"
      ],
      [
        "Ġprem",
        "iere"
      ],
      [
        "d",
        "hi"
      ],
      [
        "f",
        "ighter"
      ],
      [
        "n",
        "s"
      ],
      [
        "Ġc",
        "ir"
      ],
      [
        "ri",
        "te"
      ],
      [
        "he",
        "ad"
      ],
      [
        "Ġl",
        "id"
      ],
      [
        "ra",
        "in"
      ],
      [
        "Ġon",
        "to"
      ],
      [
        "Ġcl",
        "ear"
      ],
      [
        "ation",
        "al"
      ],
      [
        "Ġor",
        "anges"
      ],
      [
        "ist",
        "er"
      ],
      [
        "ach",
        "t"
      ],
      [
        "row",
        "ave"
      ],
      [
        "Ġcelebr",
        "ation"
      ],
      [
        "Ġwhe",
        "n"
      ],
      [
        "erm",
        "en"
      ],
      [
        "Ġbar",
        "n"
      ],
      [
        "Ġdeliver",
        "s"
      ],
      [
        "Ġvari",
        "ety"
      ],
      [
        "Ġallow",
        "ed"
      ],
      [
        "Ġbi",
        "ke"
      ],
      [
        "Ġben",
        "ch"
      ],
      [
        "Ġcand",
        "le"
      ],
      [
        "Ġfro",
        "st"
      ],
      [
        "she",
        "ep"
      ],
      [
        "Ġdoughn",
        "ut"
      ],
      [
        "Ġdam",
        "age"
      ],
      [
        "R",
        "iverside"
      ],
      [
        "c",
        "list"
      ],
      [
        "i",
        "o"
      ],
      [
        "r",
        "al"
      ],
      [
        "Ġ",
        "es"
      ],
      [
        "Ġl",
        "amb"
      ],
      [
        "Ġprice",
        "y"
      ],
      [
        "ed",
        "estri"
      ],
      [
        "ho",
        "scope"
      ],
      [
        "Ġst",
        "et"
      ],
      [
        "ul",
        "ar"
      ],
      [
        "Ġfl",
        "at"
      ],
      [
        "Ġpl",
        "ates"
      ],
      [
        "Ġv",
        "ase"
      ],
      [
        "Ġqu",
        "ite"
      ],
      [
        "Ġfeed",
        "ing"
      ],
      [
        "Ġsurf",
        "ace"
      ],
      [
        "Ġsurf",
        "board"
      ],
      [
        "Ġvari",
        "ous"
      ],
      [
        "Ġshin",
        "e"
      ],
      [
        "rin",
        "k"
      ],
      [
        "Ġpill",
        "ow"
      ],
      [
        "Ġcab",
        "in"
      ],
      [
        "Ġpep",
        "per"
      ],
      [
        "Ġmic",
        "rowave"
      ],
      [
        "Ġreg",
        "ion"
      ],
      [
        "Ġstet",
        "hoscope"
      ],
      [
        "M",
        "oderate"
      ],
      [
        "g",
        "round"
      ],
      [
        "m",
        "as"
      ],
      [
        "n",
        "ed"
      ],
      [
        "u",
        "ck"
      ],
      [
        "Ġ",
        "im"
      ],
      [
        "at",
        "ive"
      ],
      [
        "Ġt",
        "oo"
      ],
      [
        "Ġp",
        "ay"
      ],
      [
        "Ġp",
        "edestri"
      ],
      [
        "Ġw",
        "ife"
      ],
      [
        "Ġin",
        "t"
      ],
      [
        "al",
        "t"
      ],
      [
        "Ġm",
        "om"
      ],
      [
        "Ġre",
        "ac"
      ],
      [
        "Ġco",
        "tt"
      ],
      [
        "Ġmo",
        "use"
      ],
      [
        "Ġgra",
        "y"
      ],
      [
        "Ġar",
        "ch"
      ],
      [
        "Ġar",
        "range"
      ],
      [
        "Ġsp",
        "rink"
      ],
      [
        "Ġcom",
        "ple"
      ],
      [
        "Ġsta",
        "ir"
      ],
      [
        "Ġbl",
        "ock"
      ],
      [
        "Ġhill",
        "s"
      ],
      [
        "Ġspe",
        "ak"
      ],
      [
        "mb",
        "ers"
      ],
      [
        "Ġrail",
        "way"
      ],
      [
        "Ġform",
        "ation"
      ],
      [
        "Ġinclud",
        "e"
      ],
      [
        "Ġcont",
        "in"
      ],
      [
        "Ġter",
        "race"
      ],
      [
        "Ġwre",
        "ath"
      ],
      [
        "Ġribb",
        "on"
      ],
      [
        "dhi",
        "st"
      ],
      [
        "E",
        "nglish"
      ],
      [
        "p",
        "aper"
      ],
      [
        "s",
        "occer"
      ],
      [
        "w",
        "n"
      ],
      [
        "Ġf",
        "lies"
      ],
      [
        "ce",
        "nd"
      ],
      [
        "Ġp",
        "il"
      ],
      [
        "Ġw",
        "at"
      ],
      [
        "Ġan",
        "y"
      ],
      [
        "Ġg",
        "la"
      ],
      [
        "Ġd",
        "ine"
      ],
      [
        "Ġpl",
        "anes"
      ],
      [
        "izz",
        "as"
      ],
      [
        "Ġli",
        "ft"
      ],
      [
        "Ġar",
        "m"
      ],
      [
        "ph",
        "alt"
      ],
      [
        "Ġfe",
        "male"
      ],
      [
        "Ġse",
        "veral"
      ],
      [
        "Ġmot",
        "ion"
      ],
      [
        "Ġap",
        "art"
      ],
      [
        "Ġban",
        "k"
      ],
      [
        "Ġhold",
        "s"
      ],
      [
        "Ġmed",
        "al"
      ],
      [
        "Ġbox",
        "er"
      ],
      [
        "Ġdep",
        "ic"
      ],
      [
        "Ġfun",
        "ction"
      ],
      [
        "Ġra",
        "ise"
      ],
      [
        "fire",
        "works"
      ],
      [
        "Ġtack",
        "le"
      ],
      [
        "C",
        "ome"
      ],
      [
        "c",
        "ie"
      ],
      [
        "l",
        "arge"
      ],
      [
        "m",
        "e"
      ],
      [
        "p",
        "ers"
      ],
      [
        "w",
        "ater"
      ],
      [
        "Ġc",
        "are"
      ],
      [
        "Ġt",
        "re"
      ],
      [
        "Ġt",
        "erm"
      ],
      [
        "Ġt",
        "ax"
      ],
[...]
